#version: 0.2 - Trained by `huggingface/tokenizers`
Ġ t
h e
Ġ a
i n
Ġt he
Ġ o
Ġ s
r e
Ġ w
n d
e r
o n
a t
Ġ b
i s
Ġ c
e d
Ġ h
i t
e n
Ġo f
Ġ f
Ġ p
Ġ m
Ġa nd
o u
e s
in g
Ġ in
Ġ d
Ġt o
o r
a r
a n
a s
Ġt h
Ġ l
l l
Ġ n
Ġ he
o m
i c
i on
Ġ Ġ
Ġ e
l e
Ġ g
Ġb e
a l
en t
a d
Ġ re
r o
s t
u t
i m
l y
i d
Ġw h
o t
s e
v e
c e
Ġ "
o w
Ġo n
Ġ u
c t
Ġ it
Ġth at
Ġw as
it h
Ġw ith
l d
u r
Ġh is
a y
Ġa s
Ġs t
Ġ i
v er
Ġ is
Ġf or
e t
g h
Ġ y
i r
Ġa n
Ġ r
at ion
c h
Ġa t
e re
Ġn ot
Ġc on
Ġh a
Ġf r
t er
a m
ĠĠ ĠĠ
o l
Ġh ad
Ġy ou
Ġo r
he r
es s
i l
u l
a ll
Ġs e
Ġb y
re s
a in
Ġh im
u s
gh t
Ġd e
Ġs u
Ġ v
r i
ic h
- -
a nd
Ġs h
Ġ k
a c
p p
Ġhe r
Ġe x
Ġfr om
o o
' s
Ġs o
er s
o s
i ll
Ġb ut
ou ld
t h
Ġc om
Ġn e
e m
a g
i f
o re
Ġs a
Ġwh ich
Ġp r
o v
e ct
ou s
q u
a p
Ġc h
es t
Ġa ll
an t
. .
a k
u m
a b
Ġw he
Ġw ere
Ġs he
Ġp ro
n t
is t
i ght
. "
Ġa l
at e
i g
Ġa r
Ġwh o
Ġth is
Ġ j
Ġa re
Ġthe y
Ġs p
u st
Ġ ro
Ġw e
ar t
ou nd
ar d
Ġm e
ou t
Ġu p
m ent
i ve
Ġin t
on e
o p
Ġsa id
re d
Ġha ve
, "
Ġl e
Ġa b
Ġf e
Ġ 1
Ġu n
Ġon e
i e
ar y
i es
Ġd o
ver y
res s
Ġpr in
se l
f f
ou r
it y
Ġd is
Ġm an
Ġthe re
am e
i v
Ġa m
on g
om e
Ġthe ir
t her
r a
Ġwhe n
Ġa d
p er
k ed
u n
ĠĠĠĠ ĠĠĠĠ
u re
Ġg o
a ce
all y
or t
Ġk n
c c
oo d
Ġc o
g e
p t
at ed
i er
Ġn o
Ġbe en
Ġwh at
Ġthe m
Ġm ay
he d
Ġ _
Ġm y
ion s
Ġ im
r y
t he
nd er
o c
Ġo ut
as t
Ġ en
Ġp l
ou nt
k e
Ġa g
Ġf re
a ct
i b
p l
in d
Ġe v
o st
ab le
s u
re at
a u
? "
! "
Ġw or
e ll
Ġ qu
Ġi f
sel f
ou gh
o se
Ġint o
ro w
c ess
ere d
e l
o d
Ġm ore
ac k
h ing
an ce
Ġc l
Ġa pp
Ġcon t
an s
Ġof f
c i
ow n
a v
e nd
Ġp ier
as s
Ġo ther
it t
Ġt r
Ġw ould
Ġl oo
id e
Ġpier re
Ġu nder
Ġs m
Ġprin ce
Ġd id
Ġp art
Ġt im
ag e
ic e
Ġan y
ur n
it e
Ġre s
w ay
Ġa f
Ġon ly
Ġc an
Ġc ount
Ġs ome
en ce
e ar
Ġe m
Ġre p
u b
c l
Ġcom m
Ġl i
Ġb l
is h
Ġre m
as e
Ġb r
Ġin d
an g
Ġ (
re w
Ġo ver
Ġc ould
Ġw ill
ul t
in e
a re
ou ght
Ġt w
Ġbe c
e p
Ġp e
Ġha nd
Ġit s
Ġn at
i le
Ġn ow
Ġfor m
h a
Ġaf ter
o ve
f t
Ġh as
f ore
Ġp er
k ing
Ġh ow
Ġg r
i al
at es
i re
Ġne w
Ġsh ould
in t
it ion
ad e
Ġtim e
i ed
ĠĠ Ġ
i a
Ġin f
ct ion
Ġag ain
Ġg l
Ġf ir
Ġe very
Ġf o
Ġt ak
Ġar m
Ġcom p
Ġab out
u d
Ġim p
Ġthe n
w n
ation s
Ġp re
ig n
i z
Ġyou r
Ġat t
Ġsu ch
er al
y es
p h
Ġcon s
Ġex p
Ġbe fore
Ġf l
os s
Ġth an
Ġbe g
ic al
c o
Ġp res
or y
Ġkn ow
u c
b er
if e
' t
an c
n ch
Ġse e
Ġ very
Ġw ar
Ġg en
a ch
u ll
Ġl ong
or m
Ġd ay
as ha
er v
i ous
Ġs c
en s
Ġm ar
o int
is e
u e
Ġfre nch
Ġd own
n ess
us s
on s
Ġst r
Ġo ld
Ġev en
ot her
i p
Ġthe se
Ġs l
Ġm en
or s
w ard
Ġnat asha
Ġth ose
ul ar
Ġs ay
Ġs ur
if f
id ent
er ic
Ġfir st
Ġand rew
Ġhim self
w e
Ġo ur
or d
k s
Ġf ace
om et
Ġli ke
t ain
Ġ 2
o k
is s
l ic
it ed
Ġa cc
Ġup on
Ġtw o
Ġg reat
ri ed
o y
Ġs omet
en ed
f ul
ll ow
Ġre g
w h
Ġs y
Ġro st
ut ion
au se
at her
Ġth r
a ir
Ġc ar
Ġth ought
Ġo b
n a
at h
Ġu s
j ect
Ġs ame
re ad
Ġo cc
Ġam eric
Ġ ent
ib le
Ġm ust
i ly
Ġst ates
er m
i an
n ing
t e
Ġo p
itt le
a w
Ġw ent
Ġd es
Ġc ol
Ġwith out
Ġm ade
ver n
Ġbe t
Ġro om
Ġ1 8
Ġl ittle
Ġa ct
at t
Ġc ame
Ġp ass
am p
Ġor d
Ġsu b
Ġa ff
Ġsp e
n e
s o
re e
Ġrost ov
Ġse em
Ġ 3
Ġwhe re
Ġoff ic
o le
ing s
Ġa c
.. .
Ġt urn
Ġm et
t y
Ġpe op
Ġ 4
Ġe yes
n g
Ġgen eral
Ġprin cess
a il
Ġo wn
Ġw ay
l t
a ve
ow er
Ġbe ing
Ġst ill
v ing
Ġm ost
Ġth in
a red
Ġgo vern
Ġl et
Ġs k
Ġhe ad
ent s
Ġj ust
r u
Ġpeop le
ri b
Ġr ight
Ġthr ough
Ġ =
l ed
Ġd ist
is su
ear s
Ġl ife
y a
Ġp ol
Ġcom e
is hed
ĠĠĠĠĠĠĠĠ ĠĠĠĠĠĠĠĠ
p e
Ġin ter
Ġin c
Ġt issu
is ed
th ing
Ġa way
Ġm ary
Ġcon f
Ġsu pp
he s
ic k
Ġan other
Ġle ft
Ġre l
Ġre t
u res
o g
Ġd iff
at ter
Ġe nd
Ġha pp
Ġex t
Ġg ood
Ġas s
l es
Ġb ack
ou se
Ġco nd
Ġwe ll
Ġbeg an
t ed
Ġm ak
Ġr uss
Ġch ar
i ld
d en
= --
ect ed
r ation
Ġs on
. =--
Ġas ked
Ġal so
c er
Ġdis e
Ġres ult
Ġcon st
0 0
Ġwor d
Ġarm y
i gh
v ed
Ġc ap
os c
u ch
Ġloo ked
Ġen g
way s
at ing
Ġf ound
o nd
Ġst re
Ġwh ile
Ġwho le
Ġc our
ect ion
Ġfo llow
at er
Ġsh all
Ġc or
Ġc all
Ġh ouse
Ġ '
Ġm osc
r it
as es
y s
Ġkn e
Ġre ad
Ġunder st
Ġre f
Ġad d
Ġmosc ow
ut e
on t
i ent
en c
Ġw om
Ġp et
ic t
ot h
Ġre c
Ġc le
ub lic
Ġw ound
Ġde f
Ġin v
c ul
Ġu su
Ġfe lt
Ġs er
i x
ro s
ie f
Ġseem ed
Ġp at
m an
ce pt
Ġst ate
Ġgovern ment
Ġyou ng
Ġad v
Ġp ers
if ic
o ld
Ġl aw
Ġameric an
Ġso ld
Ġsomet hing
l and
Ġhis t
Ġpl ace
Ġem per
Ġs et
Ġab s
g ress
os ed
Ġf ar
Ġm uch
Ġt e
Ġcont in
Ġe ff
in ed
Ġv o
e v
Ġha ving
Ġt al
Ġn ap
Ġn or
we en
Ġagain st
Ġb ro
Ġhe re
Ġin st
ur ing
w ell
Ġ es
Ġl ar
Ġ 5
os ition
Ġbet ween
ol as
Ġemper or
Ġg iv
Ġhe ard
ich olas
Ġp ower
Ġl ast
Ġe le
Ġfe el
Ġf ore
ole on
u z
Ġg row
n er
Ġs at
Ġb one
ant s
Ġm a
Ġexp ress
ent ion
Ġth ough
Ġnap oleon
Ġdise ase
Ġne ver
Ġcomm and
l ess
Ġp le
Ġp oss
Ġn icholas
Ġre st
Ġb att
Ġd on
ent ly
Ġe ar
d den
Ġh or
Ġnot hing
ver s
Ġde p
Ġsa w
Ġd r
Ġd en
an k
ain ed
Ġman y
Ġr ound
oc k
Ġbe l
Ġal ways
Ġbec ause
Ġtak e
Ġs il
Ġbl ood
in ess
l ing
Ġle g
ov ed
om a
Ġe l
Ġsk in
Ġcons id
Ġqu est
Ġocc ur
Ġf ather
Ġm om
Ġm us
and s
Ġhand s
Ġsm all
p s
t en
Ġto ok
ar k
Ġg et
Ġy ears
Ġsu dden
Ġk e
Ġb or
Ġm ight
m en
Ġp ur
Ġon ce
) .
od y
Ġt ell
Ġm ove
Ġde m
u nd
Ġd ire
Ġthin k
at ive
l i
v es
ter s
Ġun ited
y ou
Ġw ant
il it
Ġfr ie
Ġth ree
Ġs erv
Ġs im
an ge
Ġtissu e
Ġs ou
.. ."
Ġp ain
Ġloo k
Ġto o
. _
u p
Ġm in
Ġfrie nd
Ġc a
os is
Ġp h
Ġsu ff
Ġle ad
k i
p le
Ġg u
Ġv ar
Ġk ut
Ġhe l
uz ov
Ġin s
id ed
Ġcontin u
t s
Ġs ide
an e
i et
Ġm or
Ġfre e
Ġcol on
Ġt er
Ġkut uzov
Ġm em
Ġi r
il ity
Ġd ra
ros s
act er
Ġp ut
t ing
in s
Ġdo or
Ġusu ally
Ġmom ent
t on
Ġt reat
er tain
g ed
Ġb oth
ve l
Ġsh ow
_ ,
pp ed
iv ed
b ut
ou b
Ġconst it
Ġw r
Ġp ar
it her
Ġf in
wh at
u al
Ġlar ge
Ġl im
s w
Ġs in
he re
Ġre d
Ġj oint
Ġl ove
Ġg ive
Ġcon v
Ġmak e
Ġm on
Ġch ild
Ġturn ed
Ġm atter
au gh
Ġf act
co nd
ment s
Ġd uring
m es
it s
e ver
re n
is m
Ġre v
Ġan sw
i red
o h
Ġh ol
Ġp ress
ere st
Ġkne w
Ġsudden ly
i ers
Ġch ap
read y
Ġunderst and
Ġcount ess
re m
Ġto ld
en ing
Ġal ready
il i
Ġne ar
Ġret urn
Ġn ation
ist s
Ġch ief
s h
en e
Ġad m
Ġpres ent
Ġc he
Ġc ertain
Ġbatt le
em ent
Ġc r
Ġwh om
Ġspe ak
Ġwh y
Ġev ident
Ġb o
Ġy et
Ġfe w
Ġqu ite
s on
Ġ ve
Ġd i
h ov
Ġord er
g et
p r
Ġc ase
ie ld
Ġint erest
c le
y ing
Ġp oint
iz ed
ou n
as ed
Ġbe h
ol ution
Ġde c
o ke
ull y
n ot
Ġre ce
Ġchap ter
Ġoffic er
Ġfr ont
.. ..
Ġvo ice
c hed
im es
ac es
end ed
Ġhol mes
u red
Ġword s
n o
Ġt ro
Ġcount ry
Ġruss ian
Ġcon gress
c ed
Ġof ten
Ġne cess
Ġso on
ci ally
Ġc ases
ct ed
Ġpro v
Ġwor k
Ġday s
c es
Ġd et
Ġimp ort
Ġam ong
g n
Ġse cond
Ġar t
Ġloo king
at ic
ci al
Ġo pp
Ġre pl
Ġ est
Ġre co
Ġse en
us ed
er ve
Ġn um
Ġs ign
d e
Ġc ir
Ġevery thing
Ġl ab
Ġg ave
ar ing
Ġsh out
Ġtak en
Ġ x
as on
er ing
en se
ac ed
Ġs ent
Ġb us
is ov
Ġh igh
Ġd ress
u g
Ġh ard
Ġp osition
c k
Ġt um
Ġl ess
oo k
ate ly
Ġ1 9
a it
Ġs w
Ġd one
Ġr an
ere nt
it ies
Ġp a
Ġd est
ar s
Ġim m
' ll
Ġde ar
Ġsm ile
Ġson ya
Ġt ub
it al
it is
Ġse ver
Ġapp ro
Ġc row
ac hed
Ġpro d
Ġhow ever
Ġc ent
Ġth ir
i ans
ic ular
n ed
Ġsomet imes
Ġpol it
im ent
Ġden isov
Ġt end
Ġl ist
Ġcall ed
Ġr a
p ect
u se
Ġto ward
Ġb on
ut h
id es
Ġc ur
th at
Ġsold iers
Ġother s
Ġe ach
Ġbec ome
Ġf am
Ġcomm on
is ion
ter n
Ġse c
ag es
Ġal ong
Ġtr ans
Ġquest ion
Ġbr ought
Ġo per
is on
Ġv es
Ġinf l
b r
pe cially
Ġbeh ind
Ġpr om
Ġtum our
Ġpro p
Ġr ap
Ġpre v
i i
Ġl ad
it ions
Ġl ight
Ġu l
Ġor g
-- --
b le
x t
Ġh al
Ġl ay
Ġh um
Ġb ur
Ġn ight
Ġex pl
sel ves
u ct
Ġu se
Ġcour se
Ġwor ld
Ġper i
Ġpat ient
Ġm er
ic ult
Ġst and
Ġan g
ab ly
Ġpres ident
Ġves sel
Ġdo es
Ġconstit ution
Ġm r
Ġst ood
op s
m ost
Ġd ol
us hed
Ġ1 7
Ġes pecially
Ġ |
Ġf ind
anc es
._ --
itt ing
Ġcle ar
b ur
Ġu nt
ie w
Ġkn own
Ġany thing
Ġhor se
Ġc al
le x
Ġwom en
et s
f ully
Ġc ause
ry ing
Ġ ed
Ġdis c
t o
y l
p ar
Ġs le
Ġrep ublic
Ġsever al
u nt
Ġv is
Ġhist ory
Ġ [
Ġf our
Ġp o
Ġ #
Ġpers on
Ġevident ly
Ġw ife
Ġm ind
Ġst e
Ġst ep
Ġpass ed
Ġgo ing
uc k
a z
Ġb es
Ġp ap
Ġne ed
v en
Ġb ri
Ġc amp
Ġl and
Ġk ind
iz e
Ġgiv en
Ġm iss
Ġad j
Ġr u
Ġcomp an
Ġinc re
Ġsm il
Ġinf ection
Ġfeel ing
y m
er ation
Ġco ll
ov na
ap s
a x
Ġl oc
Ġcond ition
Ġtub er
Ġa ction
Ġb re
Ġth ous
Ġsy m
f act
Ġex c
Ġpro t
Ġs ound
ur y
Ġcon n
Ġde l
Ġsur f
Ġf ed
Ġgo d
e c
f or
Ġa w
he n
Ġd iv
anc ed
l ish
Ġt erm
Ġf ig
al s
ve re
Ġfo ot
Ġt en
Ġt ra
Ġmove ment
Ġm ass
one y
al th
Ġi ll
Ġpro ject
Ġbr it
air s
Ġdiff erent
at ure
Ġp ort
Ġg erm
ch ing
Ġwhe ther
Ġsou th
Ġin j
Ġlab or
Ġher self
Ġrap id
Ġw ind
Ġl ater
ill ed
Ġchar acter
Ġposs ible
re t
Ġb ody
Ġch ang
Ġapp ear
Ġrep e
Ġwh ite
Ġmor ning
r on
Ġp op
Ġs ing
Ġv as
Ġal one
oc r
ok hov
u ro
Ġv ir
Ġen em
Ġcrow d
Ġorg an
ed i
enc y
Ġwom an
ere n
Ġop en
Ġr un
Ġde ath
Ġma j
Ġde v
f orm
Ġfollow ed
Ġdol okhov
_ .
Ġb al
am m
Ġbec om
Ġm other
uc ed
Ġexpress ion
Ġdra w
Ġm oney
Ġdire ct
Ġtreat ment
Ġnecess ary
Ġhal f
ou d
ust ri
Ġunt il
c rib
Ġm ain
Ġn erve
Ġhe art
per i
ic es
Ġh our
Ġm ad
Ġhe av
ag ed
Ġw est
Ġal most
Ġtro ops
Ġrepl ied
o id
Ġth ings
Ġconsid er
Ġbus iness
) ,
in al
Ġb u
Ġb ed
a pp
Ġp ublic
Ġl ym
Ġe as
ent y
Ġdis p
Ġoffic ers
Ġlym ph
Ġf ib
ect ive
Ġme et
Ġnation al
Ġe p
Ġbec ame
er y
Ġd oub
Ġl in
ain s
Ġcl ose
Ġar ter
is ing
ul ation
Ġro ad
pl oy
Ġhel p
Ġde cl
Ġde ep
cl ud
Ġeng land
Ġf av
Ġp p
Ġwith in
Ġme as
Ġt em
Ġh old
Ġdo ct
Ġt re
Ġh ome
Ġe qu
Ġy es
Ġdiff icult
Ġcommand er
Ġfre qu
Ġrem em
Ġreco gn
Ġsp read
Ġ 6
in ation
Ġm id
Ġm ilit
Ġth ing
Ġthem selves
Ġob s
Ġset t
is ter
Ġnum ber
ar m
Ġd ri
Ġh on
un g
Ġsin ce
Ġn ame
Ġab ove
Ġtak ing
Ġadd ed
a im
ut en
us h
ac y
Ġpart y
amp le
Ġhist or
Ġc are
Ġco ld
Ġpart s
Ġem ploy
Ġc art
am ed
Ġpl an
Ġsub ject
Ġd ro
Ġl a
Ġqu ick
ang er
Ġtissu es
r ound
Ġt able
Ġs en
Ġso ft
Ġtal k
bur g
Ġenem y
Ġh op
Ġf ield
Ġan na
Ġle ave
oc i
Ġameric a
Ġw at
ic s
Ġinv ol
Ġcontinu ed
ri v
Ġtuber cul
h od
l f
Ġe ither
iv es
Ġlet ter
Ġbor is
Ġlim b
Ġhe ld
Ġy ear
ard s
Ġbel ie
Ġh und
Ġe ver
se m
Ġst o
Ġex ample
ust ration
Ġapp e
Ġb all
Ġf ull
as ter
Ġf all
Ġre ason
Ġcont r
Ġnew s
Ġple as
l ovna
Ġc ried
ur al
Ġhund red
i k
Ġf ire
Ġme an
Ġfe llow
Ġcar ried
Ġg ot
Ġnor th
Ġimport ant
Ġw ait
Ġun ion
Ġrece ived
at ures
Ġb est
or k
Ġreg iment
Ġsy ph
vel op
Ġsurf ace
Ġg ent
Ġre al
ber g
00 0
Ġw all
ill ustration
em pt
Ġcan not
Ġent ered
Ġeff ect
Ġdem ocr
k a
Ġc ut
Ġh ur
Ġh ors
Ġl es
Ġus ed
e x
Ġs it
Ġw al
Ġgl ands
Ġcomp le
Ġsy st
augh ter
Ġan at
Ġv iew
Ġpart icular
Ġc ell
Ġf ing
Ġit self
Ġsh ort
Ġne xt
Ġpro cess
Ġto wn
Ġg ir
Ġar ound
Ġsay ing
Ġs itting
Ġpre p
Ġstr ong
Ġc iv
Ġsyst em
b ers
d ay
Ġtw enty
w here
Ġm ere
Ġor ig
Ġass oci
c on
Ġs n
at s
Ġb ar
Ġpro f
Ġgrow th
Ġa v
ol k
Ġpe ace
ious ly
Ġsur round
Ġpet ya
Ġsp ir
Ġeven ing
Ġbet ter
Ġgerm an
uten berg
# --
Ġthous and
Ġbrit ish
a h
Ġha ir
Ġimp oss
eren ce
Ġhors es
. #--
Ġto get
Ġg e
Ġsu cc
itt ed
cl es
Ġpet ers
Ġtoget her
e ur
o b
u ce
Ġd ark
Ġb urn
iss ion
Ġrev olution
us ion
Ġbon es
d le
or ity
Ġop in
Ġear ly
c om
Ġa uth
Ġs ix
Ġg re
Ġex ce
ak e
Ġpl ay
Ġpolit ical
uro pe
b ed
c hes
Ġex cept
Ġbeg in
Ġshout ed
Ġre ally
Ġk ing
Ġform s
ys m
Ġas k
Ġform er
Ġh y
Ġd ut
ĠĠĠĠ ĠĠ
Ġrep res
ep end
Ġbro ther
Ġperi od
Ġfed eral
f ort
is l
Ġc ross
Ġp ast
Ġg ra
ow ed
Ġfor ce
us es
Ġv al
Ġke pt
g r
Ġp ost
Ġd ue
om y
Ġe urope
res h
Ġv ot
Ġvessel s
Ġnot ic
Ġme ans
Ġgent le
Ġciv il
or r
Ġfar m
Ġimposs ible
Ġm ill
Ġd om
Ġl ine
Ġv i
ri age
ag n
Ġro se
ci ous
Ġarm s
Ġpeters burg
Ġ ut
Ġm oved
Ġfor ward
Ġsu m
Ġv ill
Ġind epend
Ġatt ack
Ġele ct
. '
Ġbecom es
Ġg utenberg
Ġst art
Ġbl ack
Ġrepres ent
l ied
Ġw ish
ud e
Ġstr ange
Ġocc up
Ġdraw ing
Ġ ide
Ġsucc ess
Ġfir m
Ġreg ard
Ġleg isl
Ġloc al
Ġj e
Ġvas ili
o f
r ang
et y
Ġse par
ore d
ress ed
Ġacc ount
g es
ant ly
Ġul cer
Ġvis it
Ġwind ow
Ġgir l
Ġd in
Ġacc ord
Ġcond itions
Ġabs cess
ane ous
i pp
Ġp en
Ġde velop
ov ing
Ġcomple te
g g
r om
Ġf ive
Ġg one
Ġan n
ap h
Ġtim es
Ġimm edi
r ic
is hing
Ġr ise
row n
Ġthir d
r ing
in o
Ġ1 6
Ġlong er
Ġlaw s
Ġrepe ated
g en
h ow
m it
Ġt ri
Ġp ay
Ġeff ort
Ġs qu
Ġb ag
Ġr ail
Ġmet hod
ific ation
u ally
Ġre qu
Ġrem ained
Ġevery one
Ġeng lish
Ġf ur
om p
ain ing
Ġstre ng
ix ed
Ġchild ren
p or
Ġs ac
Ġcon vers
Ġmy self
Ġ er
ot s
Ġse lf
Ġsl ight
Ġresult s
Ġread y
Ġansw ered
Ġest ab
y ond
as ion
Ġex peri
ak ing
Ġro de
Ġform ed
Ġwound ed
Ġserv ice
a ff
g o
Ġt ried
Ġs al
Ġc av
as h
Ġbe yond
Ġan eur
Ġj oy
Ġim ag
Ġmilit ary
Ġaneur ysm
in ary
Ġl ost
Ġg all
Ġany one
Ġrem ar
Ġdes crib
Ġel se
Ġ z
Ġt ill
rib le
Ġunderst ood
Ġdest ro
ur ation
Ġst ud
Ġr id
Ġpr act
Ġwe e
Ġord ers
Ġa ir
Ġg ang
Ġre ached
Ġde b
Ġdis app
iv ing
Ġac ross
Ġhum an
Ġanat ole
c ap
g er
Ġr ather
Ġhapp y
Ġpress ure
Ġbes ide
Ġobs erv
Ġopin ion
Ġw ater
Ġh us
om s
ut es
ot ion
Ġac qu
Ġsold ier
sem b
a ign
Ġb ad
Ġd anger
Ġsp oke
ra ct
Ġpres ence
Ġop ened
Ġcamp aign
Ġfrequ ently
ik h
Ġst er
Ġv ict
Ġass um
Ġp ow
ou ri
ic ally
Ġres pect
Ġaff airs
Ġcour t
Ġ ver
in k
Ġf if
Ġfor t
Ġsu per
Ġv ol
iv id
Ġwant ed
Ġprev ent
a ut
Ġa lex
Ġha em
Ġcom ing
Ġpro per
Ġcont ro
Ġind ic
Ġgr ou
Ġgr ound
orr h
a very
b ody
Ġ 9
Ġl ower
Ġn erv
ly ing
Ġis su
Ġk iss
Ġex am
Ġtr ade
Ġsc ar
ru pt
Ġhus b
n s
Ġt y
Ġm ed
Ġform ation
Ġra ised
Ġfam ily
Ġoper ation
Ġsto pped
h aps
Ġw ished
or row
Ġth us
Ġl ed
Ġan t
her n
ĠĠĠĠĠĠĠĠ Ġ
Ġpe as
re st
er g
Ġh ill
Ġturn ing
Ġhapp ened
in a
th s
ib ility
Ġmak ing
Ġfore ign
Ġcolon ies
Ġstand ing
Ġhon or
Ġspir it
ut ed
Ġst ri
Ġbr ing
Ġfollow ing
Ġansw er
Ġtubercul ous
c um
v an
Ġwh is
Ġy ork
Ġne ck
the re
Ġapp lied
Ġsur pr
Ġaff ect
Ġext rem
Ġke ep
Ġqu iet
Ġem b
ru ction
Ġge or
Ġ 7
Ġt ou
ain t
if ied
Ġpr ison
Ġ1 0
Ġfre ed
Ġaff ected
Ġadj ut
olk ons
. --
b y
Ġs ens
or ies
id ge
Ġan im
Ġse vere
Ġqu ar
Ġtr ue
Ġrep ort
Ġtal king
Ġt ax
Ġm od
Ġin qu
Ġne g
Ġab le
Ġsee ing
Ġdes p
Ġpol ic
g in
Ġs well
Ġcom pl
Ġev ents
anc ing
Ġsl ow
Ġmus cles
k en
t ered
Ġ *
Ġs out
Ġh o
Ġg un
ol ute
Ġte nder
Ġhusb and
y ed
Ġo h
Ġb oy
Ġm ist
Ġl ow
Ġg az
th is
wh y
Ġw on
Ġb ene
Ġpro b
Ġrapid ly
Ġf ail
Ġl o
le t
Ġappe ared
Ġassoci ated
e ad
Ġm o
ar ch
Ġr ad
if orm
Ġinfl u
Ġs ad
Ġd im
Ġl augh
Ġde ad
Ġj ud
Ġreturn ed
in ite
Ġc y
ing ly
al ing
Ġle ast
Ġent er
Ġter rible
1 2
Ġt ar
Ġh uss
it ude
ro om
ay s
um p
Ġj o
Ġlead ers
Ġsym pt
Ġmid dle
Ġp av
ar c
est ed
Ġfe atures
Ġres p
ron ic
Ġnotic ed
Ġsout hern
b it
am s
il is
Ġwe ak
olkons ki
Ġa p
er red
ar p
Ġe ight
ro d
Ġso ci
ist ed
Ġpur p
Ġmere ly
i um
Ġp us
Ġr are
th ough
ive ly
Ġatt ention
Ġsil ent
Ġstep s
Ġexce ll
ou th
Ġto r
ot t
Ġex cl
are nt
Ġruss ia
Ġcompan y
y e
Ġc e
Ġin n
id ence
Ġwas hing
Ġr ub
Ġprin ci
Ġgiv ing
Ġdoub t
Ġla id
m y
re ne
Ġm il
Ġhe ar
Ġthere fore
Ġcomm er
Ġsou l
Ġs ize
ct ions
av ing
Ġsl avery
d er
Ġ 8
and er
est s
Ġfe ar
Ġdoct or
Ġdin ner
Ġstreng th
o is
in ing
Ġf a
Ġfor g
Ġfr ight
Ġpl aced
Ġspeak ing
Ġquick ly
Ġsit u
Ġconvers ation
, '
Ġt rying
ar ily
ent h
os ing
Ġpr im
li ke
Ġmem br
Ġc re
Ġc ity
Ġd aughter
se e
Ġstre et
Ġf resh
Ġm al
Ġu nd
Ġst ra
Ġso le
um b
Ġfe et
Ġ18 6
Ġsat is
Ġvar iet
Ġtumour s
i o
Ġh ar
Ġcon cer
am ent
Ġfe ll
ra id
Ġcan cer
Ġrem oved
Ġper haps
ip s
Ġusu al
Ġimmedi ately
u k
Ġin clud
Ġwho se
Ġinter f
Ġmeas ures
Ġbelie ve
Ġth ick
Ġbe aut
Ġfor ces
Ġen l
Ġgl anced
ward s
Ġes cap
Ġgall op
1 8
i ver
p at
r al
Ġs ol
Ġf ine
ol og
Ġ1 5
Ġcolon ial
Ġlad y
Ġpap er
Ġremem ber
he ad
Ġc op
Ġh ig
it ation
Ġhe alth
ul s
Ġsu n
Ġpro gress
Ġdo ing
Ġac cept
Ġter rit
Ġnear ly
Ġadm in
Ġbri ght
Ġsing le
b e
Ġw rit
Ġb acter
Ġb olkonski
ve red
ab ility
Ġle ar
Ġen ough
oh n
i or
Ġt ears
Ġs ir
Ġs ides
Ġw ood
Ġun iform
Ġind e
ĠĠĠĠĠĠĠĠĠĠĠĠĠĠĠĠ ĠĠĠĠĠĠĠĠĠĠĠĠĠĠĠĠ
Ġwound s
y ch
Ġo st
Ġob ject
Ġocc asion
og r
Ġhard ly
Ġsle ep
Ġsympt oms
c ular
Ġf at
il s
Ġse at
Ġar ri
Ġinf orm
Ġconsider able
Ġparticular ly
Ġfreed om
Ġp riv
il t
end ing
Ġaf raid
Ġatt empt
Ġexp ect
Ġspe cial
og en
Ġsec ret
Ġremar ked
Ġsoci ety
er t
Ġl ib
Ġfr ance
Ġex ec
pt ion
Ġcl osed
Ġnat ure
Ġgr an
Ġgl ad
Ġrepublic an
c y
n ow
Ġa im
Ġl oss
Ġg rew
oss ack
Ġfav or
Ġwait ing
Ġt one
Ġb it
Ġc ossack
Ġp ath
Ġne ither
Ġj ohn
Ġrep ly
Ġhour s
Ġarter y
Ġsyph ilis
Ġswell ing
c ome
f ig
s he
Ġf ight
Ġjoint s
Ġvir gin
aim ed
Ġadjut ant
o ol
Ġb ound
Ġc and
Ġm outh
Ġind ustri
tain ed
Ġright s
cept ion
Ġconsid ered
Ġpa le
g ing
Ġm ur
Ġl ate
ut ure
ĠĠĠĠ Ġ
Ġare a
Ġsupp ort
Ġcap ital
Ġkne e
Ġhaem orrh
m on
r or
Ġw in
Ġf aces
Ġf ixed
pp er
Ġcom b
Ġco at
Ġyour self
Ġhel ene
Ġchang es
Ġaccord ing
Ġwashing ton
Ġadmin ist
Ġs we
Ġw ide
ic ient
il ar
Ġtem per
Ġorig in
i ant
in ical
re g
Ġf un
Ġind ivid
Ġrostov s
Ġadd ress
Ġmem bers
Ġsmil ing
Ġvill age
Ġcy st
Ġp al
Ġl if
Ġ1 3
un e
Ġsome one
ach ing
Ġact iv
h ood
x ic
st er
Ġsu gg
Ġrel ations
Ġdem and
Ġconv ention
Ġdec ided
Ġsmil ed
Ġcontr ary
f ic
Ġs ch
Ġc ry
Ġm aster
Ġbr idge
Ġent ire
ble m
Ġbegin ning
c ut
e e
h ip
Ġl ig
Ġu r
Ġ1 1
av es
Ġquest ions
Ġlist ened
Ġles ions
Ġbag ration
s ide
Ġb ill
im e
se qu
ers on
Ġar rang
Ġfin ally
Ġemploy ed
Ġindivid ual
in ct
Ġh ast
it he
Ġf em
al ed
am es
Ġch ur
Ġar rest
Ġdis s
Ġen c
enc ed
Ġfriend s
Ġhop e
Ġmembr ane
u ff
Ġp un
Ġd rew
Ġr is
ous ly
Ġpro blem
Ġal though
ress ion
Ġpl ain
Ġrem ain
Ġob l
te en
Ġinter v
Ġoccur s
Ġcir cum
Ġgang rene
Ġc oun
it iz
Ġm ut
Ġe ye
all e
el s
Ġpre t
Ġbre ak
Ġpav lovna
m er
ess ion
ac ked
Ġco vered
Ġev ent
Ġapp oint
itt en
Ġcomm un
Ġrem ark
Ġtak es
Ġgen er
Ġdist rib
ilit ic
Ġvar ious
Ġalex ander
l ished
Ġb and
se t
Ġch ange
Ġj ack
Ġdep end
Ġmus cle
Ġfib r
Ġdescrib ed
o cc
Ġ ess
Ġl ive
ro te
Ġst aff
os es
one l
Ġcl ot
Ġshow ed
Ġart ic
Ġinfl amm
Ġindepend ence
' ve
c ol
Ġw rote
Ġb le
Ġpr ay
Ġint rod
Ġab and
Ġag re
Ġtr ad
Ġac ute
Ġvo ices
Ġsim ilar
Ġca uses
---- ----
d o
n at
Ġh ot
ll ed
Ġe b
Ġst ay
ac ing
Ġgo ld
ell e
Ġruss ians
Ġgrow ing
Ġpop ular
Ġorgan ism
Ġpow ers
Ġnerv es
Ġhaemorrh age
i res
at ch
Ġc itiz
Ġl it
Ġl oud
Ġun able
Ġno d
ast ic
Ġtr ust
Ġli able
Ġli ps
Ġsay s
Ġsupp uration
Ġple ase
Ġdire ction
Ġmin utes
Ġir rit
Ġfing ers
Ġfur ther
Ġgeor ge
Ġaband on
he v
in es
act ion
pl es
Ġsm oke
Ġmar k
Ġord ered
Ġgovern or
Ġser ious
Ġdet erm
Ġsign ific
Ġrepublic ans
Ġterm s
Ġequ al
Ġgrou p
Ġvirgin ia
n ov
Ġin ev
Ġse nd
Ġsu p
the y
Ġnat ural
Ġimp ro
iz ing
Ġcons cious
Ġop ening
Ġenl ar
Ġinev it
a le
b ered
z e
Ġa ustri
Ġs ister
Ġb en
Ġm oving
Ġl iving
em ia
ag in
Ġ1 2
au g
Ġgl ass
orm al
Ġgreat er
Ġcar riage
Ġhapp iness
Ġhold ing
Ġstud y
ois elle
Ġfright ened
Ġstra ight
c ent
u el
Ġb ank
ed ing
ow ing
Ġk illed
em oiselle
Ġmar ked
Ġacc omp
Ġext ens
Ġaccomp an
t reat
y t
Ġsu re
th y
Ġfl o
Ġdecl ared
Ġvi ol
Ġide a
Ġprim ary
p ected
u ction
Ġm is
ing u
ow s
pp ing
Ġpl ant
ost e
Ġstr uck
ug g
Ġrun ning
Ġtar iff
arc oma
treat ment
d om
f ied
s s
Ġe ast
Ġsh arp
ff erson
Ġrel ation
Ġsim ple
Ġir on
Ġbur s
Ġincre ased
Ġmad emoiselle
Ġheav y
Ġpleas ure
Ġprob ably
f ect
u fact
or n
Ġl atter
ch ar
Ġcol onel
Ġbro ad
Ġma id
Ġost e
Ġd am
Ġbe ll
ul es
Ġman ufact
Ġcons ists
Ġdra wn
tern al
Ġsett le
Ġprep ared
Ġauth or
Ġinflu ence
pat ych
c he
Ġch air
ust ry
Ġcl ass
Ġthin king
Ġext ra
Ġstre t
ict ion
Ġsil ence
Ġdut y
Ġproper ty
y al
Ġa ge
Ġs ight
at or
an ch
Ġl od
Ġe con
Ġha m
ag er
Ġal patych
Ġman ner
Ġind ustry
Ġmatter s
Ġprov in
Ġappear ance
b l
t r
Ġm ikh
Ġd ry
st ances
ut ions
ri ev
Ġro yal
Ġpass ing
Ġseem s
Ġinst ead
Ġfore st
Ġchang ed
Ġmean ing
Ġmikh ay
t m
im ate
Ġne are
ous es
Ġmar ch
Ġmar sh
ys is
Ġexpress ed
Ġve ins
Ġ19 1
Ġlin es
Ġcart il
Ġslow ly
Ġpurp ose
f e
h old
u ght
er ate
at a
it ive
en ess
en ne
Ġst ory
Ġatt ended
Ġrest r
Ġchief ly
Ġprod uced
Ġang ry
Ġhur ried
c ers
p ath
Ġs her
Ġf le
Ġl ord
Ġn ar
Ġex ist
Ġle aving
Ġcap tain
Ġsecond ary
Ġobserv ed
Ġvict ory
Ġmikhay lovna
' re
. )
Ġb ouri
Ġd mit
Ġan x
Ġnot e
if ul
ap art
ist ic
Ġme ant
Ġgr ad
Ġinter n
Ġinter rupt
Ġcap t
Ġmon ths
oun ced
Ġclear ly
Ġinj ury
Ġmaj est
Ġep ithe
Ġactiv ity
Ġbouri enne
i ance
l in
re l
ch in
Ġse ction
Ġso vere
Ġne igh
Ġem p
Ġdef orm
Ġsil ver
Ġhistor ians
ogen ic
cut aneous
i ar
u id
Ġb an
Ġh at
Ġp or
Ġl oved
Ġu pper
Ġde g
ig s
Ġ1 4
Ġoff ice
Ġear th
Ġdi pl
Ġcir cul
Ġdress ing
Ġtend on
Ġpo or
Ġje fferson
Ġexcell ency
k n
Ġs us
re nt
Ġb ir
ur s
Ġfor get
Ġshe ath
ust om
Ġman if
Ġad op
oc yt
Ġapp lic
wh o
ne y
Ġconf ed
Ġass ist
Ġcor ner
Ġser ies
Ġph il
Ġsuff r
Ġcal m
Ġdisc uss
Ġcell s
Ġdestro yed
Ġpeas ants
Ġneigh b
r um
Ġb ook
Ġf uture
ur ies
ri es
pt ic
au ght
Ġrost op
a f
Ġin ject
Ġhe ro
oo ks
Ġdis char
the n
Ġshould ers
Ġdise ases
Ġbro ken
Ġdiv ided
Ġster n
Ġp y
Ġm ult
om ic
Ġsp ite
Ġim pl
Ġbl ue
Ġgr and
Ġgr ant
iz ation
Ġexp ected
Ġthought s
Ġadv ant
apart e
Ġrostop chin
g u
Ġa x
Ġm ater
es tern
ag ue
un k
Ġim per
Ġwar m
Ġresult ing
Ġthir ty
Ġexpl ain
Ġport ion
Ġav oid
Ġkiss ed
a ft
d ra
o ll
w hen
Ġs our
Ġw il
le g
id ing
ri ght
os p
Ġevery body
Ġreg ion
Ġoffic ial
Ġeas y
Ġextrem e
Ġinde ed
Ġcitiz ens
kn own
_ --
b o
m orrow
p ro
r ated
re am
at ives
Ġb ac
ad ed
ce nd
Ġas king
us ing
Ġtr uth
Ġper form
Ġret reat
Ġabs olute
Ġel b
Ġoccur red
Ġpress ed
Ġru le
Ġmaj ority
Ġestab lished
Ġcontro l
Ġprison ers
Ġs ort
Ġin h
Ġd er
Ġl ie
Ġse ven
Ġv ic
ong ed
enc es
Ġprod uce
amm a
Ġarri ved
s y
Ġp ull
Ġm ention
as m
ir m
att ered
Ġdist ur
cul iar
Ġpers ons
Ġdep art
Ġchur ch
e f
p ort
Ġb reat
is es
ar ies
as is
Ġl ou
Ġg ro
Ġnot ice
ter ing
qu est
Ġun ex
Ġsm o
Ġleg s
Ġhands ome
Ġpresent ed
Ġdi agn
Ġinterest s
.... "
Ġdet ail
Ġbes ides
Ġremem bered
Ġinqu ir
Ġexcl aimed
Ġdipl om
. ,
2 0
i vers
n on
t ts
en g
Ġf illed
Ġl ying
ce ed
ach use
Ġcar ol
Ġdist ance
Ġwr itten
Ġimport ance
Ġmeet ing
Ġval ue
Ġwee ks
Ġlaugh ing
Ġcommer ce
Ġadminist ration
achuse tts
Ġt rem
Ġas semb
Ġfr ank
um n
Ġco st
Ġpe culiar
Ġstr ugg
Ġaff air
Ġabs or
Ġele ction
Ġoccup ied
! ...
is ions
Ġh ouses
Ġf art
as p
ul ated
Ġag ree
Ġshould er
Ġ18 9
Ġgeneral s
Ġmove ments
Ġconv in
Ġve in
Ġpolit ics
Ġincre ase
Ġmass achusetts
Ġfing er
Ġpolic y
Ġsuffr age
Ġo ught
Ġs ci
Ġb ond
Ġm ount
ro ad
ut ation
Ġst age
Ġr ushed
Ġse ized
ate ver
Ġread ing
Ġbel ow
Ġlead ing
Ġpap ers
Ġeas ily
Ġdro ve
Ġsen ate
Ġterrit ory
fic ial
. ]
u ge
he t
Ġa id
Ġw is
Ġh unt
Ġr iver
Ġsh own
um m
Ġam ount
Ġfl uid
Ġsy nov
Ġph ys
Ġtreat y
Ġwr ong
Ġdevelop ment
Ġbacter ia
Ġburs a
l ock
at ory
Ġh ost
Ġl ived
ent ial
Ġr ich
Ġv an
Ġex er
Ġso cial
ak en
Ġdis pl
Ġpl at
Ġtr oub
Ġinf ant
Ġ2 0
Ġ18 0
Ġdist ingu
Ġdef inite
Ġfarm ers
d on
o e
u ous
Ġw estern
as hev
Ġe ld
Ġst at
ust ed
Ġam end
Ġsub cutaneous
Ġrec all
Ġsuff ering
Ġul cers
Ġsyph ilitic
Ġgun s
' m
Ġf ro
le cted
ac ent
Ġsp ent
Ġout side
Ġrem ov
Ġsur g
Ġadv anced
Ġpar al
Ġru pt
Ġdiv ision
Ġbal ashev
Ġdifficult y
Ġvot e
Ġregard ed
Ġmil es
Ġorganism s
1 0
d ing
i us
Ġs olution
Ġb ra
Ġar ch
Ġen j
Ġwor ks
Ġob v
Ġshout ing
Ġdest ruction
Ġperson al
fact ion
Ġwhis p
Ġap art
d ed
o ly
Ġw a
Ġh ung
Ġm ich
Ġn ormal
Ġis land
ol ens
ag r
Ġsa ve
Ġsp o
Ġwe alth
Ġag o
od ino
ove red
Ġper m
Ġsc r
Ġmary a
Ġsett led
Ġrail ways
Ġmater ial
e per
Ġf ate
Ġth reat
Ġfr act
Ġde al
Ġk ar
Ġme xic
Ġcan non
Ġ3 0
Ġ3 2
Ġinvol ved
Ġsurpr ise
Ġcircum stances
Ġjack son
Ġmanif est
f s
w ise
Ġb od
it ing
Ġth or
Ġg ri
Ġcon ce
ag ement
ap e
Ġsp ok
Ġle an
Ġfe ver
oc occ
Ġapp ears
Ġapp arent
Ġpass age
Ġaff ection
Ġlet ters
Ġte a
Ġbor odino
Ġsuff icient
Ġpa id
Ġmer ch
Ġdel ight
Ġhuss ars
Ġflo or
Ġinterrupt ed
Ġwil son
Ġremov al
c ons
r ist
u ly
Ġ $
Ġa st
Ġb ull
Ġc ord
Ġas ide
ri ly
Ġch ronic
ig ration
Ġinf ected
Ġmar ried
Ġref orm
Ġtal ked
Ġinst ant
Ġdr ag
Ġgu ards
Ġhy per
Ġexperi ence
riev na
Ġdmit rievna
Ġenj oy
? '
Ġh arm
Ġd read
om in
le y
Ġwh atever
ul ations
red it
Ġcomp ar
wh ich
Ġsub m
Ġcertain ly
Ġfig ure
Ġinvol unt
Ġpy ogenic
Ġlou is
Ġunex pected
a emia
l ies
r ay
he st
Ġs ense
Ġn ations
Ġbe at
ation al
Ġint ell
Ġdo g
Ġconn ection
Ġsurround ed
Ġfart her
Ġw ol
Ġb are
Ġto morrow
Ġl aug
al ry
qu e
Ġch ance
Ġar th
Ġj our
sel ess
ort ion
Ġknow s
Ġfrench man
Ġcar ry
ĠĠĠĠĠĠĠĠĠĠĠĠĠĠĠĠ ĠĠĠĠĠĠĠĠ
Ġend s
Ġshow ing
Ġlad ies
Ġles ion
Ġty pe
Ġtemper ature
Ġsup rem
Ġcartil age
Ġmajest y
olens k
_ ;
Ġb ent
ou red
Ġre action
Ġfor ty
et h
Ġr at
Ġcom fort
if y
Ġpro l
Ġle uc
Ġsm olensk
Ġord inary
Ġadd ition
Ġlar ger
Ġca used
Ġperi oste
Ġeffort s
Ġexperi enced
ogr aph
Ġfibr ous
Ġlaug hed
Ġf lex
Ġth row
Ġn av
Ġv en
Ġsp le
Ġab ol
Ġno se
cl ock
ang u
uc ous
anc y
Ġreg ular
Ġchar m
ren ce
ili ar
Ġbo x
Ġlist en
Ġconn ective
Ġpop ulation
Ġdirect ly
Ġwal ked
Ġauth ority
Ġgentle man
Ġwee k
Ġsher lock
c il
in ent
Ġb erg
Ġf urn
Ġf air
Ġre semb
Ġfl ank
Ġbeg un
Ġcol our
Ġhapp en
Ġext ent
Ġadv ance
Ġdress ed
hen s
Ġorig inal
Ġsurround ing
Ġdim in
Ġgallop ed
Ġpriv ate
Ġobl ig
Ġsovere ign
c ise
i am
o ver
at he
Ġb ott
Ġc ot
ed em
ac he
Ġso b
ie ce
Ġpart ies
Ġgl ancing
Ġmar riage
Ġgrow n
Ġsign s
Ġran ks
Ġbur st
yl van
Ġbu ild
Ġeurope an
Ġissu e
uk hov
Ġlear ned
Ġepithe li
Ġdischar ge
ylvan ia
1 6
n ers
p ly
Ġo edem
Ġm otion
Ġn one
ic ated
Ġe ager
Ġwith dra
if t
Ġsa ke
Ġloo se
Ġcons ist
Ġconf lic
Ġabs ence
Ġnor ther
Ġche st
Ġtrans f
Ġcharacter istic
Ġacqu aint
Ġbeaut iful
Ġcarol ina
Ġwhisp ered
i ence
l er
z ukhov
on st
Ġto p
as k
Ġth rew
Ġst ation
Ġan k
ess ed
-- "
Ġknow ing
Ġstr uct
Ġspe c
Ġread ily
Ġcle an
Ġpleas ant
Ġrepresent atives
Ġcav ity
Ġimag ine
Ġvariet ies
Ġescap e
n ight
Ġb atter
Ġc rit
Ġd ie
om b
ent ed
ot ed
res p
Ġso f
ap ed
ip le
Ġent r
ian a
Ġdes ire
Ġsub st
Ġ4 3
Ġ4 6
Ġbro ke
Ġple ased
Ġfin ished
Ġrece ive
Ġopp osition
Ġx v
ii i
Ġ17 7
Ġinj uries
Ġmeas ure
Ġpract ice
ns ylvania
Ġhill s
Ġtender ness
Ġcop y
w ith
at ous
at ors
Ġf row
Ġm ucous
Ġd an
Ġhe aling
Ġbe zukhov
Ġon es
Ġst ir
Ġst op
Ġfor th
ra ction
Ġcor por
Ġrec ord
Ġche e
Ġexc ited
Ġsound s
Ġconn ect
Ġtre ated
Ġsn ow
Ġstart ed
Ġcomplete ly
Ġfa ith
Ġess ential
Ġecon omic
Ġdeg ree
Ġinh ab
Ġsynov ial
Ġnorther n
! '
m n
n es
Ġs arcoma
Ġc at
Ġc ou
Ġh om
as hed
Ġhe aring
Ġy ell
ch ief
Ġha ll
ĠĠĠĠ ĠĠĠ
us hing
Ġsh ad
Ġex ternal
Ġdis m
un cle
Ġli p
ign ant
Ġmar ry
Ġ3 6
its ki
Ġart icular
Ġbri ll
Ġadj acent
Ġthous ands
Ġclose ly
Ġdemocr acy
Ġdemocr ats
Ġpen nsylvania
Ġsuper ficial
Ġgaz ed
Ġhig her
Ġcand id
Ġcircul ation
b ing
o nder
Ġm ess
Ġm amma
Ġth rown
Ġbe ar
ch an
am eric
-- _
Ġso il
os ity
Ġall ow
Ġcomm ission
ord er
Ġpol ice
Ġget ting
Ġpur su
ative ly
Ġcent ury
Ġprop osed
clud ed
Ġgre en
Ġrequ ired
Ġelb ow
Ġinfant ry
Ġleuc ocyt
l oc
er able
ve lt
Ġcon sequ
Ġde ce
oo se
um ph
ig or
Ġun less
ose velt
Ġcl aim
Ġres ist
Ġgl ance
Ġcomp osed
Ġsl aves
Ġact ive
Ġ5 2
Ġsim ply
Ġmin ute
Ġcontinu ally
Ġbon aparte
Ġconstitution al
Ġvir t
Ġdom in
Ġtri umph
Ġfif ty
Ġinflamm ation
Ġbod ies
Ġspok en
v al
x im
Ġo ss
Ġc ab
Ġc aught
le ct
ent al
Ġi od
Ġi ii
ir t
ul a
Ġsh ip
Ġcom es
Ġfir ing
Ġ18 7
Ġpass ion
Ġ4 2
Ġdist inct
Ġbo ots
Ġdanger ous
Ġsole mn
Ġindustri al
Ġappoint ed
Ġgener ally
Ġpor ch
Ġsour ce
c ri
g l
h y
r ate
Ġt all
Ġs ought
Ġb ig
Ġc ast
Ġf ill
Ġp ack
Ġm agn
or al
le ep
Ġg ard
Ġv ary
ri f
Ġch rist
est ic
ons ense
Ġposs ibility
Ġpoint ed
Ġlist ening
Ġed uc
Ġbelie ved
Ġcav alry
Ġdesp ite
Ġoh io
Ġforg ot
Ġoccasion ally
Ġlib er
Ġsignific ance
Ġdiagn osis
Ġamend ment
Ġsple nd
Ġa ug
on es
Ġb old
Ġc ru
Ġh uge
Ġto day
as ing
as ons
Ġhe n
Ġy ield
Ġv alle
Ġun f
Ġun known
el itis
Ġcl oud
Ġ2 5
Ġ2 7
Ġact s
Ġ5 0
Ġopp ort
Ġest ate
Ġenter pr
Ġnar row
Ġgrad ually
Ġbac ill
Ġinhab it
1 7
e ch
p ir
Ġk ill
Ġch o
Ġco ver
Ġpl aces
ib ly
Ġcont act
Ġoff ered
Ġloo ks
Ġpre f
Ġ2 6
Ġrel ig
Ġeng aged
Ġgiv es
Ġpur ch
Ġdire cted
Ġserv ants
Ġpoint ing
Ġx x
Ġfam iliar
Ġbre ast
Ġsym path
Ġgentle men
Ġsitu ation
Ġaccept ed
Ġentire ly
r s
Ġw onder
Ġc redit
it ated
or ation
ar r
Ġl ies
Ġas leep
Ġyou th
il ton
Ġsh o
Ġall owed
Ġal arm
Ġsp l
Ġsp ring
Ġfe e
Ġam p
Ġam id
Ġwor th
Ġem pt
Ġrep ro
Ġ4 0
Ġfound ation
Ġcor resp
Ġprov ided
Ġgra ft
Ġrare ly
Ġsplend id
Ġcorresp ond
1 9
d s
Ġa ut
re ct
at is
Ġre ach
Ġr ing
Ġsh ock
Ġwe aring
Ġen orm
Ġqu al
Ġcl inical
Ġcont ract
Ġper fect
ign ed
Ġ2 3
wh ile
Ġcar rying
ne w
Ġdef e
Ġnecess ity
Ġmethod s
Ġartic les
Ġaccompan ied
Ġadvant age
f rom
p ap
Ġt ry
Ġw ag
Ġf al
Ġp it
Ġl at
Ġr ising
Ġcon cl
Ġha bit
Ġex act
os ite
um e
Ġal i
un ity
Ġco ach
Ġpl ans
Ġtw ice
Ġ2 8
Ġ4 9
Ġjust ice
led ge
rit is
Ġpers ist
Ġtend ency
Ġbal d
Ġdut ies
omy elitis
Ġslight ly
Ġestab lish
Ġhuss ar
Ġinclud ing
Ġcossack s
Ġpret ty
Ġsof a
Ġbrill iant
1 4
g ra
k er
Ġp ac
Ġp os
Ġd ied
Ġth ro
Ġl eng
Ġhe at
Ġg au
Ġde gen
Ġv ent
ac hes
ous ed
Ġpro ve
Ġj er
Ġj un
Ġj ames
Ġsp ot
Ġro osevelt
Ġag r
Ġag itation
row s
Ġfo ol
Ġcomp rom
Ġsl ave
Ġroom s
Ġspe ech
Ġwr ite
uck y
Ġrecogn ized
Ġcart s
Ġindic ated
Ġvariet y
col n
Ġeb ook
Ġneare r
americ an
a ily
e ared
g um
i ally
y our
er n
it z
Ġp ict
Ġn a
Ġn ail
om m
ad es
Ġre ve
ut ing
Ġi van
il ed
Ġsh ot
Ġsh aft
ov es
Ġj ul
Ġwe ight
Ġgr ay
Ġ3 9
Ġang rily
Ġste ad
Ġbecom ing
Ġdri ve
Ġwat son
Ġtown s
Ġburn ing
Ġmill ion
Ġmill ions
Ġdisapp ear
ikh on
Ġfort un
Ġant i
Ġinn oc
Ġprinci ples
Ġlod ge
g ar
m ber
u le
Ġt est
Ġt ikhon
Ġs or
Ġs ick
Ġb og
is ters
Ġh ut
Ġh ang
Ġp ock
Ġp ushed
Ġto x
Ġcon ception
Ġse a
Ġv ital
ov ich
Ġun ivers
ra cted
Ġim men
Ġper man
Ġ2 2
Ġ18 5
Ġgood s
Ġcond uct
Ġinst ru
ple as
sh ip
Ġpoint s
Ġappro ached
Ġtoward s
Ġkind ly
Ġcompan ion
Ġresp ons
Ġhig hest
Ġcoun cil
Ġintrod uced
Ġextra ord
Ġintern al
Ġconvin ced
Ġrupt ure
Ġimmen se
h ib
n igs
o om
u es
er ans
it able
Ġd ying
or g
Ġn onsense
ce ly
Ġex ch
Ġshe d
Ġpro ved
Ġme chan
Ġad ams
Ġcont empt
Ġexp osed
ru g
Ġser fs
Ġpain ful
Ġsuff er
Ġopp osite
Ġeffect s
ash ion
Ġsurpr ised
Ġconcer ned
Ġadop ted
Ġinhabit ants
? ...
i able
z en
Ġ ic
Ġt s
Ġf ood
Ġp red
Ġl ands
Ġl aughter
ic ip
ro p
ver se
Ġsu ite
ound s
Ġev idence
ell ed
Ġcl ub
Ġpre par
uc ing
Ġacc ident
Ġche er
Ġcir cle
Ġpa used
Ġsec ure
Ġprom ised
Ġprop ortion
Ġuse ful
Ġneed ed
Ġlin coln
Ġdoct r
Ġdemocr atic
Ġlegisl ature
Ġpeas ant
Ġaffect ions
Ġquiet ly
olog ical
Ġgran ulation
Ġsugg est
Ġsch ool
Ġble eding
Ġimpro ve
Ġben nigs
Ġcot ton
' d
f l
Ġa ust
Ġthe ory
Ġb il
Ġm ort
Ġd il
ic ation
Ġg ate
ur ally
Ġy ard
Ġr um
Ġde lic
Ġde leg
if ying
Ġsa fe
ak ed
Ġpro s
Ġsp erans
Ġres ol
Ġgl and
Ġsc re
Ġour selves
Ġlike ly
iss ipp
Ġameric ans
att le
cer tain
Ġconst ant
Ġfeel ings
Ġgu ard
Ġpar is
Ġlim ited
Ġunderstand ing
Ġoper ations
Ġmaj or
Ġtou ched
Ġinterf erence
Ġarrest ed
Ġmult iple
Ġinvolunt arily
Ġbatter y
Ġbennigs en
Ġsperans ki
issipp i
a el
e es
f our
n y
w ing
Ġs orrow
Ġw it
Ġp ot
Ġp ity
Ġp ure
Ġd ull
Ġl ond
ic ked
Ġg umm
Ġi ly
ul f
Ġv igor
Ġso re
Ġj ump
Ġsp an
ment ed
Ġam b
Ġcons erv
Ġfl ushed
Ġact ions
Ġthrough out
Ġpat ri
Ġ19 0
Ġmiss issippi
Ġbrit ain
Ġarter ies
Ġdeep ly
Ġfav our
Ġfield s
Ġbene ath
Ġmal ignant
Ġconscious ness
Ġapplic ation
Ġtrem b
Ġgard en
Ġvalle y
Ġagr icult
Ġsor ry
Ġlond on
m in
Ġt ib
re hens
Ġc ities
Ġh osp
Ġp ri
ld om
Ġas h
Ġas pect
Ġi i
Ġfor ced
ul ate
Ġse ldom
Ġcl o
Ġbl ame
Ġatt end
Ġmar row
Ġ2 9
Ġfound ed
Ġadv ent
Ġprom inent
Ġequ ally
Ġexcept ion
Ġformer ly
erg y
Ġbit ter
Ġris k
Ġproblem s
Ġremark able
g ia
r id
w as
Ġc ult
Ġm ot
Ġd av
Ġd ign
Ġl angu
ll ing
Ġst ro
Ġst up
Ġv ac
os ure
Ġar riv
Ġsp ect
Ġdo ll
el ess
cl inical
Ġob tained
Ġsupp ly
Ġte eth
Ġinst it
Ġtell ing
Ġcent ral
Ġcur rent
Ġmain ly
ush in
Ġtubercul osis
Ġburn ed
Ġcross ed
Ġsqu ad
Ġsqu are
Ġjo ined
reg ular
Ġarrang ed
Ġstrugg le
Ġconflic t
Ġliber ty
Ġaug ust
Ġfal se
Ġpac ific
4 8
m a
u nder
Ġt ushin
Ġb rown
Ġf as
Ġf und
Ġp ill
ar ov
ot e
ver t
ri et
Ġpro cl
Ġunder t
Ġli ked
co at
Ġacc ess
Ġ3 5
Ġconf irm
Ġext ended
Ġcor n
li ament
Ġsurf aces
Ġbu ilt
Ġdom estic
Ġsepar ated
Ġvisit or
Ġdeb t
Ġmo ist
Ġaddress ing
Ġmut tered
Ġham ilton
Ġhurried ly
Ġsuprem e
Ġperioste um
Ġextraord inary
h ist
l aw
in c
er ated
Ġp ip
Ġin her
or ing
im ents
et e
Ġk ur
Ġex cess
os en
Ġcl ay
Ġunder go
Ġcan al
Ġrep air
Ġrem ains
Ġthan k
Ġwar s
Ġgen ius
Ġob st
Ġ4 8
Ġown ers
Ġext end
Ġstre ets
Ġ5 3
Ġbel ong
Ġir regular
Ġput ting
Ġsw ift
Ġ17 8
Ġcompan ies
Ġdel ay
for ce
Ġwal k
Ġfirm ly
Ġtou ch
Ġ* "
Ġdistur b
Ġenorm ous
i ated
Ġt ur
in ity
Ġb ow
Ġc ure
Ġm ild
Ġd u
Ġth y
Ġn ur
om en
am a
ol ic
ill ary
ag g
Ġar gum
Ġsp ain
Ġint ention
ge l
Ġmore over
Ġres our
Ġbl ow
Ġafter wards
Ġsur re
Ġgreat est
Ġsk ull
Ġref used
Ġadd ressed
Ġsil ently
Ġmin ister
Ġgu ests
Ġpar liament
ait ing
Ġexpl an
Ġcare fully
Ġwat ch
Ġfall en
Ġwall s
Ġgre et
Ġut ter
Ġindepend ent
Ġrail way
Ġver a
Ġlif ted
Ġabandon ed
Ġoste omyelitis
Ġemp ire
ustom ed
het ic
Ġeld er
Ġenterpr ise
Ġstup id
e g
v itski
w ood
he l
er ous
it or
Ġm at
Ġn es
ic at
Ġwh ist
Ġst one
Ġfor b
am ation
ul se
ill ery
Ġch osen
ig hed
Ġun com
Ġun pleas
oc ked
Ġen su
Ġatt itude
Ġ4 7
Ġbatt al
Ġmon th
Ġfact s
Ġfront ier
Ġprot ect
Ġdev il
Ġheav en
Ġwal king
Ġgirl s
Ġrid ing
Ġexam ination
Ġsens ation
Ġrub les
Ġinform ation
Ġagre ed
Ġaustri an
Ġsettle ment
Ġoedem a
Ġcomprom ise
Ġjul ie
1 1
e as
f ield
h in
i ary
i ph
l oo
s k
w est
Ġs way
Ġb owed
ad el
Ġon to
Ġse v
Ġsh are
Ġsh ook
Ġcom r
Ġal ive
Ġme l
Ġdis co
ra h
Ġother wise
Ġtim id
anc hes
Ġsl ough
Ġpower ful
Ġinterest ing
oun ce
Ġart illery
Ġcent er
Ġmer ry
Ġmass es
Ġassum e
Ġwhis per
Ġbeaut y
Ġagre ement
Ġhosp ital
Ġclo ak
Ġnur se
Ġnes vitski
Ġs am
on y
Ġc reat
Ġf ully
Ġf ashion
Ġn on
Ġe h
Ġst out
Ġi v
Ġr out
ter day
il ing
Ġsa v
ist ol
oc king
act ers
Ġimp ression
ph ia
Ġknow ledge
Ġ18 12
Ġ3 7
Ġsk y
Ġchar ge
Ġchar acters
Ġte x
Ġele ments
Ġra ising
Ġed ges
Ġexc it
Ġmain tain
Ġcell ular
Ġvisit ors
Ġneg ot
Ġwrit ing
Ġfun ction
Ġsugg ested
Ġenlar ged
Ġder ived
Ġsmo oth
Ġjour ney
Ġyell ow
Ġgau ze
hist ory
* *
k ov
w ork
Ġt ong
Ġw et
Ġp an
Ġm ud
Ġm ach
om pl
Ġe at
Ġg est
ul ating
em ents
Ġsp r
ib in
Ġwor n
ish ment
ha ve
Ġfo nd
ens ion
Ġ2 4
Ġacc ompl
Ġob tain
te enth
Ġsub s
Ġ3 4
Ġhead s
Ġconf used
ros is
Ġfore head
Ġreturn ing
Ġappro aching
Ġtend ons
Ġprof ound
Ġhy d
Ġlegisl atures
Ġpolic ies
Ġcommer cial
Ġsus p
Ġabsolute ly
Ġdistingu ished
Ġparal ysis
Ġobv ious
Ġmexic o
Ġdread ful
Ġbil ibin
Ġarriv al
j o
m ar
p et
s ki
z ing
Ġa ud
er ted
Ġc icat
ro ph
Ġr ul
Ġsu c
op e
Ġab dom
ind ed
Ġqu e
Ġgr asp
Ġdes cend
Ġfollow s
Ġref erred
Ġrec omm
Ġadv oc
Ġoccur rence
Ġmus k
Ġfree ly
Ġcr ime
Ġprev ious
Ġsubject s
Ġgerman y
Ġsepar ate
Ġann ounced
Ġgrou ps
Ġanim ated
Ġquar ters
Ġgaz ing
Ġfight ing
Ġlit er
Ġdetail s
Ġamp utation
Ġinnoc ent
1 3
b ac
c ing
p re
Ġw ishing
Ġf ast
Ġd ed
Ġwh it
Ġan a
Ġan ci
ill a
Ġne c
Ġbr anches
Ġfo ld
Ġatt ain
ens ive
Ġ3 8
Ġ4 5
Ġdep ri
Ġfin al
Ġpress ing
Ġprom ise
crib ed
Ġdri ven
Ġdark ness
Ġquar ter
Ġdemand ed
Ġmention ed
Ġthor ough
rif ice
Ġcru el
Ġopport unity
Ġsquad ron
h us
Ġ id
Ġf er
Ġp arent
Ġin it
an n
Ġit al
Ġsh ape
Ġk ent
Ġex per
ant ic
ig r
Ġsp ace
ress ing
au d
Ġwor se
Ġwor king
Ġcont aining
Ġem br
Ġatt acked
Ġacc ustomed
Ġ18 3
Ġrec ur
Ġmus ic
Ġmon arch
Ġadm it
Ġnum bers
Ġtrans port
Ġtem por
Ġtre as
Ġyes terday
Ġlimb s
fort un
Ġassum ed
Ġscar cely
Ġty p
olog y
Ġexpect ing
Ġwide ly
Ġfem ur
Ġmarsh al
Ġphil adel
Ġmich ael
Ġapparent ly
Ġdoctr ine
Ġspect ac
Ġphiladel phia
c amp
e y
m e
r ict
u it
is c
Ġh ay
Ġp uls
Ġl og
Ġhe ight
ent ions
Ġre jo
Ġst amp
Ġnot es
Ġsh ri
Ġsh ips
th ir
um atic
ost on
Ġhand ed
Ġthr omb
Ġcar b
Ġent ering
Ġent hus
Ġact ual
Ġac id
Ġrel ief
Ġhapp ens
Ġrec k
Ġcle ver
Ġdef ense
Ġcommand ers
Ġhor ror
Ġadm itted
no e
Ġcoll e
Ġprot ection
Ġorgan ized
eren ces
Ġfib res
Ġhistor ical
Ġview s
Ġindustri es
Ġdeterm ined
ata ev
Ġthro at
Ġspan ish
Ġtib ia
Ġash amed
Ġkur agin
Ġenthus i
i ents
in y
Ġs ut
Ġw id
Ġto ll
Ġl est
Ġre asons
st and
Ġst iff
Ġan ter
Ġex ha
Ġfe ature
ie l
Ġman aged
Ġres olute
Ġpres ents
Ġcol umn
Ġsupp er
Ġser ve
Ġadv ice
Ġmus cular
Ġserv ed
Ġsuff ered
iet y
Ġcolon ists
Ġwr ist
Ġinterest ed
Ġrecogn ised
Ġav ail
Ġattack s
Ġtax es
Ġfail ed
Ġce ased
Ġanx ious
Ġfract ure
Ġkar ataev
Ġwol f
Ġleng th
Ġdegen eration
g ment
z h
Ġw ild
Ġb oston
Ġc ra
Ġf ulf
Ġp ig
al ous
Ġst ar
Ġr ang
Ġsh ut
qu et
Ġsp rang
Ġfe ared
Ġun cle
Ġno ble
Ġcomm itt
Ġind iff
Ġhand ker
Ġinf ective
Ġarm ies
Ġfl our
Ġ18 8
Ġcond em
Ġcall ing
Ġrev iew
Ġcur i
Ġprop riet
Ġed ge
Ġtra vel
Ġgerm ans
Ġheav ily
ush ka
Ġdom ain
Ġfat al
Ġcyst s
Ġdistrib ution
Ġirrit ation
Ġexist ence
Ġplat form
Ġforgot ten
Ġexcit ement
Ġnegot i
Ġhandker chief
o on
Ġt ight
Ġs igh
Ġw ine
Ġh un
Ġh ind
Ġf it
Ġd ust
Ġd ream
Ġn ice
Ġre b
Ġst im
ak es
Ġcont raction
Ġtr ain
Ġwill iam
Ġfl ow
Ġhouse hold
Ġinv est
Ġser iously
Ġdr on
ilit ies
here nt
Ġadm ission
Ġste pped
Ġincre asing
Ġtuber cle
Ġbre aking
Ġpract ical
Ġdeb ts
Ġfif teen
Ġstri king
Ġjo in
Ġcre ated
Ġenc our
Ġinevit able
Ġplant ing
Ġimper ial
Ġsurg ical
Ġintell ect
athe red
Ġcrit ic
Ġempt y
Ġperman ent
Ġpatri ot
Ġlangu age
Ġtong ue
Ġcuri osity
d y
k ward
s p
in ated
nd ered
Ġb ab
is p
Ġf il
Ġp iece
Ġm ine
Ġin ner
ar se
Ġl um
om as
Ġr ough
Ġcon ve
am ing
Ġsu peri
ac ity
Ġpro ceed
Ġar bit
Ġgo es
Ġdid n
Ġevery where
ach ment
erv ed
Ġaff ord
Ġconf ined
Ġdec ision
Ġcrow n
Ġexpl ained
Ġfind ing
Ġvis ible
Ġplay ed
Ġsum mer
Ġlegisl ation
Ġprison er
uk ov
Ġhealth y
Ġdepart ure
Ġcompar atively
Ġprol onged
Ġgest ure
1 5
i pped
l ight
o x
o ch
w ill
Ġw ed
er us
Ġc oo
Ġc ard
Ġf ac
Ġp age
Ġm ood
Ġm edi
Ġl ic
Ġl ives
Ġhe s
Ġg athered
Ġr ate
Ġfr ame
Ġse arch
Ġv a
Ġoff er
av ed
Ġnat urally
Ġsupp lies
Ġcor ps
Ġabs ent
Ġins isted
Ġter ror
Ġimm igration
Ġang er
Ġaw kward
Ġspread ing
Ġplan ters
Ġdro pped
Ġcontr ast
Ġgra ve
Ġvot es
Ġdesp air
Ġho llow
Ġmist aken
Ġtor n
Ġfa ult
Ġsitu ated
Ġinterf ere
Ġgran ulations
Ġclot hes
Ġsheath s
Ġinject ion
Ġabsor bed
Ġsci ence
Ġphys ical
cons cious
Ġshad ow
Ġkent ucky
! ..."
c her
f it
w or
Ġo d
Ġw ore
Ġp istol
an y
an ci
ad ing
Ġr ic
Ġr ules
Ġcon cent
Ġse ptic
Ġv ice
Ġsh ame
if orn
Ġpr uss
Ġint im
Ġcont est
Ġpre ced
Ġgreat ly
Ġsk ill
Ġconf usion
Ġsupp ose
Ġpat ients
Ġear s
Ġest ates
Ġsw oll
Ġappro val
Ġfam ous
Ġcommon ly
Ġorg ans
Ġru in
Ġwat ched
Ġexce ed
Ġplay ing
Ġelect ronic
Ġissu ed
Ġentr ance
Ġconcl usion
Ġexplan ation
Ġtex as
Ġswoll en
g ood
j ust
k h
t ub
Ġs ighed
Ġw ool
Ġh id
Ġd ig
Ġn ine
ic le
Ġre se
ro ps
Ġu seless
Ġst orm
Ġr aw
Ġcon cluded
ul ent
Ġse pt
Ġde eper
Ġro b
Ġint ended
ie ve
Ġout l
Ġqu ant
Ġsome where
Ġsur ge
Ġacc um
ru ct
Ġposs ess
Ġdr ink
Ġcolon y
Ġstand ard
Ġdecl ar
Ġcontr ad
Ġnotic ing
Ġut tered
Ġide as
Ġdisapp eared
Ġanim al
Ġleaders hip
Ġsatis faction
Ġswe et
Ġpull ed
Ġtroub le
Ġunexpected ly
Ġcharm ing
Ġleucocyt es
Ġts ar
Ġcheer ful
rehens ible
Ġunpleas ant
f ather
g ement
o ided
p ri
r ays
Ġb ased
Ġb ooks
Ġc ub
Ġm ixed
Ġbe nd
Ġre ception
Ġre aching
Ġre new
st ained
ill e
em ber
qu ar
ak er
ort ed
Ġen act
Ġres olution
cl ay
Ġbr ain
Ġatt ract
Ġinter ior
Ġcor rect
Ġser ge
Ġele v
Ġfore ver
Ġel astic
Ġmom ents
Ġsim on
Ġmor al
Ġrev en
Ġcr im
Ġprop os
Ġfour th
Ġlymph atic
Ġep iph
Ġhelp ed
Ġav oided
Ġsuccess ful
Ġimmedi ate
Ġdestro y
Ġexcell ent
Ġprinci ple
Ġforg ive
Ġhast ily
Ġextens ion
Ġperform ed
Ġlouis iana
Ġabol ition
Ġacquaint ance
Ġcandid ate
Ġvirt ue
Ġsympath y
Ġresour ces
c ar
c an
e ers
f ord
Ġt it
Ġa pr
Ġc her
Ġh art
Ġf ix
ut ive
et an
ch air
Ġse quest
Ġpro of
Ġro w
op h
Ġun conscious
ci a
Ġtr unk
Ġpart ly
Ġbr anch
Ġ( _
Ġover t
Ġtw el
Ġcons ult
Ġ3 3
Ġ4 4
Ġkne es
Ġinst rum
Ġke en
Ġsim pl
Ġvar ies
Ġmem ory
Ġve x
Ġrepl aced
Ġprev iously
Ġmer c
Ġmiss ouri
Ġcoll ect
Ġinj ured
Ġz e
Ġbad ly
Ġvol unt
Ġnerv ous
Ġkeep ing
Ġtrust s
Ġcapt ured
Ġbreat h
Ġlean ing
Ġdeleg ates
Ġpip e
Ġsuc ceed
iforn ia
j oint
n i
Ġt ear
in ations
Ġb ought
Ġn ull
Ġe c
Ġg ap
Ġg ame
Ġr ib
all en
Ġse ctions
Ġv ague
ac ious
Ġch oose
Ġal ter
Ġab road
Ġmy st
Ġev il
ack s
Ġsm ell
Ġcount ries
Ġsc ot
Ġreg ret
Ġdes per
Ġsub sequ
Ġmak es
Ġcap able
Ġcor on
Ġdem onst
Ġca using
ple x
Ġrev ol
Ġrece iving
Ġbus y
Ġappro pri
Ġmr s
yl osis
Ġaw are
Ġport ions
Ġcrowd ed
Ġbu y
Ġrecogn ize
Ġappe al
Ġfall ing
Ġcross ing
Ġreport s
Ġweak ness
Ġartic le
Ġauthor ities
Ġban ks
Ġexer cise
Ġmerch ants
Ġast on
Ġarth ritis
arr ass
Ġpock et
Ġdelic ate
Ġwit ness
quar ters
" --
g or
k y
Ġa unt
re ci
on ed
Ġb ase
Ġp el
Ġm ob
Ġth umb
st airs
Ġi gn
ul ous
all ed
ab les
Ġro of
Ġwe b
Ġwe lf
Ġint imate
Ġle vel
Ġun ions
su red
Ġrem ove
Ġform ing
Ġper plex
Ġatt ached
Ġcons ent
Ġsc attered
Ġstr ict
Ġdiff use
Ġrec ent
Ġcle ared
ev ich
Ġposs ession
Ġbor z
Ġfriend ly
Ġlead er
Ġdra ft
Ġopp on
Ġhigh ly
ck in
Ġsw ord
Ġ17 9
Ġste am
Ġprot ective
Ġdel ib
Ġaw aiting
Ġspread s
Ġvi en
Ġrequ ire
Ġhuman ity
Ġemb ol
Ġemb arrass
Ġgeor gia
Ġreport ed
Ġpun ct
Ġmark et
Ġenlar gement
Ġaustri a
Ġdeform ity
Ġdiplom atic
Ġfrank lin
Ġepitheli um
Ġdan iel
Ġbacill us
Ġagricult ure
Ġwelf are
g row
in ate
Ġo ct
re p
Ġf ought
Ġm as
Ġre le
ro t
ot ograph
Ġr ide
ri g
Ġpr oud
Ġal b
Ġar oused
Ġj aw
Ġwe ary
Ġle ague
Ġun like
Ġun nat
Ġdis loc
iv al
Ġag itated
Ġrem ed
Ġarm ed
Ġact ing
Ġspe ed
Ġway s
ya z
Ġ5 9
Ġconsid ering
Ġsin us
Ġadm ir
Ġopp osed
Ġshout s
Ġra ise
Ġinfl amed
fact ory
Ġconn ected
Ġnews pap
Ġval u
Ġoccup ation
go vern
Ġacqu ired
Ġextrem ity
Ġho ly
Ġinform ed
Ġmur at
Ġwin ter
Ġdiss atis
Ġeb ooks
Ġassist ance
Ġbond s
Ġrecall ed
Ġperm ission
Ġhyper aemia
Ġtransf erred
Ġank ylosis
cri ption
Ġeduc ation
Ġrelig ious
Ġrepro ach
Ġcoach man
Ġaust er
Ġdign ity
Ġforb id
h ol
l itz
m et
m aster
o ber
r ison
t ur
Ġa ch
Ġs an
Ġs ong
er ior
Ġc ustom
ed ition
Ġh ipp
Ġm cc
Ġto es
Ġl ose
Ġl oy
Ġn urs
ic ut
ro e
ly m
ur ated
Ġsu gar
Ġsh irt
Ġsa ved
Ġall iance
Ġal t
Ġwe ar
ary n
un ks
Ġtr an
Ġover lying
Ġthr ust
Ġleg al
Ġsmall er
Ġph r
Ġcr ack
Ġprod uct
Ġlay er
Ġsle e
Ġtra ve
Ġtre es
Ġfrequ ent
Ġbar clay
Ġrevolution ary
Ġwindow s
Ġdescrib e
Ġsatis fied
Ġsecret ary
Ġur ged
Ġdepend s
Ġinevit ability
Ġstret ched
Ġdispl ay
oly te
Ġwa ited
Ġresemb ling
Ġbuild ing
Ġfas cia
Ġauster litz
Ġhipp olyte
i ot
u x
Ġt rib
Ġw ages
Ġh ide
Ġp hen
Ġm ason
es h
Ġto t
an es
ic les
Ġg own
ro se
il ised
Ġse ar
Ġde ed
Ġv ain
ap se
Ġal co
Ġprin t
Ġad ult
Ġen force
pl ess
Ġcont em
Ġcomm itted
Ġper for
Ġgr ain
Ġfrench men
Ġdist ant
Ġinc ident
Ġinc omp
Ġser um
Ġcontin ue
Ġinst ance
Ġma le
Ġmem ber
Ġshow s
ren cy
Ġprov ision
Ġprov isions
Ġreco very
Ġhigh ness
Ġcent re
Ġcur rency
Ġsle igh
Ġfig ures
Ġmid st
Ġreal ized
Ġprof ession
Ġburn s
Ġgre y
Ġsepar ation
Ġdevelop ed
Ġimag ination
Ġexec utive
Ġlig ation
Ġextens ive
Ġneare st
Ġassist ant
Ġextreme ly
Ġfrow ning
Ġconnect icut
Ġhen ry
Ġpurch ase
Ġjump ed
Ġdeclar ation
Ġvien na
Ġoct ober
govern ment
Ġphen omen
4 9
h and
l ers
t t
Ġt ask
it es
Ġp ion
Ġe t
Ġre ject
id erm
Ġr ig
am ber
all ow
Ġv ast
ri ages
Ġsh aking
Ġne ur
Ġch allen
ant ing
um ns
Ġpro gr
Ġun certain
Ġad hes
Ġco al
Ġmy ster
Ġag ents
Ġcont ents
Ġbl ock
Ġgl ory
Ġarm chair
Ġatt ent
Ġexp osure
Ġfl ight
Ġsc ene
ip her
Ġdes ired
Ġcol umns
enc ies
less ly
Ġbatt les
Ġins p
Ġfin ish
Ġnum erous
Ġprom pt
Ġcamp f
Ġsing ing
Ġball s
Ġball ot
Ġprep aring
Ġje alous
Ġulcer ation
Ġjoy ful
Ġcontro vers
Ġexam ined
Ġmod ern
Ġneg ro
Ġrad ium
Ġband age
Ġviol ence
Ġfle w
Ġvic inity
Ġassemb led
Ġfro st
Ġsubst ance
Ġcopy right
nes see
Ġaut umn
Ġjun ction
Ġtox ins
Ġtremb ling
Ġana est
Ġanci ent
iderm is
2 5
b ec
g est
k ind
Ġ ident
Ġ vers
Ġa ide
Ġa rose
Ġo x
Ġb aker
Ġc ere
Ġc ous
Ġf ancy
Ġp ulse
Ġm ir
Ġm ac
Ġm un
Ġm atch
Ġin cl
Ġd ate
Ġto bac
or able
Ġre tain
Ġu lt
ay a
Ġse m
Ġse lected
ag ger
Ġsa f
Ġsp asm
Ġun fortun
Ġen v
Ġapp reci
ans as
ang ed
ep ing
Ġper ipher
Ġcomp ared
Ġcomp elled
Ġcons ol
Ġfl ag
ail ed
Ġrel uct
Ġconst antly
uch arov
Ġeng agement
Ġstre am
Ġpat ches
Ġfore arm
Ġdep os
Ġden se
Ġsil k
Ġca ut
Ġlim it
Ġsin uses
Ġconv iction
Ġorder ly
Ġtend s
Ġsec ured
Ġcal ifornia
Ġfoot man
Ġill ness
Ġvas cular
Ġdisp ute
Ġdoub le
Ġdifficult ies
Ġhundred s
Ġregiment al
Ġstrong er
Ġstart ing
Ġimag ined
Ġpurp oses
Ġprogress ive
Ġpriv ile
Ġmanufact ure
Ġprovin ce
Ġmerch ant
Ġbull et
Ġreve aled
org an
ucharov o
c ked
f uel
g age
i pt
k in
m ed
o form
r ant
r ative
Ġt ut
Ġb er
Ġb order
Ġc ards
Ġh ip
Ġp ub
Ġp fuel
Ġm ing
ing ing
Ġd ors
Ġg ain
al d
Ġr ain
Ġr ates
Ġcon c
Ġcon qu
Ġne ut
ag ing
Ġpr on
Ġwhe els
ate g
ig ation
Ġab und
Ġdo ors
Ġman agement
ace ment
Ġwor thy
Ġcont rib
Ġbl ushed
Ġind ian
Ġind ians
Ġimp ress
Ġus ing
Ġhapp ening
Ġpet er
cul ated
Ġdon ations
Ġwr ink
Ġche m
Ġprov ide
Ġappro ved
Ġsec re
Ġ17 6
Ġru ined
Ġten nessee
Ġrapid ity
Ġrepe ating
Ġeas tern
Ġdri ving
Ġhistor ic
Ġfellow s
Ġnorth west
ipp ing
Ġbring ing
Ġprinci p
Ġmark ets
Ġrestr ain
Ġconfed eration
agr aph
Ġgri ef
Ġbeat en
Ġwithdra w
Ġchee k
Ġchee ks
Ġbog ucharovo
Ġinher ited
igr ants
Ġloy al
Ġtran qu
Ġtobac co
l o
s arcoma
t iary
u ary
v ard
Ġ ing
in ous
re es
Ġb read
Ġp ond
Ġl ot
Ġl ack
Ġl av
Ġg ather
ad a
Ġre ar
Ġan al
Ġan gel
il ies
Ġch ond
Ġpro hib
our se
Ġind uced
int s
Ġimp at
Ġyour s
Ġbeg ins
Ġstr anger
Ġ2 00
Ġreg en
Ġhead quarters
Ġdist rict
Ġpol ish
Ġdiff erence
Ġcour ts
Ġpet ition
Ġcontin ental
Ġinst antly
Ġserv ant
Ġgu il
Ġins pect
Ġcontinu ous
Ġart ific
Ġpo ison
Ġmiss ion
Ġsen ator
Ġgrowth s
Ġbrother s
Ġsum mon
Ġinqu ired
Ġbene fit
Ġeight e
Ġbacter ial
Ġattempt s
Ġloud ly
Ġnod ded
.) ]
Ġintern ational
Ġgrant ed
Ġmess age
Ġresist ance
Ġcho ice
Ġdefe at
Ġfortun es
Ġdoll ars
Ġdu ke
Ġcomr ades
Ġnec rosis
Ġembr aced
Ġbab y
a ited
f r
f ive
f ast
r im
s ix
t ure
Ġt etan
Ġa h
on ly
Ġb ay
Ġb ore
Ġf et
Ġp in
Ġp il
Ġm ag
Ġd are
Ġd ancing
ll y
Ġg ained
se en
Ġst om
et te
Ġr ace
Ġr ank
Ġr hod
am ents
ac her
oo p
Ġpr ice
Ġpr ices
Ġshe ll
Ġfe b
ie ur
Ġco ast
Ġen ergy
Ġsome what
Ġbl ind
Ġcomp et
Ġsee k
ons ieur
Ġold er
Ġmust ache
Ġspe cially
Ġpeop les
Ġinc ome
Ġinc ision
Ġconf idence
Ġsupp osed
Ġrel ated
Ġadv ancing
Ġte xt
Ġinst inct
Ġph ili
Ġmon roe
Ġprod uction
Ġfam ilies
Ġdol gor
Ġdisc overed
Ġbri ef
Ġexc use
Ġfed eration
Ġport s
Ġbed room
Ġep idermis
Ġroad s
Ġdoct ors
Ġsen ators
Ġabscess es
Ġsac rifice
Ġremar ks
Ġjud ge
Ġ186 0
Ġobl it
Ġinflamm atory
Ġprovin cial
Ġanx iety
sy ph
ococc us
Ġthrow ing
Ġcou ple
Ġexact ly
Ġinstru ctions
Ġprocl amation
Ġbattal ion
Ġabdom inal
Ġthorough ly
Ġexha usted
Ġhun ter
Ġtwel ve
Ġphili pp
Ġdolgor ukov
c al
f aced
l s
l ier
Ġt our
Ġt ail
Ġa pt
Ġb as
Ġb ath
Ġd ess
Ġd aily
Ġe ase
le ction
Ġre ward
ro ther
se y
ur ance
Ġi l
Ġfr ag
ol es
Ġbut t
Ġwe ather
Ġun us
Ġun eas
Ġdis order
Ġcl av
Ġunder wood
Ġem otion
Ġinf ect
Ġinf inite
Ġgl it
ber t
Ġsc al
Ġsc ale
ens ions
aw are
Ġref erence
Ġinv ited
Ġele cted
Ġdr ain
Ġph otograph
Ġir res
Ġpar agraph
Ġsever ity
Ġtrans form
Ġdev oted
Ġdisp os
Ġ6 0
Ġmilit ia
Ġsn uff
Ġrid ic
Ġprevent ed
Ġmed ull
Ġjud ic
Ġforest s
Ġcapt ure
Ġconfed er
Ġmanifest ations
Ġbott le
Ġcloud s
Ġfee ble
Ġperfect ly
Ġprepar ations
Ġpros per
Ġcoo per
Ġmedi um
Ġva let
Ġadhes ions
b re
c ont
f ib
f are
v is
Ġa head
Ġc up
Ġc atch
it ating
Ġd un
ar th
ar thy
Ġl osing
om te
ic ose
Ġg le
Ġre ign
ur ity
Ġst ages
Ġst ories
ver ted
am b
Ġk rem
Ġch ina
ak che
Ġj une
Ġwe l
Ġfre em
su ch
Ġcl oth
Ġapp ly
cl er
Ġtw it
Ġcar p
Ġret ired
Ġfriend ship
Ġins ide
pr in
not hing
Ġhum erus
Ġneed s
aps ed
Ġbal ance
Ġmad ison
Ġcare ful
Ġdro p
Ġhur ry
Ġprep are
Ġsurround ings
Ġvot ers
aneous ly
Ġer r
Ġster ilised
Ġalex e
Ġtou ching
Ġmo on
Ġinclud ed
Ġfavor ite
Ġcomb ined
Ġcomb ination
Ġpray er
Ġsharp ly
Ġdeform ans
Ġphil os
Ġvic omte
Ġbreat hing
Ġinquir y
Ġabsor ption
Ġmount ed
Ġbull ets
Ġdimin ished
Ġstruct ures
Ġfrow ned
Ġpos itive
Ġic on
loo king
Ġparent s
tub er
Ġsept ember
Ġsurge on
Ġalco hol
Ġprogr am
akche ev
+ --------
2 8
a wn
d i
h is
h ur
l im
p he
p res
s m
t w
v as
v ille
Ġs ere
Ġs ke
Ġs ons
Ġc ow
Ġc attle
Ġm ic
Ġm onsieur
Ġth igh
Ġl oving
Ġre n
Ġre nder
im s
Ġwh ip
ve land
Ġr uc
ol ent
Ġse ated
Ġde aling
Ġv il
Ġal tered
Ġar akcheev
Ġj an
Ġj ose
Ġro le
Ġdis cl
ĠĠĠĠĠĠĠĠ ĠĠĠĠĠ
Ġno b
Ġem ph
Ġli ver
Ġrem oving
Ġgr ate
Ġgr ass
Ġpre c
Ġthan ks
Ġcar riages
Ġcol or
Ġ18 4
Ġcour age
Ġref use
ict ions
Ġdef ect
Ġinv asion
Ġser ous
ific ations
Ġpain s
Ġins ign
Ġred oub
Ġreco ver
Ġsent iment
Ġincre ases
Ġorgan ization
Ġfav ored
Ġsince re
Ġsoft ly
Ġwat ching
Ġmean while
Ġassoci ation
Ġspir its
Ġpen et
Ġtri f
Ġrequ est
Ġer u
Ġgang l
Ġrespect fully
Ġfif th
Ġquar rel
Ġrad ical
Ġsad dle
Ġsol id
Ġterrit ories
Ġlib eral
Ġexec ution
Ġmanufact ures
Ġprovin ces
Ġstern ly
Ġwis hes
Ġstat ement
Ġintell ig
Ġbott om
Ġspec ific
Ġiod oform
Ġjer sey
Ġhang ing
Ġconserv ative
Ġadvent ure
Ġexcess ive
Ġdisturb ance
Ġsurre nder
Ġdisco ver
Ġmusk et
Ġexper iment
stand ing
Ġguil ty
Ġstom ach
Ġsere ne
Ġruc ast
? ..."
l ord
l ook
m ary
r ushka
Ġt ired
Ġo wing
Ġp ou
Ġp ad
Ġl amp
Ġn omin
Ġbe ard
Ġre tained
ot ing
Ġis n
Ġfr anc
Ġsh r
Ġsh one
ac ic
Ġex isted
Ġsa ber
Ġpr ide
Ġch anc
est ead
Ġare as
Ġwe y
art ed
Ġun s
Ġkn oll
Ġwor st
Ġcl er
Ġtr ap
Ġwar fare
Ġsc he
Ġacc ur
Ġlet ting
Ġret ire
Ġyoung er
Ġ5 8
Ġrest less
oub ted
Ġred uced
Ġconv en
Ġchild hood
Ġfact or
Ġimm igrants
Ġoper ative
Ġlight ly
Ġmer cy
Ġdel ir
Ġill ust
Ġchang ing
Ġhop es
Ġreason ing
Ġstrong ly
Ġcivil ization
Ġrepresent ed
Ġlocal ised
Ġann ounce
ric ial
ino is
Ġpow der
Ġver te
Ġfort une
Ġaffect ing
Ġsens ibility
Ġsatis factory
Ġcommun ication
Ġdistrib uted
Ġassemb ly
Ġsurg ery
Ġsob s
Ġhom estead
Ġstead ily
Ġvital ity
Ġrespons ibility
Ġliter ary
Ġspectac les
Ġenthusi asm
Ġintellect ual
Ġsuperi or
Ġsequest rum
aryn x
Ġincomp rehensible
Ġcous in
Ġneut ral
Ġalexe evich
Ġjose ph
Ġinsign ific
g od
i ation
i oma
k aya
m inded
r oma
Ġ ...
Ġt ied
Ġt ension
Ġa et
Ġo ak
Ġb ul
Ġb ind
Ġb asis
is k
Ġf ires
Ġp ace
Ġp ause
Ġp air
Ġp acked
Ġd ar
Ġd ance
an cial
Ġhe al
ic ed
st it
st ep
Ġan ne
ch ial
her kov
ul itis
ri ll
Ġsh ining
pp y
ag o
um s
Ġun ha
Ġam az
Ġkn ife
the se
Ġwor ked
Ġany where
Ġrem aining
Ġbr u
are v
Ġfl ed
Ġwar rant
erv ical
Ġsur v
Ġbet ray
Ġconf ess
Ġsupp ur
Ġref lected
Ġrest ored
ps h
Ġche ck
Ġappro ach
Ġneed le
Ġcoll ected
Ġill inois
Ġdirect ions
Ġmad ame
Ġsen seless
sem ble
gen eral
Ġz herkov
Ġanim als
Ġce le
Ġexec uted
Ġpal m
Ġeye b
Ġadop t
Ġneighb or
Ġhunt s
Ġnav al
Ġacquaint ances
Ġstruct ure
Ġclaim s
Ġcover ing
Ġpersist ent
Ġestablish ment
Ġna ev
Ġvigor ous
Ġdav out
Ġcritic ism
Ġserge ant
Ġrig id
Ġtetan us
syph ilitic
Ġjan uary
a ul
b its
c alled
l or
l ov
r is
r an
r ical
r ating
y n
y le
Ġt ree
Ġt riv
Ġo il
Ġw ra
Ġw ip
at eral
at ched
Ġc ervical
Ġf ly
Ġf oc
Ġp icked
Ġd re
an im
as hing
Ġn in
Ġn our
Ġg er
ve mber
Ġst ick
et ic
ir ing
Ġr he
Ġv iii
Ġal tern
Ġj uly
Ġro lled
ive red
Ġint ra
Ġab n
Ġman e
Ġgo ver
Ġco ats
Ġno vember
the less
Ġcl os
Ġcomm iss
Ġnat ive
Ġnew ly
Ġinf ilt
Ġatt rib
Ġmar g
Ġact ually
ru ary
Ġend ed
Ġchar les
Ġcap acity
Ġcle veland
Ġnever theless
Ġdr unk
Ġbel onged
Ġsign ed
Ġtub e
Ġdoes n
Ġcal c
Ġste ward
fact or
Ġprot est
Ġtra umatic
Ġenem ies
Ġmain tained
Ġdoub ts
Ġhistor ian
Ġcare er
Ġcell ulitis
Ġfederal ists
Ġelect ric
Ġrepresent ative
aph yl
Ġpay ment
Ġbag gage
Ġsal t
Ġobserv ation
Ġground s
Ġstri ke
Ġmist ake
Ġfail ure
Ġpus hing
Ġhar ness
Ġsupport ed
Ġlig ature
Ġplain ly
Ġinterv als
Ġappoint ment
Ġstay ed
Ġdeterm ine
Ġsignific ant
Ġequal ity
Ġmanufact uring
Ġbir th
Ġneighb our
Ġadvant ages
Ġexer c
don ald
Ġwa ist
Ġlean ed
Ġdelight ed
Ġven ous
Ġeager ly
Ġdece mber
Ġily in
Ġaccompl ished
Ġcommitt ee
Ġpruss ia
Ġquant ity
Ġreven ue
Ġpropos al
Ġtit le
Ġmyst ery
Ġperipher al
Ġartific ial
Ġfeb ruary
Ġwey rother
Ġtriv ial
5 7
a ise
e very
h am
h oun
p ation
r ade
Ġt a
in f
Ġw ants
Ġp aces
Ġm ap
Ġm ental
Ġin aug
Ġd ir
Ġth ou
Ġl ac
Ġg ar
Ġg aily
al f
et her
Ġr ange
Ġha bits
Ġse as
Ġv ivid
Ġsh y
Ġsh rug
Ġk id
th ree
em ic
Ġch amber
um ed
um erable
Ġwhe at
Ġdis h
Ġad vert
Ġco ff
Ġno ise
od ore
Ġgl o
Ġgl oom
Ġcomp ression
Ġcons isted
Ġfl at
Ġreg ions
Ġent ertain
Ġmary land
Ġset ting
Ġ5 4
Ġbor ne
up us
Ġter tiary
Ġbattle field
Ġbo ard
Ġang le
Ġsing ular
Ġname ly
Ġhop ed
Ġopin ions
Ġgra ce
Ġmill s
Ġvill ages
Ġaccount s
Ġtri al
Ġjoy fully
Ġissu es
Ġkiss ing
Ġant ise
Ġadjut ants
Ġce ase
Ġinn umerable
Ġund oubted
Ġconcer ning
Ġlear n
Ġinde f
ert ion
Ġmur m
Ġenc oun
Ġinterv iew
nat ured
Ġnod ules
Ġsend ing
Ġmaid s
Ġbursa e
Ġobv iously
Ġthreat ened
Ġdog s
Ġrat ification
Ġnav y
Ġepitheli oma
Ġwithdra wn
Ġoss ifying
Ġsho es
Ġgraft ing
Ġwag ons
Ġswift ly
Ġargum ents
Ġsusp ic
Ġcicat ricial
Ġtreas ury
Ġpuls ation
thir ds
Ġlest rade
Ġwed ding
Ġlic ense
Ġlymphatic s
ckin ley
Ġunnat ural
Ġlav rushka
hur rah
Ġrucast le
" ;
2 4
3 0
6 0
b ra
h ouse
i asis
s ing
Ġt ast
he m
Ġs uture
is hes
Ġf olk
Ġp ick
Ġd erm
Ġd rug
ar i
an in
as ka
Ġl un
Ġn amed
om ical
ic ity
Ġg on
Ġbe w
ad en
Ġre ct
id s
Ġon set
Ġst ock
Ġi li
all es
us ions
Ġsh op
Ġk uz
Ġex ud
th ank
Ġsa il
Ġsp aces
ound ed
Ġle aves
Ġen velop
ke eper
ass ad
ft y
Ġpre cious
Ġwar ning
Ġsc rew
Ġoffic es
Ġgood ness
Ġdef ined
Ġpers u
Ġcontin ent
ev en
Ġ5 7
Ġele ment
Ġserv ing
Ġserv ices
Ġfree hold
Ġconstit utions
Ġansw ering
Ġdi am
Ġwork ers
Ġdet achment
Ġperson ally
Ġpap a
Ġcoll ar
Ġfoot step
Ġtra ce
Ġdisp osition
Ġsett lers
Ġemploy ees
Ġreal ize
Ġcut aneous
Ġelect ions
Ġdeb ate
Ġspirit ual
Ġcand le
Ġswe pt
occ up
Ġdam aged
Ġbell s
Ġstret ching
Ġax is
bo ard
Ġarch ive
Ġspo on
Ġoblig ations
Ġdistinct ly
Ġali ke
Ġscre amed
Ġamb assad
Ġcult ure
Ġmach ine
Ġmas ters
Ġmcc arthy
Ġphenomen a
Ġmyster ious
Ġsaf ety
Ġdess alles
tuber cul
Ġdar ling
Ġfoc us
Ġdir ty
5 9
a us
a ired
d ered
h l
i ro
k now
n est
o ked
p it
r ange
w w
z ed
Ġa ven
in king
Ġb und
is ement
Ġh ounds
en ger
Ġf ired
Ġp aced
Ġm art
Ġm ckinley
Ġd ou
Ġto e
ic ate
ad s
Ġwh igs
ot a
Ġas sured
Ġst oop
Ġr ick
Ġha re
ol ov
ap ing
ist ocr
Ġj oke
Ġwe ap
Ġint ense
Ġle ather
Ġun ite
ie ved
Ġman kind
Ġwhen ever
ĠĠĠĠĠĠĠĠ ĠĠ
Ġco in
Ġno vel
ke y
cess ion
Ġapp lying
Ġcont ains
Ġoff ended
av en
cl ot
ang ers
Ġimp osed
Ġatt racted
Ġfl or
Ġreg iments
te xt
Ġdes ign
Ġact ed
ne um
Ġac res
issu e
Ġinc on
Ġsupp le
Ġcor rid
Ġrec onst
Ġrest oration
Ġconsid eration
Ġca le
Ġvar icose
Ġcir cles
Ġprod ucing
Ġbon y
Ġbur den
bur gh
Ġprot ests
Ġport ra
ret ched
Ġdev ised
Ġarter ial
Ġobs erve
Ġinvol ve
Ġball room
Ġgra v
gr at
Ġpay ing
Ġdisapp oint
Ġassum es
Ġmed ic
Ġgallop ing
Ġwood en
Ġcoun ter
Ġbreak fast
af ter
Ġdistur bed
Ġhunt ing
Ġmexic an
Ġank le
Ġdism ount
Ġbold ly
Ġpref erred
Ġstead y
Ġunivers al
Ġexch ange
Ġexception al
Ġconfirm ed
Ġtimid ly
Ġcolle ge
Ġanter oom
Ġindiff erent
lym ph
Ġunfortun ate
Ġfranc is
Ġeyeb rows
Ġglo omy
a id
b on
m ore
s l
u ed
u ation
v ar
Ġt aft
Ġa se
Ġs ank
Ġw ing
it ure
en ka
Ġf ier
Ġf lying
Ġp uff
Ġd ared
or ious
Ġl ock
Ġn ut
Ġhe m
le ton
Ġg ay
Ġg ently
Ġbe aring
Ġre nt
Ġre aches
ot id
se c
ur d
Ġr om
Ġr ust
Ġr ush
Ġcon grat
Ġha ven
Ġsh ade
Ġint est
ff ic
ĠĠĠĠĠĠĠĠ ĠĠĠĠ
Ġno is
Ġno body
oc ks
Ġout come
Ġpl ump
ost osis
Ġcl osing
Ġform al
ire ct
Ġcons ci
Ġpres erve
Ġsee king
Ġsc and
Ġstr ateg
ip el
Ġocc l
ne cess
Ġsupp lied
Ġext ending
Ġref r
Ġdef end
Ġemper ors
uz z
Ġcommand s
Ġround ed
Ġins ult
Ġve h
no on
Ġreco ll
Ġtrans m
Ġcal houn
Ġsle pt
Ġaw aited
Ġdiv ine
Ġrecogn izing
Ġprocess es
Ġperiod s
fort une
Ġfarm s
Ġsuper v
orrh oe
Ġexam ining
Ġtor mented
Ġmur der
reg on
Ġlif ting
Ġfem oral
Ġstay ing
tr ad
Ġmarsh all
Ġbir d
Ġax illa
Ġdepart ment
Ġgro in
Ġvan ished
Ġthreat ening
Ġenjoy ed
Ġmotion less
Ġhom es
Ġleucocyt osis
cri pt
Ġali en
Ġmechan ical
Ġmel anch
Ġdepri ved
ruct ive
Ġepiph ys
Ġinstrum ent
grow th
Ġreject ed
Ġregen eration
Ġsummon ed
Ġcele br
Ġshrug ged
Ġindef inite
tubercul ous
Ġcorrid or
2 1
b ro
b ack
d r
e qu
g ent
p us
s en
t le
w y
y asha
Ġ erm
Ġo regon
Ġs ang
Ġw ise
er get
er ring
at us
at osis
it ary
Ġp ie
Ġd uel
ic able
ic king
ic ations
le ts
Ġg ates
Ġre ndered
st ream
ot he
ol ved
Ġsu it
ri fied
Ġch ose
ab s
Ġsp end
Ġsp ine
Ġsp inal
ound rel
op en
Ġdo zen
Ġdis ci
Ġco inc
Ġen erget
Ġcl ut
Ġpart ner
Ġcan als
Ġem anci
ft s
Ġinf lic
Ġcomp ressed
Ġexp edition
Ġbeg ged
Ġsc ars
Ġstr ain
ord ers
Ġdes igned
Ġmet al
Ġconf ident
og ether
ys ipel
Ġposs essed
sh aped
Ġbo ot
Ġtro t
Ġdet ached
gn osis
Ġdress ings
Ġlad s
Ġcrowd s
app ing
Ġlymph ang
Ġfib ros
Ġdecl aring
Ġfrequ ency
Ġdri ft
Ġhur t
con f
Ġdestro ying
Ġindic ation
Ġsens itive
Ġtax ation
Ġjud ges
Ġresp ond
Ġinclud e
Ġthick ened
head ed
Ġuniform s
ogr am
Ġchur ches
Ġtrad es
Ġinject ed
gu ard
Ġdistingu ish
Ġdefinite ly
Ġmaterial s
Ġfract ures
Ġtop ics
Ġxv i
Ġcorpor ation
Ġoss ification
Ġpack ing
Ġivan ovich
Ġdisappear ance
Ġresol ved
Ġgumm a
Ġinstit utions
Ġargum ent
Ġstiff ness
Ġavail able
Ġfulf ill
Ġbend ing
Ġenact ed
Ġmerc ury
Ġsucceed ed
Ġscot ch
Ġborz ois
Ġdissatis fied
Ġphr ase
Ġsear ching
Ġchem ical
Ġglit tering
tw o
Ġske leton
Ġunha ppy
Ġclos er
Ġmarg ins
Ġreconst ruction
b oy
e av
i ate
k es
m as
m ay
o ons
p ost
t ies
t issue
w he
w ere
Ġt on
Ġt ide
Ġa u
Ġo trad
Ġw and
at o
Ġb ure
Ġp up
Ġm ont
Ġin cess
Ġe ve
Ġbe ast
st r
st ate
ly anin
Ġst it
Ġy ards
Ġse ll
us al
Ġsu nd
Ġv ii
ri er
Ġk al
Ġex hib
ers ed
Ġne uro
Ġch in
ab ama
Ġshe ep
Ġad herent
un ning
su le
Ġcl ient
Ġtr ack
Ġtr unks
Ġsm art
Ġaf ric
cl av
Ġbr id
ang ing
ph ant
Ġexp ense
uc es
Ġgen eration
Ġstates men
ru cted
Ġend eav
Ġdise ased
Ġcap s
Ġcap sule
Ġgovernment s
Ġabs urd
Ġeff usion
Ġear lier
Ġbel ief
Ġel son
Ġfather land
Ġsim ult
Ġmin isters
ili ation
Ġreturn s
Ġcr is
Ġdi vers
Ġsoon er
Ġprov iding
Ġoper ating
Ġpresident ial
Ġrecogn ition
Ġcut ting
Ġrid den
Ġaffect s
Ġlow ered
Ġjud gment
Ġpav l
Ġlear ning
Ġpal ace
Ġbill s
Ġarrang ement
Ġevent ually
Ġble ed
nat asha
Ġmis fortune
Ġconfed erate
bo x
Ġinquir ingly
Ġdiplom acy
Ġtroub les
Ġisland s
Ġconce al
ococc i
Ġdrag ged
Ġsubst it
Ġpursu ed
Ġvary ing
Ġrelig ion
Ġelder ly
Ġital ian
Ġthromb osis
Ġnegoti ations
Ġnull ification
Ġdisloc ation
Ġvalu able
Ġalt ogether
Ġtot al
Ġpion eers
Ġcontrovers y
Ġpil gr
Ġirres ist
cler osis
pres ident
Ġredoub t
Ġwra pped
Ġportra it
necess ary
ysipel as
Ġotrad noe
2 9
c op
c ount
d ent
d id
d ear
f o
l ow
l iness
m us
p se
r as
r ary
w el
z a
Ġ vel
Ġt ones
Ġa ort
Ġs ite
re f
re ated
Ġb rows
is ans
Ġp oured
Ġm igration
Ġl uck
Ġg ross
Ġg oose
Ġre semble
ut ino
Ġr ays
ch a
ch n
ov a
Ġall e
um at
ate ll
Ġar range
Ġar istocr
Ġsp ong
Ġsp ark
Ġ1 00
Ġdo cum
Ġco ag
Ġres erve
Ġbr and
Ġbr isk
Ġover come
Ġwill ing
Ġafter noon
Ġgr at
Ġfl uct
Ġsc oundrel
Ġmar rying
att ed
Ġown er
Ġinc om
Ġchar ter
Ġrec overed
Ġeff ective
Ġes aul
Ġdep ressed
Ġden ounced
Ġpur it
Ġpain ted
Ġph al
Ġconv oy
Ġdec ide
Ġsec uring
Ġpo ol
Ġexc ision
Ġsound ed
Ġdel aware
Ġsto pping
Ġhy p
Ġann oy
ric ted
Ġpract ically
Ġcontro lled
Ġ* **
Ġrub bed
Ġsitu ations
Ġconcer n
Ġcomb inations
Ġindividual s
Ġinterv al
Ġloud er
Ġinevit ably
Ġofficial s
Ġfever ish
Ġsufficient ly
Ġflex ed
Ġoblig ed
Ġstation ed
Ġdomin ion
Ġpassion ate
Ġrespons ible
Ġimprove ment
Ġily a
Ġpri est
Ġtyp es
Ġexceed ingly
Ġrenew ed
Ġapr il
Ġdesper ate
Ġappropri ate
Ġattent ively
Ġming led
Ġprincip al
Ġrhod e
Ġunus ual
Ġdispos itions
Ġvil na
Ġgangl ion
Ġconven ient
Ġmelanch oly
Ġerm olov
Ġcris is
/ /
3 5
e ight
m r
n al
o ard
Ġt act
Ġthe r
Ġo ath
Ġw ax
Ġb ry
is ive
Ġc as
Ġp ed
Ġp all
Ġp uck
Ġm it
Ġd or
Ġd uct
Ġth omas
Ġl ung
Ġn ames
ic a
le ans
Ġg room
im m
id a
ot ic
se cond
Ġu hl
Ġst ars
Ġst airs
Ġis ol
Ġan th
Ġha w
Ġor leans
Ġse men
Ġse izing
ain ted
Ġsu itable
ri x
Ġso res
Ġbut ton
em ark
ap t
Ġch amp
ant ed
Ġwhe el
Ġpro ced
Ġpro xim
nt y
Ġsp here
Ġab st
Ġun con
Ġdis ag
Ġthere by
un ction
ace ous
Ġmy el
Ġen ch
Ġcl in
Ġcl im
Ġcl ergy
Ġcont ent
Ġbl ess
Ġbl ushing
Ġatt ained
uc le
anc ies
Ġacc used
Ġdes erted
Ġsub mit
Ġgovern ors
Ġpol ite
Ġconf erence
Ġeng ine
Ġadv is
ev es
Ġlast ed
Ġfeel s
Ġexpress ing
Ġcommand ing
Ġposs ibly
Ġdem ands
Ġlead s
Ġvar ix
Ġhel pless
Ġmem ories
Ġnecess arily
Ġthir teen
Ġrap tur
Ġcoll ective
Ġfoot men
Ġvir us
Ġdev otion
Ġhold er
Ġmilit iam
Ġhop eless
Ġsix th
Ġsix teen
Ġdin ing
gen ital
Ġer ysipelas
Ġprevent ing
Ġanim ation
Ġmod erate
Ġbene factor
Ġrad i
Ġtar utino
Ġexcl us
Ġsleep ing
Ġpath ological
Ġess ence
Ġglass es
Ġauthor ized
Ġforget ting
Ġdiscuss ion
Ġimper fect
Ġgro an
Ġbra ve
Ġwealth y
Ġbacill i
Ġring ing
Ġpict ures
Ġunivers ity
Ġprepar ation
Ġpros pect
Ġuncom mon
Ġsway ing
Ġdescend ed
Ġrecomm ended
Ġconcent rated
Ġze al
Ġnewspap ers
Ġchallen ge
Ġcampf ires
bec ause
Ġcere mon
Ġnob ility
Ġfootstep s
Ġdisci pl
: //
a e
a res
c overed
d an
e em
k oy
l est
l ite
l ial
r ud
Ġo l
Ġs ill
on aparte
Ġb ree
Ġc ries
Ġh oo
Ġf acing
Ġp ya
Ġd amp
Ġg out
Ġg oss
im ately
ir ation
am inated
Ġse ab
Ġse ize
Ġse lect
Ġsh ins
ac ute
Ġher s
Ġex cluded
Ġsa ving
Ġch ann
ant e
Ġro sy
Ġint ently
Ġun necessary
iv eness
Ġam use
per haps
su b
Ġtim ok
ub ets
Ġcomm ence
Ġover th
ha ired
Ġcomp lex
Ġexp ans
Ġfl ung
Ġsl ipped
Ġlike wise
Ġreg ulation
Ġac know
Ġstre pt
Ġref und
Ġref usal
Ġrec ently
Ġte lyanin
Ġgrow s
Ġma xim
Ġdep th
Ġke y
Ġmight y
Ġmin or
augh ters
Ġpa ul
br al
---- --
Ġsle eves
Ġste el
Ġappear ances
Ġheart s
oid s
Ġconsider ations
Ġsubject ed
Ġdro ps
Ġwat ers
Ġsto res
Ġreal ity
Ġsix ty
bed ded
Ġpost erior
Ġlegisl ative
Ġassum ption
Ġfort night
Ġmed ial
Ġho arse
Ġtor t
umb ling
Ġescap ed
Ġescap es
iver ing
Ġlif t
Ġhast e
Ġris en
Ġjack et
Ġdepend ent
Ġintrod uction
Ġviol ent
Ġclass es
Ġsovere ig
Ġdiscuss ed
Ġax illary
Ġhost ile
Ġarth ur
Ġprol if
Ġconnect ions
Ġfill ing
Ġlat eral
Ġvent ured
Ġ185 0
Ġcult iv
Ġrecomm end
Ġtempor ary
Ġtyp ical
Ġcondem ned
Ġreb ell
Ġcub a
Ġpel vis
Ġoppon ents
Ġdelib er
Ġprivile ges
Ġimpat ient
Ġinspect or
Ġconfeder acy
Ġphilos op
Ġchanc re
Ġdelir ium
Ġinsignific ant
Ġanne x
Ġmane u
Ġambassad or
phant iasis
lite al
Ġseab oard
Ġtimok hin
2 7
4 3
6 5
b orn
c ast
e k
f ed
g ive
h ad
p ass
t ell
t uro
u ated
u cted
Ġ ice
Ġw art
Ġw ave
Ġw aved
on ov
Ġc ad
Ġc ig
Ġc unning
it ect
Ġp our
Ġp neum
Ġd aughters
Ġto oth
or ov
Ġl an
Ġn ik
Ġhe els
Ġe y
ot ted
Ġas cend
Ġst ated
Ġat l
Ġfr uit
Ġde af
Ġk l
Ġk it
Ġex ists
em p
Ġch ain
Ġch airs
Ġshe et
Ġshe vard
Ġj ur
Ġj ap
Ġj est
Ġro t
art icular
Ġme lt
un ct
Ġgo al
Ġkn ight
Ġco arse
Ġout er
Ġag gra
Ġoff ensive
Ġtr ous
ice ps
Ġbl ocked
Ġind uration
Ġind urated
Ġwill ars
Ġper mit
Ġgl oves
Ġpre occup
Ġmar ching
Ġour s
Ġob ey
Ġpass ions
Ġrostov a
Ġmak ar
Ġcall s
Ġcle aring
Ġlaw y
Ġhor iz
Ġden ied
Ġbor row
Ġpur ulent
li ver
Ġfin ancial
Ġlarge ly
Ġlove ly
Ġconv entions
Ġchild ish
Ġdest ined
Ġcur ious
Ġdisc ont
Ġkind s
ec hes
Ġaw ful
Ġpop ul
Ġfib ro
Ġtem pt
Ġdri ver
Ġhon est
Ġemploy ers
Ġanat omy
Ġprof its
Ġdut ch
Ġelect ors
Ġ16 8
Ġcav ities
Ġvol ume
Ġindic ate
Ġsevere ly
Ġcompl icated
Ġcompl ications
Ġfail ing
Ġlo fty
Ġmo an
Ġmil k
Ġ186 5
uls ion
Ġbright ly
Ġattempt ed
Ġur ine
Ġarrang ements
Ġhast ened
Ġpun ish
Ġtrad emark
Ġban king
Ġdeg rees
Ġpull ing
Ġeld est
Ġstat us
Ġarch itect
Ġhung ry
Ġaddition al
Ġfurn ish
Ġentr usted
Ġconsequ ently
gl as
Ġhen ce
Ġpref er
Ġalarm ed
Ġna ive
Ġnail s
Ġic ons
Ġvac c
Ġowners hip
Ġcarb olic
Ġpig ment
Ġhid den
Ġcrim inal
Ġunconscious ly
Ġsimpl icity
Ġcoron et
Ġign or
Ġperplex ity
Ġach ieve
Ġcontem por
tt p
Ġult imately
Ġphilipp ines
Ġdun yasha
Ġkrem lin
Ġabn ormal
Ġcale che
Ġsimult aneously
Ġpavl ogr
umat ism
Ġmilitiam en
Ġshins hin
Ġrebell ion
turo v
Ġshevard ino
Ġaggra v
Ġwillars ki
, --
4 0
b urn
b aceous
m amma
r ich
u ously
re cted
er ative
Ġb ands
Ġb owing
Ġc ook
Ġh ither
Ġh ttp
it one
en a
Ġf att
Ġf aint
Ġp ink
Ġm ile
es c
Ġth read
ic ago
Ġre in
st ill
Ġr ag
ch ronic
Ġse qu
ri fic
Ġex agger
qu ite
Ġch ill
Ġch icago
Ġal oud
Ġar ise
Ġar sen
Ġsp ont
Ġme ad
Ġup set
ie v
Ġdis int
un n
un ken
od e
Ġpart icip
Ġres c
Ġcan ada
Ġem er
Ġrep lying
Ġrep utation
Ġind ul
Ġgr acious
Ġgl im
Ġfl ood
ens es
Ġmar gin
Ġmet ast
Ġinc ap
Ġchar ged
enc ing
Ġrec on
Ġadv ised
Ġpers pir
Ġte ach
Ġeff icient
Ġrest ed
Ġrest ore
Ġrest ricted
Ġdr ubets
Ġdr unken
Ġpur se
Ġpur ple
Ġserv itude
ple ase
Ġgu ar
Ġir rig
Ġconstit utes
Ġfact ories
Ġdec or
Ġsecond s
Ġx i
Ġx iv
Ġx ii
Ġhigh road
Ġdest ructive
Ġpolit ic
Ġhal ted
Ġvis ited
Ġfour teen
Ġste pping
Ġsym met
Ġmass age
Ġpop liteal
Ġwest ward
Ġbu ff
Ġobs c
Ġsoft ened
Ġreason able
Ġpeace ful
com m
Ġfederal ist
Ġ16 9
Ġindic ating
Ġstri p
Ġgaz e
Ġlo aded
Ġarri ve
Ġcand les
Ġcyst ic
Ġcircum s
Ġdam ages
Ġemp ress
Ġcalm ly
Ġneighb ors
Ġsour ces
_-- _
Ġagree able
Ġsuprem acy
Ġfurn ished
Ġstir red
Ġcorpor al
Ġcandid ates
Ġconsequ ence
Ġiod ine
Ġkill ing
Ġwonder ful
Ġgraft s
Ġdefe ated
Ġpict ure
Ġexch anged
Ġgumm atous
Ġfavour able
Ġpill ow
Ġextend s
Ġwhist le
Ġsway ed
Ġcreat ure
Ġadvoc ates
Ġsut ures
Ġrow s
Ġsubsequ ent
Ġaston ishment
Ġweb ster
Ġrele ase
Ġprofession al
Ġabund ant
Ġsnuff box
Ġjudic ial
Ġundoubted ly
Ġgon orrhoe
Ġpie ces
Ġuhl ans
Ġsovereig nty
2 3
b or
f if
h as
i ograph
l ig
n ut
s ac
s ome
Ġt ense
Ġa ver
in ter
in ery
Ġo s
Ġs ar
re ction
Ġw ake
is ation
Ġc rying
it ors
Ġp ust
Ġm av
ou l
Ġd oses
Ġd awn
or ial
Ġl ise
Ġl ane
Ġl ake
Ġl upus
Ġn as
Ġn om
le b
Ġg ig
Ġg iant
Ġg riev
st re
Ġst able
Ġi x
Ġr het
Ġcon quest
Ġsu stained
Ġv ous
Ġv est
ri gu
Ġk ir
ac c
os ion
Ġne phe
um ber
ist ing
Ġsp are
Ġro ll
Ġwe pt
Ġup stairs
Ġint rigu
Ġle e
Ġun re
Ġdo kh
Ġprin ted
Ġdis se
Ġman age
Ġam used
Ġpl acing
pl ed
ind er
Ġcl air
Ġcont ain
Ġwould n
Ġsm ith
Ġli qu
Ġli ability
Ġper pet
Ġgr im
Ġcomp ens
Ġpre text
Ġfl ap
Ġfl owed
Ġfl esh
Ġsc ott
ather ine
Ġdes cription
Ġpass ive
Ġsk i
Ġinter p
Ġend ure
Ġback ward
Ġresult ed
cept ible
Ġhor rible
Ġbor n
Ġgu ess
Ġcr ushed
Ġsign al
Ġlab ore
Ġbus hes
Ġdress es
ug a
Ġ19 00
Ġappro xim
Ġcur tain
Ġcommon est
Ġfour teenth
Ġmind s
Ġmiss ed
Ġmiss ing
Ġcoll ection
Ġloc ked
Ġaw ak
Ġrun s
Ġdisp utes
Ġmeet ings
Ġequ ip
uten ant
Ġshort ly
Ġfarm er
Ġide al
Ġdisapp ro
Ġvol s
Ġextrem ities
Ġ10 2
Ġneg ative
Ġmist ress
Ġprob able
Ġthick ening
Ġsun k
Ġwrit ers
Ġbound ary
Ġactiv ities
-------- --------
Ġabandon ing
Ġplant ations
Ġfle et
Ġepithe lial
Ġmount ains
Ġ180 5
Ġdrag oons
Ġsubm itted
Ġperioste al
Ġcab in
Ġwag on
Ġimprove ments
Ġtremb led
Ġfund s
Ġgreet ed
Ġwhist ling
Ġmach inery
Ġlum en
Ġarbit ration
wor thy
Ġec st
Ġproduct s
Ġnegro es
Ġmac donald
Ġfet ch
Ġdrain age
Ġfreem ason
di agn
Ġnin ete
Ġantise ptic
Ġencoun ter
Ġincon ven
Ġgrav ity
sl avery
Ġase ptic
Ġkal uga
Ġaort a
Ġrhet or
Ġnephe w
Ġdokh turov
d iff
e h
e yed
f old
g ut
h ar
h um
i que
l ishing
n et
t roph
w ait
Ġt ipt
in omy
Ġthe e
on omic
Ġb ust
is ure
Ġc ri
Ġc yl
Ġc ouri
Ġh os
Ġh int
Ġf ist
Ġf aster
Ġp as
Ġp acing
Ġp ounds
Ġd uc
Ġd anced
as im
Ġn et
Ġe ternal
im port
ot hing
se ous
Ġst all
Ġst air
Ġst ocking
ver ty
Ġr ab
ul ence
Ġse es
ain e
Ġv yaz
ich na
Ġsh aw
Ġsh ots
Ġk ings
Ġk ansas
Ġsa le
Ġch im
Ġall ied
ak s
um ent
Ġj ury
Ġro bert
Ġwe ep
ard on
Ġint r
," *
Ġle isure
Ġab d
Ġab rupt
Ġthere of
cc i
Ġco pper
su pp
itt ered
Ġem bedded
Ġbl isters
Ġind ex
ang led
Ġover coat
ha w
Ġgl ances
Ġcomp are
Ġimp air
Ġimp rison
Ġimp aired
Ġdown stairs
Ġthr one
Ġdes ert
Ġsub stances
Ġturn s
Ġdist ress
Ġpol and
Ġconst ruction
Ġinv al
Ġrest ing
Ġpain fully
de f
Ġsent ence
Ġ19 20
Ġquestion ing
Ġlay ing
Ġexpl o
Ġsle nder
Ġpo verty
ec onomic
Ġproject s
Ġbu onaparte
Ġeas ier
Ġmid night
Ġcold ly
Ġking dom
Ġrepresent ation
Ġoccup ations
ipp ers
rom atosis
Ġ16 3
Ġjoy ous
Ġz one
Ġlo ver
Ġrub ber
umb led
Ġsol itary
Ġcop ies
Ġloss es
Ġdistrib ute
Ġclot hing
Ġpray ed
Ġben ch
agin ous
Ġiron y
Ġham psh
Ġmarsh als
Ġexist ing
Ġsus pected
Ġhero ic
Ġdiplom at
Ġsci atic
Ġdeal t
Ġconce aled
Ġcompar ison
Ġinvolunt ary
Ġrat ified
Ġfurn iture
Ġresemb les
cise ly
Ġoedem atous
Ġcorpor ations
Ġrecord ed
Ġlip oma
Ġcorrespond ing
Ġschool s
Ġresol utions
Ġstro ke
Ġinher it
Ġbattal ions
Ġsev ent
Ġrout e
Ġital y
Ġreck oned
Ġanter ior
Ġindiff erence
Ġconve yed
Ġoutl ine
Ġcontrad ict
Ġvex ation
ni quet
Ġsubsequ ently
Ġrevol t
Ġadult s
fr anch
Ġscal p
Ġmedull ary
prin ce
Ġger asim
Ġili ac
Ġenvelop e
Ġaven ue
Ġmedic ine
Ġdismount ed
Ġenerget ic
Ġgoss ip
Ġjur is
Ġexagger ated
Ġhampsh ire
. ).
5 0
5 8
d led
e z
g round
i ative
l ine
l eness
m osp
o qu
p oint
r ous
r ations
Ġ .
Ġt ent
in burgh
Ġthe ater
Ġthe odore
Ġs and
Ġs ant
Ġs allow
re se
re nch
Ġb os
Ġc ens
Ġc atherine
Ġp itt
Ġp ark
Ġm ack
es e
ing es
ing ling
Ġd ak
Ġd ried
Ġd uration
Ġl ux
Ġn i
Ġn aked
ic it
Ġg ren
Ġbe aus
Ġre act
id able
Ġwas te
Ġst agg
Ġst aphyl
gh ter
ir able
ir ish
Ġat mosp
Ġcon genital
Ġse cession
Ġsh ared
em s
est ab
ak ers
um es
Ġal abama
Ġsp in
Ġro ar
op l
Ġfe ather
Ġdo se
our s
Ġag ent
au nt
Ġpart ial
Ġres erv
Ġrem inded
Ġind ia
Ġind uce
Ġind iana
Ġind irect
Ġover growth
are st
Ġform idable
Ġper f
Ġnew com
Ġgl ob
Ġfo x
Ġimp et
Ġexp ort
Ġfl atter
Ġturn er
rib ly
Ġdist in
Ġdist al
Ġinc or
Ġconf erred
hes ia
Ġrel ax
Ġrel ieved
Ġend less
Ġcond ucted
Ġref lect
Ġrec ru
Ġdef in
Ġlar gest
Ġcommand ed
Ġple x
Ġdep ended
Ġdep ression
Ġdr ank
Ġoccur ring
Ġmin im
ple te
Ġins ens
Ġir ish
Ġconstit ute
Ġfin ance
Ġmon op
its yn
Ġansw ers
sh ot
Ġspeak er
Ġprop ose
Ġexpl aining
Ġcal am
Ġdisc on
Ġpo ll
Ġprot ested
Ġdifferent ly
Ġcharacter ised
Ġrepe at
Ġdecl ine
Ġdecl are
clud e
Ġmeas ured
Ġfall s
Ġcomple ted
fort able
Ġattack ing
Ġsuccess fully
Ġslight est
Ġsal ine
Ġmod est
Ġmo zh
ays k
Ġrub bing
Ġhar sh
ament al
Ġorigin ate
Ġfun ny
Ġlig aments
Ġ11 6
Ġdam age
Ġnar rative
Ġdeform ities
Ġinject ions
Ġimpl icated
Ġlie utenant
quest ions
Ġ189 0
Ġwis dom
Ġdispl acement
Ġplat on
Ġhung er
ococc al
Ġabol ished
Ġfair ly
Ġsob bing
Ġconsist ing
Ġ177 6
Ġbezukhov a
Ġrecord s
Ġmess enger
Ġmagn anim
Ġcontract ure
gra ce
Ġpos itions
Ġbog dan
Ġsuffer ings
Ġpred omin
icip al
four th
Ġbelong ing
Ġuncom fortable
Ġensu es
Ġdisco very
Ġsam uel
Ġsav age
Ġcruel ty
Ġinit ial
Ġinvest igation
Ġrob ber
Ġaccum ulation
Ġremed y
Ġslee ve
Ġdepos it
Ġconqu er
Ġtour niquet
Ġil agin
Ġwel com
Ġcler k
Ġsche me
stit ution
Ġsuppur ative
Ġnaev us
Ġgover ness
Ġadvert isement
iro cha
Ġdou glas
Ġconsci ence
Ġinflic ted
Ġproced ure
Ġdiscipl ine
lest on
Ġcad et
Ġmav ra
diagn osis
rese arch
Ġbeaus set
Ġmozh aysk
2 6
4 7
b ook
e gr
l ad
n icholas
p ut
p read
r ors
s es
u ish
u its
v ation
w om
y ear
z y
Ġt ap
Ġt ons
he arted
in ating
Ġw ides
at oma
Ġc ust
Ġc rops
it imate
Ġf ence
Ġm our
Ġm oves
Ġd row
or se
an a
Ġl ined
Ġl az
om ing
ic ted
Ġe gg
Ġg ly
Ġbe e
Ġbe es
id ay
Ġwh ir
se v
ur a
Ġst ared
Ġst ake
Ġr ivers
Ġr oused
Ġr iot
ch agin
ol s
Ġor ient
her s
Ġsu ction
Ġk ras
Ġne ural
em a
Ġch ines
ab or
Ġar gu
Ġro ot
Ġun w
iv ity
Ġam using
ther ia
ĠĠĠĠĠĠĠĠ ĠĠĠ
Ġkn ocked
Ġco ol
ast s
ast y
Ġen able
Ġag gress
su ff
od ka
Ġtr ick
ub ation
Ġbl ister
Ġinf ants
Ġfo g
Ġimp ressed
Ġimp ending
Ġpre m
Ġexp and
Ġmar ched
Ġsl ip
Ġsur ve
Ġ2 1
Ġent reat
Ġthin ks
Ġinter pre
Ġrel ative
Ġass urance
Ġchar leston
Ġconst r
Ġpat ience
Ġte acher
Ġinst ances
Ġdr um
Ġel apsed
Ġins ur
Ġcontinu es
Ġir re
Ġchild like
Ġfact ory
Ġfact ors
Ġche ap
Ġbo il
Ġdi ph
oun cing
Ġbeh alf
Ġdec isive
Ġtro ph
Ġcountry men
Ġdet ected
Ġart isans
Ġest im
Ġcir cular
Ġless er
Ġcur ly
Ġtrans l
br aska
Ġdisc rim
Ġsmil ingly
Ġloc ated
Ġsym pat
Ġterm inal
Ġport o
Ġopen ly
Ġlin ing
Ġtre ason
Ġemploy ment
Ġdro op
Ġhop ing
Ġreal m
Ġhur rying
Ġhur rah
Ġprep uce
Ġbar rier
Ġprof it
Ġprof use
resh chagin
Ġindepend ently
Ġstrange ly
Ġoccup y
Ġregard ing
Ġaccord ingly
Ġrail road
Ġenglish man
Ġstreng the
Ġelse where
Ġmed ian
Ġant icip
Ġrad iant
Ġweak er
Ġap olog
Ġmembr anes
Ġoccasion al
Ġaim s
Ġlig ament
Ġris es
Ġremark ably
Ġfibr oma
Ġtrad ing
Ġcitiz en
Ġimpro ved
Ġsettle ments
Ġextra vas
Ġstret cher
Ġfle e
Ġmajest ic
Ġhat red
Ġpor ter
Ġapplic able
Ġretreat ing
Ġelb ows
cons in
Ġchrist mas
Ġcorrespond ence
Ġqual ities
Ġsuggest ion
Ġdil ated
Ġvigor ously
min ichna
Ġundert aking
Ġdelay ed
Ġsurre ndered
Ġgreet ing
Ġcomr ade
Ġcreat ing
Ġpan ama
Ġhyd rops
Ġfold ed
Ġpropriet ary
Ġric o
Ġalb um
Ġmun icipal
Ġeighte en
Ġinfect ions
Ġprosper ity
Ġdiscl aim
Ġgrate ful
Ġhunts man
Ġrhe umatism
Ġinfilt ration
Ġattrib uted
Ġvivid ly
Ġdish on
Ġcoff ee
Ġbew ild
Ġkuz minichna
Ġweap on
Ġintest ine
Ġepiphys ial
Ġafric a
Ġvel ve
Ġbry an
Ġsemen ov
Ġmyel oma
Ġclin ically
Ġhoo fs
Ġpya emia
Ġannex ation
Ġkit c
Ġtipt oe
Ġcouri er
Ġhos mer
Ġsevent e
Ġwides pread
Ġchines e
b ar
d a
i est
i ological
i ology
k hov
n ar
v ich
v orov
w ar
z ogen
z uel
Ġt ips
Ġw ire
Ġw retched
Ġb ier
ed ed
Ġh ate
Ġh ud
Ġh iding
Ġf ile
Ġf ug
Ġf itted
Ġf rown
Ġp ole
es pecially
Ġin oc
Ġin ex
Ġd ashed
Ġto l
Ġto ss
or ad
Ġl ent
Ġl arynx
om ed
Ġe ating
Ġg as
ro g
Ġwas hed
Ġst ain
Ġst ub
ir ts
Ġan te
Ġr ice
Ġr ye
Ġr yaz
Ġat roph
Ġcon g
ol i
ol en
Ġor ange
Ġse x
Ġse baceous
us se
Ġv ene
Ġv odka
th ose
Ġall eg
ig an
Ġsp ort
Ġro yl
Ġun ch
ress ible
Ġwhen ce
Ġen um
Ġpl ate
pl ace
Ġinto xic
Ġoff ering
Ġtr aces
Ġrep ar
Ġbl unt
Ġnow here
Ġcomp act
Ġimp uls
iz es
Ġfl ames
Ġpres cribed
Ġlong ed
Ġsc ap
Ġ2 10
Ġacc ent
Ġcar otid
Ġop ens
Ġop ium
Ġact inomy
Ġsub tle
ne ys
Ġwhere ver
Ġass ure
Ġfollow ers
Ġcor rupt
Ġcor pus
Ġref lection
Ġrec ourse
Ġte le
Ġes c
Ġ5 5
Ġear nest
li est
Ġgu ide
iet h
Ġmor ose
Ġlim e
Ġcr ush
Ġbo hem
Ġprod uces
Ġquestion ed
Ġmer it
Ġstand ards
Ġfind s
Ġed inburgh
Ġdisc ol
Ġneed les
Ġaw ake
Ġappear ing
Ġrepe al
crib e
Ġanat omical
Ġprof ess
Ġrepresent ing
Ġrepeated ly
Ġsac red
Ġstud ies
Ġ9 9
Ġexam ples
Ġty ph
Ġrad ial
Ġinflu ences
Ġdim ly
Ġstra w
Ġhar v
Ġhar rison
Ġremember ing
Ġfavor able
Ġorigin ates
Ġdiss ent
Ġmut tering
Ġintrod uce
Ġgold en
Ġecon omy
Ġrestr ictions
Ġgrad ual
Ġbir ch
Ġapplic ations
Ġhero es
Ġsort s
Ġassemb lies
asp ed
Ġ189 6
Ġhost ility
Ġparal ys
Ġaffection ate
Ġcord s
Ġreform ers
Ġwol zogen
ĠĠĠĠĠĠĠĠĠĠĠĠĠĠĠĠĠĠĠĠĠĠĠĠ ĠĠ
Ġflex or
Ġdism ay
Ġpursu it
Ġpassion ately
Ġsolemn ly
Ġfool ish
Ġmot or
Ġslough s
Ġrout ine
Ġaud ible
Ġque en
Ġwhit low
Ġheight s
Ġthromb us
Ġencour aged
Ġframe work
Ġattract ive
Ġoppon ent
Ġembol ism
Ġprompt ly
Ġanaest hetic
Ġspasm s
Ġreluct antly
Ġcompet ition
Ġbutt ock
Ġtransform ed
Ġeru pt
Ġtast e
Ġbund les
Ġrick ets
Ġoccl ud
Ġrecoll ection
Ġcelebr ated
Ġalle ged
Ġlung s
Ġdeliber ately
Ġatl antic
Ġknight s
Ġpreoccup ied
Ġhither to
Ġcircums cribed
Ġgig antic
Ġski agr
Ġcri pp
Ġatmosp here
stitution al
Ġvene zuel
) ;
c ase
c ks
d el
e ed
e xt
f ir
g ot
i ations
m o
m ut
m ont
n ational
o z
s is
t a
t is
t ime
u ke
y gen
Ġ -
Ġt ies
Ġt enth
in ine
Ġs ul
Ġs arc
Ġw ard
Ġw itt
on se
Ġc ough
Ġc ath
Ġc rop
Ġh ug
Ġf ut
Ġm use
ing er
Ġd aring
an x
Ġth resh
Ġl one
Ġl ately
Ġhe nd
ic ks
Ġg al
Ġg ree
ve led
ow a
Ġst ump
Ġr as
ere ur
Ġcon ject
Ġcon gest
am ph
Ġse ason
Ġv or
ich ord
Ġsh ops
ac le
em en
ov ar
Ġall ies
Ġsp urs
Ġsp irocha
Ġro lling
art ered
ound ing
Ġdis li
Ġman hood
Ġad en
un ities
Ġen s
ind ers
Ġcl aimed
Ġtr ained
Ġpart ed
Ġcomm ons
Ġbl iss
Ġhand le
Ġper ce
Ġgl ow
Ġsc ream
Ġdown wards
iss a
Ġgreat ness
Ġdes ires
Ġpass es
Ġord in
Ġaff irm
Ġspe cul
ne ver
ĠĠĠĠĠĠĠĠĠĠĠĠĠĠĠĠ ĠĠĠĠ
Ġcap illary
Ġfound ations
Ġadd ing
Ġdef ended
Ġdep ths
Ġdr inking
Ġdr issa
Ġel oqu
Ġget s
Ġca us
Ġins erted
Ġter ribly
ins on
Ġtreat ing
Ġlim its
ren ched
sh ort
Ġadm itting
Ġche cked
Ġcr ushing
son ya
pr ay
Ġprov idence
Ġx iii
Ġsent in
Ġ19 9
Ġdest iny
Ġra ev
Ġtrans pl
Ġprom oted
Ġlay ers
Ġnight s
Ġmer rily
Ġpo ly
az ed
Ġtra ffic
Ġmad am
Ġnational ism
Ġlin en
Ġtem ple
.#-- _
Ġbrother hood
Ġpost s
Ġvot ed
Ġ16 0
Ġ16 7
Ġsqu ee
Ġer osion
Ġacqu ainted
Ġrespect s
Ġrespect ful
Ġexam ine
Ġmed ical
Ġcompl ain
Ġresp ected
Ġresp iration
Ġsatis f
Ġwood s
Ġjohn son
Ġfun ctions
Ġpal p
Ġinterv ention
Ġgener ations
Ġaccompan y
Ġ191 7
Ġcircul ating
Ġavoid ing
pro ject
sy nov
Ġwis consin
Ġmich aud
Ġperm itted
Ġ32 5
Ġjackson ian
Ġgri e
Ġdelight ful
Ġdrag ging
Ġcomfort able
Ġcredit ors
Ġhabit ual
Ġivan ovna
Ġrum ors
Ġpot ato
Ġagricult ural
Ġattend ance
Ġinstit ution
Ġensu e
Ġhyd ro
Ġaud ience
Ġmusk ets
Ġtreas ure
Ġshri e
Ġtight ly
Ġpatriot ic
wor th
Ġvolunt eers
Ġtear ing
Ġwitness ed
Ġembarrass ed
Ġnurs ery
Ġanaest hesia
Ġvers es
Ġappreci ated
Ġtranqu ill
Ġeighte enth
Ġclav ichord
bre ak
Ġmic ro
Ġverte bra
Ġadopt ion
Ġwaist coat
Ġrect um
Ġexud ate
Ġsail ors
othe li
Ġemanci pation
Ġirresist ible
Ġol mut
Ġhoriz on
Ġguar ant
Ġirrig ation
Ġlabore rs
Ġninete enth
Ġshaw l
Ġwelcom ed
Ġkras noe
Ġdiph theria
Ġryaz an
Ġscap ula
Ġolmut z
. ),
3 8
b ish
d es
g ue
i ac
l ong
o ff
p ow
s er
t ic
t im
t ake
w ed
Ġt aught
Ġo int
Ġs ire
re z
re oid
Ġb at
Ġb row
Ġb az
Ġc ro
Ġh it
Ġh ated
Ġf ert
Ġf oul
Ġp ose
Ġp ite
Ġp uzz
Ġp amph
Ġd anc
or ter
an th
as ions
Ġl oves
Ġn iece
Ġhe ed
Ġhe el
om atous
ic ating
Ġbe ating
Ġbe ars
ad v
Ġre ins
ro path
st on
id ency
ur ia
ur ious
Ġst uff
Ġr iv
Ġr age
Ġr ug
Ġr ude
Ġcon j
am in
il a
all el
Ġse ats
Ġde em
Ġsu st
Ġsu vorov
Ġv om
Ġv ested
ri khov
Ġsh ud
Ġsh ipping
Ġex al
Ġne at
ag ocyt
if ted
Ġsa p
Ġch oo
ab out
Ġshe l
ist ry
Ġj ol
Ġme ek
Ġup wards
Ġint ens
Ġab be
Ġfe ars
Ġun he
Ġdis ple
Ġdis grace
Ġman ners
Ġam iable
oc ation
Ġen cl
Ġpl enty
Ġwor m
Ġtr ains
Ġres umed
Ġem erg
Ġrep uls
Ġbl uish
Ġind olent
ang es
Ġtw isted
Ġper ish
Ġper ished
Ġgr ants
Ġfo e
Ġfo res
Ġimp ulse
Ġpre gn
Ġexp enses
uc ked
Ġgen u
ach ments
orm ally
Ġsl ope
ord ered
Ġcar pet
Ġthought ful
Ġent ry
Ġsk illed
Ġjust ify
Ġinter c
Ġinter m
Ġinter state
Ġinc ised
Ġrel ate
Ġhapp ily
Ġconst ructed
Ġdef ending
Ġeff ected
Ġvo id
Ġele ven
Ġfore seen
Ġdr am
Ġdr astic
Ġmin es
Ġph ase
Ġgu essed
Ġins id
Ġmem orable
Ġwr ath
Ġfin ishing
Ġsin king
Ġred uction
sh ould
sh ine
Ġcr imes
Ġdec ree
Ġtro y
Ġrepl acement
Ġless ons
Ġcent ers
Ġsec urity
Ġlight s
Ġhum ili
Ġbur ke
Ġcal cul
Ġed ition
Ġed itor
Ġstep father
ven ous
Ġland own
Ġcoll ateral
Ġbre ach
Ġprot ected
Ġdel ivered
Ġten ure
Ġproject ing
Ġdisp atch
Ġinvol ves
Ġview ed
Ġcell ar
Ġpost ed
Ġstreng then
aff in
Ġobserv ing
Ġcampaign s
Ġproper ly
Ġscar let
Ġforeign ers
Ġhonor able
Ġ7 0
Ġ10 3
Ġmod ified
Ġswell ings
Ġjud ging
Ġsympt om
Ġresp onse
Ġeight y
Ġmil orad
Ġ186 1
Ġsun shine
Ġdiss olution
Ġpun ished
Ġpun ishment
Ġcommun ity
Ġband aged
Ġcartil aginous
Ġsher man
Ġwarm ly
Ġinquir ing
Ġinquir ies
Ġfrank ly
Ġphys ically
Ġdispl aced
Ġrecall ing
Ġmich igan
Ġspo ils
Ġscr ut
Ġscr aped
Ġkar ag
Ġthor acic
Ġenjoy ment
Ġharm ful
Ġdism iss
Ġyield ing
Ġspl ints
Ġqual ifications
Ġfortun ate
Ġmechan ics
Ġaspect s
Ġfas c
Ġsam ovar
Ġmonarch y
Ġtempor arily
Ġlog ical
Ġfulf illed
Ġflour ishing
Ġstim ul
Ġpatriot ism
Ġconve y
Ġafford ed
Ġvex ed
Ġdemonst rated
Ġrequire ments
Ġnewspap er
Ġenforce ment
Ġcontem pl
Ġblock ade
Ġox ygen
Ġincl ined
Ġmanufacture rs
Ġpron ounced
Ġwrink led
Ġtranqu il
Ġchond roma
Ġcooper ation
+-------- ------
Ġmusket ry
Ġnomin ated
Ġannounce ment
Ġcommiss ions
Ġkid ney
Ġsuspic ion
Ġveh icles
Ġtransm itted
Ġbure au
Ġspong y
Ġdocum ent
Ġphal anx
Ġisol ated
Ġraptur ous
Ġexclus ively
Ġbree ches
Ġgout y
Ġoverth row
Ġmaxim um
Ġmaneu vers
emp ereur
Ġjap an
Ġtrous ers
Ġfatt y
sac rifice
Ġnas al
leb itis
Ġequip ment
Ġinconven ience
Ġ. |
Ġbos om
Ġni emen
Ġdefin ition
Ġroyl ott
fir st
Ġhend rikhov
Ġcongest ion
Ġraev ski
Ġhendrikhov na
# ,
_ ).
b u
b es
d oc
e er
g ang
g utenberg
j e
k ansas
m ot
m ich
p ed
s atis
v y
w ould
y r
y right
Ġt ale
Ġt iny
re qu
Ġw ond
Ġw oke
at ching
Ġb ud
Ġb ism
Ġc ort
Ġh ive
it ud
Ġf om
Ġf ish
Ġp ul
Ġp ush
Ġp ardon
Ġm ent
Ġm os
Ġm ole
Ġin suff
Ġd ow
Ġd us
Ġd ens
Ġto w
ar ian
Ġl ob
Ġl ively
le ctions
Ġg ains
Ġbe f
al k
ad i
st ead
id ation
ot ers
Ġu re
Ġwas ted
ur red
Ġst on
Ġst uck
Ġfor c
et ies
Ġr ushing
Ġor bit
Ġsh rew
Ġsh aring
Ġk er
os l
th al
ag a
Ġch ase
um ption
ab led
Ġpro ves
." *
Ġj ug
Ġj ones
Ġint act
Ġint entions
Ġab uses
Ġdis g
Ġdis ability
Ġdis inf
Ġman ager
ra x
Ġout post
Ġpl ed
Ġpl un
Ġag ed
ib ank
!" *
Ġcl ock
Ġapp ar
Ġapp end
Ġcont ained
Ġcont racted
Ġany body
Ġcount ed
Ġsome body
Ġbl ocking
Ġbr ad
Ġbr ushed
Ġtw ent
Ġfo ll
Ġexp end
Ġfl owing
Ġpres idency
Ġsc rot
Ġsl ipping
wh ite
Ġsy n
Ġsub d
Ġ4 16
Ġgovern ed
Ġdist orted
Ġsupp osing
Ġrel iable
Ġrel ieve
Ġrel apse
Ġcour ty
Ġread iness
ont ov
Ġdef ective
Ġinv ari
Ġeff ic
Ġel im
Ġtell s
Ġca res
Ġgu er
Ġins ist
Ġcontinu ing
Ġcontinu ity
Ġtreat ies
Ġpar ade
Ġred uce
ism s
Ġve reshchagin
Ġopp osing
Ġ19 12
Ġappro ve
tern ally
Ġul nar
Ġbur d
Ġbur ied
Ġdisc om
Ġbri g
Ġland lord
Ġcompan ions
Ġexc ised
Ġdiv isions
Ġtra il
Ġtra itor
Ġwind ibank
Ġcharacter ist
Ġbal aga
Ġ6 6
Ġla un
com ing
Ġsum s
Ġelect oral
Ġfirm ness
Ġje w
Ġann ual
Ġsac rific
Ġconvers ations
Ġestab lishing
Ġsal es
Ġcourt iers
Ġ7 9
Ġinqu ire
Ġcompl aint
Ġfail s
Ġinflu enced
Ġjo king
Ġinterf ered
Ġwrit es
Ġsleep y
Ġmur d
Ġmut ual
Ġgener ous
Ġhot el
Ġdeterm ination
bl ue
Ġ191 4
Ġfle ches
Ġanx iously
Ġneighb oring
Ġbac hel
Ġhost ess
Ġ180 9
Ġbra chial
Ġsubm ission
Ġcat gut
hy d
Ġchrist ian
Ġeduc ated
Ġyouth ful
Ġperman ently
Ġinstru ct
Ġaccident ally
Ġmort al
Ġpure ly
Ġtur key
Ġthy reoid
Ġutter ly
Ġsev enty
Ġpan ic
Ġaccompl ish
Ġrul er
Ġabdom en
Ġtransport ation
Ġresolute ly
Ġcommitt ees
Ġencour age
Ġhes itation
Ġcontrad iction
Ġelev ated
Ġepiph ysis
oph il
Ġpunct ured
Ġforbid den
Ġforbid ding
Ġtrave ling
Ġvain ly
Ġet c
Ġmir ror
Ġdors um
Ġimpress ions
Ġgather ing
six th
Ġbay on
Ġfrag ments
Ġclav icle
sm all
Ġsincere ly
Ġintellig ent
Ġbru ised
Ġderm oids
Ġcongrat ulate
Ġrefr ain
Ġsuperv ision
Ġrespond ed
Ġincess antly
clav ian
Ġpilgr ims
cop yright
mus cular
ref erences
Ġgrat itude
Ġpurit ans
Ġpuck ered
Ġdisag ree
Ġexpans ion
fed eral
Ġnik ol
Ġpavlogr ad
Ġunre ason
Ġfreemason ry
Ġvyaz ma
Ġplex us
Ġminim um
Ġsympat hetic
Ġthresh old
Ġdisli ked
Ġvertebra e
Ġguarant ee
Ġchoo sing
Ġmilorad ovich
Ġment ally
Ġinvari ably
. *
3 7
4 1
6 1
8 5
b an
b et
c ope
d les
g one
i ress
j amin
k ers
m al
n ia
o i
o ir
p o
p ent
p ier
u ating
v ol
w are
w hel
Ġt un
Ġt read
Ġt ables
Ġthe at
Ġthe ories
Ġo m
Ġo we
Ġs ed
re y
re ally
Ġw aking
Ġb ass
Ġb uck
is ible
Ġc am
it ate
Ġf is
Ġf ury
Ġf ung
Ġp ag
Ġm ou
Ġm ix
Ġd ict
Ġd ined
ar ter
ar osl
Ġl as
Ġl otion
Ġn ov
Ġg ut
Ġg osp
Ġbe have
Ġbe aming
ro lled
ot on
Ġwas h
Ġas ks
Ġst ained
Ġst olen
Ġr att
Ġr amb
Ġat e
ere r
Ġcon verted
Ġfr iction
am ous
ul ates
us ive
Ġde liver
oo re
em an
if le
Ġpr a
ap ontov
Ġall owing
Ġpro sec
ight ed
Ġal m
Ġwe eping
Ġle nd
Ġun ity
Ġun su
Ġdis sem
Ġdis organ
ra ce
Ġpl aster
ell ing
ell ow
Ġcl ue
ass es
Ġunder lying
ub le
Ġrem ote
Ġbr on
Ġbr ide
Ġind ies
ang le
Ġover whel
Ġafter ward
Ġgr ab
Ġcomp ut
Ġcomp ly
Ġpre lim
Ġcons pir
Ġfl ower
Ġthan ked
Ġgen ital
Ġsc ent
Ġsc iss
Ġsc ared
Ġmar ks
Ġreg ulations
Ġent it
Ġsub ord
Ġprincess es
Ġjust ified
Ġrel ating
Ġend otheli
Ġref ere
Ġinv ading
Ġinv isible
Ġpat ron
cept ions
Ġadv ise
Ġele phantiasis
Ġple a
Ġhor n
Ġbel oved
Ġca ution
Ġsuff ers
ins ki
Ġpar affin
Ġred d
Ġred ness
Ġconv uls
Ġbo ast
Ġdi ab
Ġdi aph
Ġdec re
Ġfront iers
atic ally
Ġrepl ace
Ġlab ors
Ġhard er
Ġ19 18
Ġsw all
Ġprom otion
Ġprom ote
Ġhal t
yl er
Ġpo etic
Ġland ing
Ġfed or
Ġaw oke
Ġill um
Ġill eg
Ġdev ice
Ġhalf way
Ġobs er
Ġhon our
Ġhon ored
Ġquick er
Ġsen ior
Ġgent ry
Ġbar g
ob s
Ġval ves
Ġcivil ian
Ġsum m
Ġsuccess ion
Ġregard less
Ġpen n
Ġacqu ire
Ġvict im
Ġvict ories
Ġ9 5
Ġlower ing
Ġstri kes
Ġneg lected
Ġbene ficial
Ġsad ly
Ġjo ining
Ġdoubt ful
Ġsole ly
Ġinterf ering
Ġsol ved
Ġobject ions
Ġexec ute
Ġaim ed
Ġswe at
Ġsch on
Ġcoun sel
Ġdistrib uting
Ġdepend ence
Ġtrad itions
Ġsimilar ly
Ġirrit ated
Ġaustri ans
Ġsure ly
ingu inal
Ġtariff s
bl er
Ġstrugg ling
Ġmount ain
Ġamend ments
Ġhyper troph
Ġsubm ar
Ġdimin ish
athe m
Ġbuild ings
Ġconsist ence
Ġtransf er
Ġcrit ical
Ġxv iii
Ġfaith ful
Ġshad ows
Ġqual ity
Ġ39 5
Ġpock ets
Ġaust ral
Ġdil at
Ġ48 1
Ġwhisper ing
Ġmud dy
Ġrul ers
Ġdepri ve
Ġid le
Ġfer apontov
Ġinit iative
thir d
Ġreck on
Ġtravel er
Ġod our
Ġpreced ed
Ġabolition ists
Ġinstrum ents
Ġrib bon
Ġalter ation
Ġaston ished
Ġembarrass ment
Ġcustom ary
Ġslee pless
hand ed
Ġneur oma
Ġneur itis
Ġinsp ired
Ġsem i
Ġridic ule
Ġdefect s
Ġeru ption
Ġillust rated
Ġlac erated
Ġscand al
Ġlymphang itis
conf ident
Ġsund ay
fo ot
Ġbrisk ly
Ġhaw a
Ġcommence ment
Ġacknow led
Ġaggrav ated
Ġintrigu es
Ġcompens ation
Ġimpair ment
Ġdistin ction
Ġkitc hen
Ġrepar ative
Ġtyph oid
Ġparalys ed
Ġtranquill ity
Ġdisple ased
Ġgenu ine
Ġfom ent
Ġinsuff icient
Ġston er
Ġshrew d
Ġtwent ieth
Ġscrot um
Ġcourty ard
pier re
Ġsciss ors
' ,
, *
b ons
b led
c osis
g y
h ill
i en
j ac
m ult
n itsyn
o ining
p ress
r idge
t ra
t ish
Ġ inguinal
Ġt ick
he nd
in j
in as
in ov
Ġo o
Ġo un
Ġs clerosis
Ġw icked
on a
on ic
at itis
Ġb ol
Ġb ast
Ġb isc
Ġb iceps
Ġc ance
Ġh ather
Ġh ole
it ic
en burg
Ġf an
Ġp ages
Ġm ov
Ġm ant
Ġm ond
Ġm athem
Ġd ies
Ġd act
Ġd well
Ġto m
Ġto re
an otic
Ġth ri
Ġl uc
Ġl ament
Ġl oses
Ġhe ir
Ġhe iress
om ot
Ġe ch
Ġg a
ent ially
ad ays
ro l
ro id
st e
Ġwh ig
ot omy
ce eding
Ġ" '
ct s
ur ysm
Ġas yl
Ġst aring
Ġst yle
Ġi owa
et es
Ġan is
Ġse ed
Ġse gment
Ġv ind
Ġsh ar
Ġk iev
Ġex it
Ġex ertion
Ġex ternally
Ġne ville
ag on
Ġpr aise
Ġch ances
ant ation
ak ov
ab es
ab ilities
Ġpro gnosis
Ġar kansas
Ġj ay
Ġup ward
one zh
Ġfe aring
Ġdis fig
Ġkn ock
ast oid
Ġag encies
ib be
Ġev ils
Ġqu it
Ġqu ivering
el f
el t
Ġcl ung
Ġtr uly
Ġres ent
ear ly
Ġbr ick
are r
ha em
ft ing
Ġinf erior
Ġfo lly
Ġcomp ound
Ġimp ass
Ġbeg ging
Ġwar ned
erv ation
Ġsc en
Ġsc an
Ġdown ward
Ġstr aining
we alth
Ġreg ist
Ġcar ibbe
Ġbet rot
att ing
Ġsub clavian
ĠĠĠĠĠĠĠĠĠĠĠĠĠĠĠĠ ĠĠĠĠĠĠ
Ġinc isions
Ġret reated
Ġass igned
Ġchar ges
Ġref using
Ġref erring
Ġinv ent
Ġinv ade
Ġinv ested
Ġinv itation
Ġinv aded
Ġinv iting
Ġpat hetic
Ġte aching
Ġtal ent
Ġfather s
Ġpur ity
Ġmin eral
Ġca ust
Ġph agocyt
Ġins ane
ane us
ane urysm
ton ed
Ġpar allel
Ġlim itation
Ġve ter
Ġdi verse
Ġsecond ly
Ġopp ressed
Ġrepl ies
Ġsw ed
Ġtrans verse
Ġprom in
Ġhum or
Ġ17 4
Ġcal culated
yl itis
Ġadj ust
Ġsmil es
Ġsym b
Ġexc ise
Ġexc iting
Ġaw ait
Ġvir ulence
Ġcrowd ing
edi ence
Ġbal tim
peri oste
Ġheav ier
Ġconsider ably
Ġdisp atched
Ġdisp ersed
Ġarter io
Ġhelp ing
Ġtem ples
Ġtre nch
Ġhon ors
Ġcare less
Ġplan ter
Ġdro pping
Ġinvol ving
Ġge ese
Ġauth ors
Ġfarm ing
Ġut most
Ġut ah
Ġut tering
Ġforward s
.' "
Ġstart led
Ġpen al
rom as
Ġer ror
Ġdisapp ears
Ġfif teenth
Ġindic ates
Ġ9 0
Ġ9 3
Ġsurpr ising
Ġmod e
Ġpolic eman
Ġcompl ains
Ġboy s
Ġdead ly
Ġsoci eties
Ġ8 0
Ġsol ve
Ġsol itude
Ġ15 4
Ġterrit orial
Ġobject s
Ġarri ving
Ġattempt ing
Ġexpect ation
Ġadminist ered
reg ard
Ġ11 4
Ġarrang ing
Ġfem ale
Ġenc aps
Ġpret ended
Ġtrad ers
Ġtrad ition
Ġben jamin
Ġaccompan ying
Ġmis ery
Ġplant ation
tr ust
tr unk
Ġmeaning less
Ġsection al
Ġdischar ged
Ġgrant ing
Ġ189 8
Ġvan ity
Ġ180 7
Ġrupt ured
Ġarch d
Ġspo iled
Ġperm e
Ġjour nal
Ġflex ion
Ġsovereign s
Ġxv ii
Ġstir ring
Ġcat ching
Ġconsequ ences
Ġdomin ions
Ġopport unities
Ġspl int
Ġadvantage ous
Ġdav is
Ġdign ified
Ġfund amental
agg y
Ġsev enth
Ġhospital s
Ġobtain ing
Ġfast ened
Ġexha ust
Ġpropriet or
Ġproceed ings
Ġarbit rary
Ġpreced ing
Ġregret ted
Ġcoron er
Ġroof s
Ġborz oi
Ġdraft ed
Ġembol us
Ġjaw s
Ġremed ies
Ġdissatis faction
Ġmason ic
Ġinsp ection
Ġcampf ire
Ġjealous y
Ġconsol ation
Ġpub lished
Ġsecre cy
Ġwithdraw al
Ġprohib ition
Ġpoison ing
Ġbath s
Ġuneas ily
Ġmoon light
Ġpenet rating
Ġverte bral
Ġbind ing
Ġsurv ive
lov ski
Ġdre amed
Ġelectric ity
Ġta vern
Ġmurm ured
Ġlun ch
aden oma
Ġflor ida
Ġsupple mented
Ġnut r
Ġstrateg ic
bro ken
Ġexhib it
Ġbrand y
Ġincom plete
Ġannoy ance
Ġanth rax
Ġench anting
Ġimperfect ly
Ġphilosop hy
onov nitsyn
Ġey el
Ġcontempor aries
Ġspont aneous
Ġmead ow
Ġemer ged
Ġglim pse
Ġdrubets koy
fif th
Ġaver age
Ġcabin et
import ant
Ġstall s
ument ary
Ġinval id
def ined
Ġincor por
Ġneural gia
Ġstrengthe ned
Ġvelve t
Ġinoc ulation
Ġatroph y
Ġesc ort
Ġmuse um
Ġvor onezh
Ġoint ment
Ġvom iting
doc umentary
Ġbism uth
Ġguer rill
Ġbachel or
Ġramb alle
Ġrefere nd
Ġhather ley
Ġdact ylitis
Ġcaribbe an
Ġbetrot hed
2 2
6 3
6 9
8 9
a way
a ult
b id
c alle
d ie
d iction
g on
i ency
m ing
m un
m ler
r il
x ia
Ġt int
Ġt ens
Ġa ided
Ġa ides
Ġo k
Ġs ly
Ġs id
Ġs edition
Ġw age
Ġw aving
er ity
at zen
Ġb oss
Ġb orders
is ite
Ġc au
ed ient
it er
Ġf aced
Ġf oci
Ġp ave
Ġin k
Ġd iet
Ġd ug
Ġto xic
as y
Ġhe ap
Ġe lic
Ġe rect
Ġbe rez
ad o
Ġre ver
Ġre wards
ro v
ro it
ly sis
id ated
ur rent
Ġst ands
Ġst ocks
Ġr h
Ġr am
Ġr ud
Ġr hy
Ġr attle
Ġr ival
ch ond
Ġnot ed
ol it
Ġor lov
Ġv angu
Ġk oz
Ġk onovnitsyn
ac arp
Ġso othing
Ġso da
ill aries
th ier
if ting
Ġpr atzen
Ġpro te
Ġar d
Ġar ts
Ġare n
Ġro ck
Ġro dent
Ġ1 000
Ġun p
Ġdis per
Ġdis gu
Ġdis regard
Ġman ual
Ġam i
Ġad oles
un ion
Ġkn ot
pt ics
Ġout bur
ind eed
Ġev olution
ell y
Ġmore l
Ġoff ense
Ġtr uce
Ġtr acks
Ġcount y
Ġrep rod
ub e
Ġcomm it
Ġbl essed
Ġnat al
Ġper itone
Ġinf requ
ud al
Ġimp osing
ign ation
ph al
Ġfl attered
Ġfl ashed
co ats
Ġwar ri
Ġsc ore
erm ann
Ġcol ored
Ġpass ages
Ġmet acarp
Ġown ed
Ġsk irt
Ġinc red
Ġinc ubation
Ġconf l
Ġsupp ressed
Ġrel aps
Ġend ing
Ġback wards
den isov
Ġpet ty
Ġser f
Ġlaw ful
Ġtal es
Ġele g
Ġear liest
ps y
ps is
Ġmin ing
Ġmin ers
Ġgu est
Ġgu ided
iet ies
Ġcolon ization
Ġwr ung
Ġrev ision
Ġve to
Ġcase ation
Ġbeh aved
Ġdec isions
atic s
Ġx ix
Ġsw inging
Ġthir st
Ġpolit eness
Ġcur ved
Ġmer ged
Ġ17 5
Ġcal f
Ġed itions
Ġadj oining
ax is
Ġsouth west
ret ion
amm ed
Ġep och
Ġdecl ined
Ġrecogn ise
Ġhistor ies
Ġbar n
com p
Ġplay s
gr and
Ġsuccess or
Ġsuccess ive
Ġsal ic
Ġstud ied
Ġrespect ive
ink led
Ġsuper int
Ġemb race
Ġ7 3
Ġneg lect
Ġneg lig
Ġdesp ised
Ġcompl ained
Ġcompl iance
Ġho ll
Ġtender ly
Ġlow est
Ġdim mler
Ġtor ment
Ġsoul s
Ġcre ate
Ġmal es
Ġ186 2
Ġescap ing
ĠĠĠĠĠĠĠĠĠĠĠĠĠĠĠĠĠĠĠĠĠĠĠĠĠĠĠĠĠĠĠĠ Ġ
Ġfem inine
Ġdiss olved
Ġbreak s
Ġess entially
Ġsignific antly
Ġ12 9
Ġbroad she
che ster
tr unks
Ġ191 3
Ġmeant ime
Ġsus pect
Ġstern um
Ġvic ious
Ġcarol inas
Ġsynov itis
Ġtroub led
Ġfro zen
Ġmanifest o
Ġenjoy ing
Ġsubm iss
Ġspec im
Ġbatter ies
Ġ46 5
Ġdan ube
Ġones elf
loc al
Ġyield s
Ġxx v
Ġamp ut
Ġempt ied
Ġpit ch
Ġlat est
gra fting
Ġvent ure
Ġjun ctions
Ġtox aemia
Ġcontempt uously
Ġaccident al
Ġadvent ures
Ġmot ive
Ġdoll ar
Ġprocl aimed
Ġundergo es
Ġforb ade
Ġensu ed
loo ked
Ġspr ings
Ġprofound ly
Ġgrasp ed
Ġadvoc ated
bac ill
Ġanci ents
Ġquarter master
Ġrecur rence
Ġcarb on
Ġenthusi astic
Ġwid er
Ġtoll y
Ġcra w
Ġpig mented
Ġcondem n
Ġsigh ing
Ġproceed ed
Ġhes itated
Ġintim acy
Ġcollect ing
Ġvolunt ary
Ġalter ations
Ġdisplay ed
Ġtrib ute
Ġuncertain ty
Ġattent ive
Ġtut or
Ġdors al
Ġwrink les
Ġing en
Ġprohib ited
Ġoblit erated
Ġfrag ment
Ġridic ulous
arth ritis
Ġtwit ching
Ġaccur ately
Ġwip ed
Ġwip ing
Ġneighbour hood
Ġexerc ised
Ġdiam ond
pit i
Ġstoop ed
Ġrust le
Ġnois eless
Ġpup il
Ġbrid ges
Ġdivers ity
Ġfluct uation
second ary
Ġbless ing
Ġradi ogram
Ġceremon y
Ġlan tern
Ġignor ance
esc ence
Ġsequ el
Ġos seous
Ġperpet ual
Ġinterp ret
Ġcyl inders
Ġfist ula
Ġstocking s
Ġabrupt ly
Ġjuris diction
Ġdak ota
Ġnewcom er
Ġcalam ity
wom an
Ġdrum mer
Ġtroph ic
Ġdroop ing
Ġalleg iance
Ġsul ph
Ġfert ile
Ġprelim inary
Ġgenital s
Ġdilat ation
mult iple
press ure
Ġmov able
Ġmond ay
Ġbaltim ore
Ġreferend um
calle nder
Ġpave ment
Ġberez ina
Ġvangu ard
Ġkoz lovski
Ġdisper se
Ġoutbur st
- +
a is
b at
c r
c ot
c art
c ong
d in
d own
i ating
j ud
m aking
n or
p ic
v o
w rit
w aiting
Ġt ested
Ġt ils
Ġt attered
Ġt apping
Ġt ingling
he red
Ġa ri
in ce
in als
Ġs isters
re hend
Ġw y
Ġw ives
Ġw aves
on ial
is ition
Ġh oney
Ġf ame
Ġp ok
Ġm ol
Ġm and
Ġm alle
ing e
Ġin se
Ġin co
Ġd ata
Ġd uly
Ġth rill
Ġl ur
Ġl aminated
Ġhe aled
om be
Ġg y
Ġg or
Ġbe lt
Ġre ass
st ra
im per
ce t
ce ll
ld t
ay ing
Ġi re
Ġr av
ch i
Ġnot ion
Ġha z
Ġfr inges
ol och
all ic
Ġse iz
Ġse lling
Ġv ag
Ġv oy
Ġsh ak
Ġsh aped
Ġk oloch
ac iously
Ġex ostosis
th m
Ġne braska
ov en
ect ions
ous ing
Ġal ert
Ġar ouse
Ġar ising
Ġj es
Ġab use
Ġfe udal
Ġun int
Ġun seen
Ġun even
Ġun broken
Ġdis ast
Ġdis aster
Ġam mun
Ġad ler
ĠĠĠĠĠĠĠĠ ĠĠĠĠĠĠ
ĠĠĠĠĠĠĠĠ ĠĠĠĠĠĠĠ
Ġmy x
Ġout st
ount ered
Ġag es
Ġfre ight
Ġev oked
Ġwor ried
Ġqu ilt
Ġqu ivered
od ing
Ġcl am
Ġcl ause
Ġcl ash
Ġapp ortion
Ġoff end
ci p
Ġtr aining
age ya
Ġres ident
Ġcount ing
ear ing
Ġli que
Ġbl ank
Ġbl ows
Ġbr ush
Ġind ec
Ġper se
Ġshould n
Ġgl ittered
ud ge
ud ence
Ġimp art
Ġimp ract
Ġatt ending
Ġexp ose
Ġexp ensive
Ġfl ut
Ġpres erved
ens ed
Ġmen ace
ors ed
we y
Ġreg ards
Ġreg ulate
Ġthr ong
Ġcar ies
na im
Ġocc asions
Ġent ers
Ġdes irable
Ġcol umb
Ġsub l
Ġ3 18
ail s
ail ing
ving ly
Ġhead ache
Ġjust ification
ru gg
ĠĠĠĠĠĠĠĠĠĠĠĠĠĠĠĠ ĠĠĠĠĠĠĠĠĠ
Ġinc hes
ick en
Ġcap illaries
osc ombe
Ġcor ners
Ġref uge
Ġref lections
Ġte chn
Ġes p
Ġ5 6
Ġlast ing
Ġfore most
Ġnapoleon ic
Ġhor rified
Ġbor acic
Ġpain e
Ġpain less
Ġvar iable
Ġmor ris
Ġter rified
Ġdoor way
Ġsin ister
sh ips
Ġpresent ing
Ġbo iling
Ġfew er
Ġve il
Ġve get
Ġdi ary
Ġrece ives
Ġrece ipt
Ġwork men
Ġsw arm
Ġcommon wealth
Ġoper ate
Ġprop osition
Ġprev ailed
Ġlight ed
Ġbur g
Ġang ioma
Ġunt r
Ġperson age
Ġbri ghter
Ġadj usted
for ced
Ġwind ing
Ġvir ulent
Ġorgan iz
Ġdev ices
Ġmain e
Ġdisp osed
Ġtre acher
Ġ6 3
Ġsett ling
Ġplan ning
Ġbar bar
Ġge ograph
Ġut erus
Ġsum mary
Ġvill ain
Ġaccord ance
Ġpen is
Ġdescrib ing
Ġvict or
Ġvict orious
Ġpow dered
Ġhaem atoma
Ġhaem ophil
Ġindic ations
Ġant agon
Ġ7 7
Ġmod el
Ġsad ness
Ġforg iveness
Ġcre ation
Ġconcer ns
Ġinclud es
Ġthick ness
Ġ15 3
Ġwrit er
Ġwin ning
Ġswe eping
Ġpal ate
Ġ13 6
Ġsch oss
Ġur ging
Ġenc ountered
Ġfibr in
Ġnod ular
Ġtrust ed
Ġbank er
Ġextens or
Ġviol ation
Ġplant ed
Ġiron ically
Ġoste oma
Ġauthor izing
tr ans
Ġdiscuss ions
Ġmult i
pro gnosis
Ġperform ance
Ġder ive
Ġnotice able
Ġsmo king
Ġcost ume
Ġconvin ce
Ġfluid s
Ġscr aping
Ġ32 8
Ġmanifest ation
Ġconce ive
ĠĠĠĠĠĠĠĠĠĠĠĠĠĠĠĠĠĠĠĠĠĠĠĠ ĠĠĠĠĠ
Ġnav igation
Ġbox es
Ġoblig ation
Ġburst ing
with out
Ġcommission ers
Ġdece ived
Ġ52 3
Ġtriumph ant
Ġ187 0
gl af
Ġmagn ific
Ġeduc ational
Ġ26 9
Ġspl it
Ġrepro ached
Ġvent il
Ġpict ured
Ġhang ed
Ġinstru cted
Ġcontempt uous
Ġts arev
Ġsafe guard
Ġundert ake
Ġpip es
Ġ178 7
Ġresour ce
sk in
Ġspr ain
Ġque er
Ġdescend ing
Ġliter ature
Ġrecur rent
Ġspectac le
Ġcra ft
Ġshut ters
Ġflour ished
Ġpropriet ors
Ġdust y
ox ide
Ġhes itating
Ġskill ful
Ġdig ital
Ġelev ation
Ġfix ing
Ġovert ook
Ġrib s
Ġscot land
Ġpel ageya
Ġstrict ly
Ġdelib erate
Ġrele ased
Ġreproach fully
Ġcrack ling
Ġult imate
Ġreluct ant
Ġsecre ts
Ġloyal ty
Ġpond ered
Ġanal ysis
Ġimpat ience
Ġbrief ly
Ġinfinite ly
Ġtransform ation
Ġprosper ous
Ġwel come
Ġcow ard
Ġtrif les
Ġaccur ate
Ġneutral ity
Ġamaz ed
Ġdre ams
Ġexerc ises
Ġinaug uration
Ġinaug urated
Ġmurm ur
Ġdrug s
aden itis
ww w
Ġstoop ing
Ġpup ils
Ġstit ches
Ġuncon stitutional
Ġchann el
Ġlawy er
Ġborrow ed
Ġvacc ine
Ġincap able
Ġpolitic ians
Ġsymmet rical
Ġawak ened
Ġinherit ance
Ġglob e
Ġdiscon cer
Ġrobber y
Ġcust oms
Ġargu ed
Ġestim ated
Ġbewild ered
Ġsemenov sk
Ġimpuls es
Ġopens haw
Ġharv est
synov itis
pow der
Ġinsid ious
Ġlandown er
gang rene
Ġdisg ust
Ġoutpost s
Ġappar atus
Ġdiscom fort
Ġfedor ovna
Ġnutr ition
Ġrhy thm
Ġtils it
Ġari z
Ġkoloch a
Ġammun ition
Ġimpract icable
) .=--
3 4
6 8
_ )
b s
b ly
b el
c us
d em
f in
f inger
g re
g hed
g reat
h ung
i our
l is
l ah
m other
r at
s omet
v a
w omen
y ellow
Ġ 0
Ġt id
Ġt ie
Ġt ug
Ġt illed
Ġt une
Ġt yler
Ġa while
Ġa kin
Ġo v
Ġo ats
Ġo gg
Ġs aint
Ġw attle
er ness
on ia
Ġb oscombe
Ġc ul
Ġh ood
it ively
Ġf ow
Ġf uss
Ġp s
Ġp ect
Ġp ear
Ġp icking
Ġm es
Ġto ries
as per
Ġth iers
Ġth under
ll ous
Ġn it
Ġhe ated
Ġg ems
al ine
ad der
ly ukov
ot ions
se em
ce an
Ġon line
Ġwas ting
Ġi rene
Ġy e
Ġan c
Ġr ings
ch inson
Ġnot ably
Ġfr aud
il es
Ġse al
Ġse aled
Ġde arest
Ġv ul
Ġv ile
Ġv lad
and a
and rew
Ġsh an
Ġsh aggy
ac ia
Ġher d
Ġex empt
Ġex asper
Ġso k
Ġso aked
ag ues
Ġch is
Ġch lor
Ġpro c
Ġpro ving
ist rib
ig ible
Ġar ises
Ġwho lly
Ġsp y
Ġsp ind
Ġme at
Ġme al
Ġme lyukov
Ġint egr
Ġfe es
Ġfe eding
Ġun iting
Ġun will
Ġun just
Ġprin ting
Ġdis cer
iv en
Ġad ored
Ġkn aps
Ġco ck
Ġout standing
Ġen franch
Ġcl atter
Ġcl imate
end ent
Ġtr am
Ġtr amp
Ġunder m
Ġres erved
Ġcomm ences
Ġbl az
Ġbl owing
Ġrem ind
Ġind isp
Ġover se
Ġbec k
ep ithe
Ġnow adays
ha worth
Ġper one
Ġgr ains
ph y
Ġfl ame
Ġfl ushing
Ġday light
Ġsc ur
Ġsc ant
Ġstr ing
Ġstr angers
Ġsur m
ok es
Ġgreat coat
ath y
Ġdes cent
Ġdes erved
Ġ18 16
Ġ18 48
Ġmet allic
Ġstill ness
ru p
Ġdist ended
ĠĠĠĠĠĠĠĠĠĠĠĠĠĠĠĠ ĠĠĠĠĠĠĠ
hes s
Ġret ic
Ġdiff er
Ġass ault
Ġeng ross
Ġpet itions
Ġpat ch
Ġpower less
Ġexpress ions
Ġrest s
Ġleg itimate
Ġserv es
Ġph arynx
Ġgu ilt
Ġvar iations
Ġins pir
Ġcontinu al
Ġir rep
Ġconstit uted
Ġfin ances
Ġred istrib
Ġconv ict
sh aven
Ġcr an
Ġbo ards
Ġbo ils
Ġtro dden
Ġdet achments
Ġopp ress
Ġtend encies
Ġtrans action
Ġprom ises
Ġprev ents
Ġlight ing
Ġpresident s
Ġpo et
Ġland ed
Ġkind ness
Ġcoll apse
Ġfoot ing
alth ough
Ġdifferent iated
Ġcharacter ized
Ġvas ka
Ġheart ily
Ġheav ens
Ġbu x
Ġbu ying
Ġfib ula
Ġdeep est
Ġequ ival
Ġ6 4
Ġ6 7
Ġemploy er
Ġplan ned
Ġpleas antly
Ġreal izing
Ġsn atched
Ġhair s
Ġexcept ions
Ġsepar ates
Ġsepar ately
Ġdin ners
Ġ16 2
Ġjoy s
Ġdeb ates
Ġver d
Ġ9 2
Ġstri pped
Ġ10 1
Ġ10 9
Ġfreed men
Ġmist akes
Ġprob e
Ġeight h
Ġce iling
Ġrub bish
Ġ8 6
Ġmal ign
Ġsol ic
Ġ15 1
Ġbright ened
be fore
Ġfat ig
Ġsupport ing
Ġfixed ly
Ġpret ending
Ġcommun icate
Ġpray ers
Ġabandon ment
Ġmis under
Ġmis fortun
Ġmaid en
Ġstret ch
bl ack
Ġ191 0
Ġrestr ict
Ġbir ds
Ġgrand father
Ġperform ing
Ġdiagn osed
Ġstrugg led
Ġsci ences
Ġbond age
Ġvan qu
Ġ20 1
Ġ180 6
Ġpersonal ity
Ġthor ax
Ġcord ial
Ġharm ony
Ġchest nut
Ġ43 8
Ġcou ch
Ġvirt uous
Ġyield ed
Ġunf av
Ġ27 1
Ġ50 2
Ġpurch ased
Ġxx x
Ġwonder ing
Ġsho ot
Ġpit iful
Ġlat in
Ġ49 2
Ġpersist ence
Ġreve al
Ġfortun ately
Ġhut chinson
Ġexch anging
Ġpred isp
certain ly
Ġbitter ness
Ġinstit uted
Ġundert aken
Ġbelong s
Ġirregular ly
Ġtur k
Ġslough ing
Ġmaintain ing
Ġhyd at
Ġcicat rix
Ġadvoc ate
Ġtoll er
Ġwild erness
Ġrang es
Ġcondem ning
Ġstim ulated
Ġinvest ig
Ġlum ber
Ġfac ult
Ġawkward ly
Ġwool en
Ġquant ities
Ġpossess ions
Ġvague ly
Ġmob ility
ckin ridge
Ġalb any
Ġvalu ed
Ġalt ar
Ġdisplay ing
organ isms
Ġabund ance
Ġuneas y
Ġmedull a
fib romatosis
Ġgle amed
Ġtwit ched
Ġerr ors
Ġintellig ence
ari at
Ġscrew ed
Ġdesign s
var ieties
Ġfier cely
equ al
whe ther
Ġton ight
Ġwand ered
Ġmont ana
Ġaristocr atic
Ġspark ling
Ġmit enka
Ġproxim al
Ġproxim ity
Ġadvis able
Ġgroan ed
Ġstrept ococci
Ġimpatient ly
Ġcig ar
Ġperspir ing
Ġgonorrhoe al
Ġpust ule
Ġgriev ances
diff use
Ġstaphyl ococcus
Ġspin ning
Ġmonop oly
Ġmagnanim ity
Ġmour n
Ġorient al
Ġstub born
Ġunch anged
Ġtele gr
Ġbohem ia
Ġskiagr ams
Ġvenezuel a
Ġfut ile
Ġspirocha ete
Ġaden oma
Ġcaus ation
Ġsatisf y
Ġsust ain
Ġshel ter
bes ides
Ġwond ered
Ġure th
thal m
Ġplun ged
Ġlaun ched
Ġdisagree able
Ġpag et
Ġentit led
Ġredd ish
Ġasyl um
Ġanis ya
Ġarchd uke
Ġguerrill a
Ġelic ited
bacill us
Ġire land
Ġseiz ure
Ġdisast rous
Ġariz ona
lah oma
Ġvlad im
Ġequival ent
Ġmisfortun es
' ?"
0 5
b us
b ag
b oth
c a
c or
c our
d rew
d ling
f ree
h il
j ack
l ance
l ove
p art
p glaf
r ust
s ed
s ch
s clerosis
u ity
u cci
w r
w ounds
Ġt in
he ld
Ġa ward
Ġo wed
Ġs ess
Ġw int
er ating
er ob
Ġb ou
Ġb ite
is ons
Ġc ared
Ġc ush
Ġc ash
Ġf ain
Ġf ant
Ġf its
Ġf anci
Ġf ancies
Ġp atted
es cend
Ġin ch
Ġin ability
Ġd it
Ġd ine
Ġd irt
Ġd ashing
Ġd angers
Ġto il
Ġto ler
or ous
Ġl id
Ġl ap
Ġl ivid
Ġl umb
Ġn ucle
Ġhe redit
ic ing
ic ates
Ġe rected
Ġe jac
Ġg ou
Ġg aining
Ġg arr
al o
ad ded
Ġre cess
Ġre app
ot hed
ct ing
Ġwith drew
ld ing
ay ed
Ġas certain
Ġst ing
Ġst ore
Ġst ap
Ġst umbled
Ġr y
Ġr and
Ġcon cess
Ġfr uits
ol ar
Ġse am
Ġde vel
Ġsu ic
ri ers
ri end
Ġsh ake
Ġsh attered
Ġsh ifting
Ġk arp
Ġex ost
Ġex clude
Ġbut ler
th or
Ġcom ment
ag ain
if ice
Ġsa b
Ġsa x
Ġsa bers
Ġsa phe
Ġch ains
um a
um ps
ab by
Ġar dent
Ġro ss
Ġint ent
Ġab ility
Ġab omin
Ġun but
Ġun not
Ġun ique
Ġdis d
Ġdis orders
Ġdis adv
iv a
iv ier
Ġtheir s
ra z
un au
ure us
Ġkn it
Ġco de
Ġmay or
Ġout break
Ġen abled
Ġpl ates
Ġpl under
ke ep
ib er
Ġev ac
Ġapp et
Ġcont used
Ġcont ented
Ġcont aminated
Ġoff ers
Ġpier cing
ass ium
Ġpart ners
Ġtim ber
Ġem ac
Ġcomm od
Ġbl and
Ġrem orse
Ġover fl
Ġtw ist
Ġhand ing
Ġhand ful
Ġhand ling
Ġper ons
Ġper ceptible
Ġgr in
Ġgl ove
Ġevery day
Ġpre y
Ġpre jud
Ġpre cip
Ġatt achment
Ġexp osing
Ġlong us
Ġsc out
Ġdown cast
Ġstr ained
Ġsl ack
Ġreg ain
Ġsy ring
Ġob edience
Ġent rench
Ġmust n
Ġact ively
Ġsub j
ne ur
Ġsk et
Ġpol k
ĠĠĠĠĠĠĠĠĠĠĠĠĠĠĠĠ Ġ
ĠĠĠĠĠĠĠĠĠĠĠĠĠĠĠĠ ĠĠĠ
Ġconf er
Ġsupp ress
Ġrel iance
Ġret al
og ue
Ġdiff erences
Ġend owed
Ġcond escend
Ġchar cot
cer a
Ġcour te
Ġtal ks
Ġblood y
Ġpur ification
Ġdem arc
und ered
Ġsim ulate
Ġmin nes
Ġmin istry
Ġgu id
Ġlim p
Ġconv al
its a
Ġcr ust
Ġbo iled
Ġorder lies
Ġdec ade
Ġopp ose
Ġsent iments
Ġ19 3
Ġ19 4
Ġ19 5
Ġsw ung
ars al
Ġimm ob
Ġcommon place
Ġtrans ition
Ġtrans mit
Ġrap ture
Ġvis cera
Ġperson ages
Ġloc omot
Ġdiv ide
Ġterm ed
alth y
ron ted
Ġsing ers
Ġdev ital
Ġdirect or
clud ing
Ġ6 5
Ġcare lessly
Ġla wn
Ġsen ile
Ġsoft en
Ġsoft ening
Ġhair y
Ġimposs ibility
Ġsucc umb
Ġforce ps
Ġval id
Ġelect ro
Ġlocal ity
Ġsepar ating
Ġulcer ated
Ġer ie
go ing
Ġimag ining
Ġz ak
Ġrid er
Ġacqu isition
Ġrespect ing
Ġrespect able
Ġsuper added
aut ions
Ġwhis ky
Ġemb roid
Ġquar re
Ġcy ril
Ġexcl usion
Ġ8 2
,' "
Ġenl ight
Ġ15 8
Ġcop ying
Ġwrit ings
ĠĠĠĠĠĠĠĠĠĠĠĠĠĠĠĠĠĠĠĠĠĠĠĠĠĠĠĠĠĠĠĠ ĠĠĠ
Ġbound aries
Ġhaemorrh ages
Ġcomb at
Ġlif eless
Ġ13 0
Ġ13 9
Ġbeginning s
Ġ11 7
Ġdiss ensions
Ġcommun icated
Ġband ages
col oured
Ġirrit able
Ġdeterm ining
Ġenlar ge
Ġviol ently
Ġoste o
Ġecon om
Ġ14 7
Ġimpl ied
Ġcitizens hip
pro ach
Ġgro ans
Ġpeculiar ly
Ġconvin cing
Ġsci ent
Ġphys iological
Ġsocial ists
Ġparal y
Ġbra unau
Ġapart ments
Ġspo res
Ġspok es
Ġdimin ishing
ask et
Ġstation ary
Ġspec ies
Ġcat hed
Ġvirt ues
Ġ42 6
Ġcast le
Ġ50 1
Ġcho ked
Ġspl ashing
Ġ23 9
Ġpit ied
Ġlat ent
Ġconcl usions
Ġ49 1
Ġjer ked
Ġdoctr ines
Ġresol ve
Ġgland ular
Ġscre en
Ġpot assium
Ġgumm ata
Ġconserv ation
Ġpatri ots
Ġpri ests
Ġbitter ly
Ġmot ives
Ġbrown ish
Ġpill ows
Ġ178 9
Ġdisturb ances
eg ration
Ġunpleas antly
Ġrout es
Ġsusp ended
Ġrul ed
Ġgrasp ing
Ġded uce
Ġwhit es
Ġfold s
Ġ38 2
Ġembr acing
Ġmonarch s
Ġshri ll
Ġcarb uncle
Ġhind er
Ġflow ers
Ġcard iac
Ġpruss ian
Ġexceed ed
Ġcrim inals
Ġproof s
Ġkeen ly
Ġsimpl est
Ġunnat urally
Ġadmir ation
Ġsan ction
Ġsong s
Ġphr ases
anes e
Ġincident s
Ġgrey ish
Ġcontrovers ies
Ġenv y
Ġprivile ge
Ġber thier
Ġchond romas
Ġinstinct ively
Ġoblit eration
Ġphilipp ine
Ġconfeder ates
Ġkrem s
Ġcarp ent
Ġrender ing
Ġemph as
Ġprec ision
Ġprec autions
Ġhomestead s
Ġhunts men
Ġaltern ative
Ġgover ning
Ġcommiss ariat
Ġcalc ification
Ġneighbour ing
Ġpersu ade
Ġpersu aded
Ġinvolve ment
lymph ang
Ġfrancis co
Ġveh icle
Ġclut ching
Ġfibros a
Ġwand ering
Ġsubstit ute
atell ar
Ġchann els
Ġpaul ucci
Ġwart s
Ġascend ed
Ġrag ged
Ġparticip ation
Ġresc ue
Ġdecor ations
comm ission
Ġsar com
Ġnom ination
Ġsant a
Ġgren ad
Ġperf ection
Ġrelax ed
Ġbogdan ich
Ġdrow ned
Ġgly cer
Ġsurve y
Ġinterpre ter
Ġteacher s
Ġinsur rection
Ġextravas ated
Ġsevente enth
Ġhud son
Ġante ced
Ġenum erate
Ġactinomy cosis
Ġwitt y
Ġens ure
Ġperce ive
Ġordin ance
Ġshrie ked
Ġpite ous
Ġpuzz led
Ġpamph lets
Ġdeem ed
Ġhumili ating
Ġcharacterist ics
Ġbayon ets
federal ists
pent ine
Ġgosp el
Ġdissem ination
Ġgrab ern
Ġconspir acy
Ġendotheli um
Ġhawa ii
Ġech o
Ġga iety
ste in
perioste al
Ġok lahoma
Ġsuperint endent
Ġinco herent
Ġorganiz ations
Ġtreacher y
Ġmulti pl
Ġventil ator
gre en
Ġanc est
Ġunwill ing
Ġengross ed
Ġirrep ressible
Ġfanci ed
Ġheredit ary
Ġconcess ions
Ġdevel ops
Ġexost oses
Ġsaphe na
Ġunnot iced
Ġdisadv ant
Ġperons kaya
Ġdemarc ation
3 9
a ver
a pped
c ra
c king
d am
e ff
f ol
g ings
h aving
h ips
h ouses
h alf
m ac
m ade
m astoid
n one
n ame
o gel
p es
p ur
r ance
r ick
r ising
s pr
s ighted
t own
t ail
u is
v ada
w en
w all
w ide
y et
z led
Ġ ich
Ġo cean
Ġs ession
Ġb olk
it inov
Ġp anting
Ġp atell
Ġm b
Ġm im
Ġm umm
Ġd ad
Ġto ols
an at
as sured
Ġl ing
Ġl ag
Ġl int
Ġl anger
Ġl acked
Ġl akes
Ġe cc
le men
Ġg ast
Ġg el
Ġg ait
Ġg ulf
Ġre cl
ro ll
st oy
ut able
id er
Ġu v
ur ate
ur bed
Ġas pir
Ġst ones
Ġi ogel
Ġy awn
Ġy akov
Ġan ast
Ġr ay
Ġr ip
Ġr ont
Ġr igor
Ġha ul
am iliar
res cent
us age
Ġv ision
Ġsh rugg
ill es
th ink
Ġsa iling
ap esh
Ġch alk
est ion
Ġpro st
ist urbed
ig e
Ġwho ever
Ġj ab
Ġsp ell
ust ice
Ġro ast
Ġint ol
Ġint end
op erative
Ġun its
Ġun anim
Ġun worthy
Ġman ly
Ġam en
un culated
Ġout set
Ġout fl
Ġout put
Ġen r
Ġpl ains
act ive
ib ilities
el ing
ack ing
Ġcl ark
Ġpier ce
Ġtr aced
Ġsm eared
Ġres ort
Ġres ounded
Ġcount ies
Ġsome how
Ġem ail
Ġrep ud
ub ey
Ġbl amed
Ġbl adder
Ġind ucing
rew ell
Ġover he
Ġover looked
Ġwill s
are rs
Ġpe a
Ġper ception
Ġinf ring
Ġgl owing
Ġarm fe
Ġcomp ass
Ġcomp rehensible
Ġcomp rehend
Ġpre ob
Ġpre cise
Ġbefore hand
Ġpres ently
Ġpres ume
erv es
Ġsc or
Ġsl im
Ġmen acing
Ġsy ll
na h
ath om
ject ed
ning s
Ġspe eches
Ġmet ivier
Ġ4 13
ĠĠĠĠĠĠĠĠĠĠĠĠĠĠĠĠ ĠĠ
Ġconf ession
Ġconf isc
Ġrel ent
Ġrel atively
Ġdiff used
Ġhapp ier
Ġass ented
Ġcor rected
Ġread er
Ġread able
Ġref ined
Ġref erences
Ġdef ine
Ġinv ented
Ġnap les
Ġbro die
Ġlast ly
Ġma x
Ġexpress ly
Ġear n
Ġhor ner
Ġke ys
Ġpur ified
Ġmin ority
Ġca ul
Ġca vern
Ġins ol
Ġcontinu ously
Ġmor an
Ġmoment ary
Ġconstit uting
Ġsin k
Ġhol iday
Ġadm ired
Ġcertain ty
Ġcr acked
Ġbo one
hov itinov
Ġbeh av
Ġimport ation
Ġest imate
Ġlab ored
Ġsw ing
Ġsw amp
Ġsw allow
Ġcent ered
Ġlist less
Ġcur led
Ġtrans p
Ġprop he
uct ions
Ġworld ly
Ġdisc our
Ġdisc retion
Ġbre ckinridge
Ġprot rud
ec ided
Ġtra itors
Ġdifferent ial
Ġinj urious
Ġinj ustice
Ġdev oid
Ġdraw er
Ġdirect ing
Ġdisp ose
Ġdisp uted
Ġep is
Ġlin ks
Ġ6 2
Ġcold ness
Ġappe aled
Ġpleas ures
Ġstrong est
Ġsystem s
Ġassoci ate
Ġbar on
Ġgre ed
Ġelect ron
Ġstart ling
Ġide als
Ġ16 6
how den
Ġpay ments
Ġsqu e
Ġconvers ing
Ġsal ary
Ġsal ts
Ġsal vation
Ġobserv ations
Ġster no
Ġster ilis
Ġfort ified
Ġ9 6
Ġ9 7
Ġstri ps
Ġaffect ation
Ġ7 5
Ġ10 4
Ġsens ible
Ġ* [
Ġgun powder
Ġlow ell
Ġlo ans
Ġce ases
Ġdoubt less
Ġmil ka
Ġ8 7
Ġund ressing
Ġund isturbed
Ġund ecided
Ġ186 9
Ġcancer ous
Ġ15 0
Ġ15 2
be ard
Ġobject ed
Ġlib rary
Ġpath ogenic
she nd
Ġbound s
Ġpal mar
Ġ13 2
Ġ13 4
Ġur gent
Ġarrest ing
Ġdiss ip
Ġris ks
set t
Ġintrod ucing
do es
hev o
Ġimpro ving
Ġ12 0
Ġflo ating
Ġmis erable
dom o
Ġburs itis
Ġ191 6
Ġ191 9
Ġrestr aint
Ġrestr iction
Ġdiscuss ing
Ġhero ism
Ġwarm th
eng ers
Ġbond men
Ġplat ov
Ġ20 8
Ġfro ck
Ġscr atch
Ġ30 7
Ġgri p
Ġast ounding
Ġreform s
ĠĠĠĠĠĠĠĠĠĠĠĠĠĠĠĠĠĠĠĠĠĠĠĠ ĠĠĠĠ
ĠĠĠĠĠĠĠĠĠĠĠĠĠĠĠĠĠĠĠĠĠĠĠĠ ĠĠĠĠĠĠ
hens k
Ġsob bed
Ġconflic ts
Ġclean liness
Ġsubst ant
Ġ46 2
Ġ177 5
nes day
Ġpursu e
Ġdece ive
Ġ187 2
Ġmagn itude
Ġunf amiliar
Ġxx i
Ġworth less
Ġ40 5
Ġcontract s
pap a
Ġpos itively
Ġshaft s
Ġ39 3
Ġsick ness
Ġtox in
Ġaccident s
Ġcheer fully
Ġgate way
Ġscre ams
four ths
Ġamb ition
Ġvac ancies
Ġobst ruction
Ġobst inate
Ġmat urity
Ġwhist led
Ġprotect ing
Ġfashion able
Ġded icated
Ġexper iments
Ġrejo ined
Ġhun ters
Ġstim ulating
och ubey
Ġwed nesday
Ġsurge ons
Ġaccum ulated
Ġcrim son
Ġpropos als
Ġcher ished
Ġhart ford
Ġconsult ing
Ġbreath less
Ġpunct ure
Ġadmir able
Ġnurs ing
Ġtrave led
Ġtrib un
Ġsear ched
Ġdeed s
Ġphenomen on
Ġpion eer
Ġcaut er
Ġcaut ery
Ġber lin
Ġcontrib utions
Ġing rat
Ġlack ing
Ġanal og
Ġmag ic
Ġrhod es
Ġcarp ets
Ġphilos oph
Ġcow boy
Ġmic ros
Ġgrate fully
Ġpou lt
Ġretire ment
Ġwarrant ies
Ġbetray ed
Ġnour ishment
Ġcoff in
Ġgloom ily
Ġkuz mich
Ġbund le
Ġrick ety
Ġcoin age
Ġcounter act
Ġhem p
gent lemen
Ġclut ched
Ġfibros itis
Ġincess ant
Ġpilgr im
Ġaristocr acy
Ġfluct uating
Ġchamp ion
Ġclim bed
Ġsill y
Ġamuse ment
sub cutaneous
Ġtort uous
Ġcultiv ation
Ġpneum onia
Ġdeaf ening
Ġkl app
Ġmelt ed
Ġlawy ers
Ġdiscont ent
Ġmoan ing
Ġpigment ation
Ġmetast ases
Ġperspir ation
Ġobsc ure
Ġgonorrhoe a
stre pt
umber land
Ġapproxim ately
Ġnet work
Ġstair case
Ġstagg ered
opl asm
aunt ed
Ġindirect ly
Ġflatter ing
Ġinsens itive
Ġflee ing
Ġtips y
Ġcorpus cles
Ġlone ly
Ġgrie ved
Ġdanc er
ropath ies
Ġexal ted
Ġrepuls ed
Ġinterc ourse
Ġtroy ka
Ġdismiss ed
Ġfasc inating
Ġjug ular
Ġsyn cope
Ġburd ens
Ġsacrific ed
bet ween
Ġmix ture
Ġratt led
Ġpra ised
Ġdiaph ysis
Ġobser ver
inj uries
Ġcaust ic
Ġencaps ulated
Ġinfrequ ently
Ġspecim en
Ġwy oming
Ġlique faction
Ġdisconcer ted
Ġbux howden
Ġfant astic
Ġdisd ain
raz hensk
Ġguid ance
Ġcathed ral
Ġbolk hovitinov
Ġlanger on
Ġgel at
Ġanast om
Ġront gen
Ġshrugg ing
apesh ot
Ġpreob razhensk
7 2
9 14
a ur
b able
b ted
b acks
c anc
c ran
d ise
f itting
g ly
g rown
h on
i at
l on
l ife
m und
n ected
p ower
r ise
r adi
s ur
s pe
t es
u ent
w estern
y an
z ur
Ġt u
Ġt out
Ġt ucked
he aling
Ġa ureus
in cy
in fl
Ġo ph
Ġo rel
Ġs na
Ġw aged
Ġw ander
Ġb our
Ġb iv
Ġb ish
Ġb olkons
Ġb omb
Ġb iograph
Ġc rew
Ġc ession
Ġc ateg
Ġc umberland
Ġh ue
Ġh ook
Ġh ints
it o
it ious
Ġf ol
Ġf us
Ġf ost
Ġp ell
Ġp ine
Ġp enc
Ġp ips
Ġm orm
Ġm old
Ġm ask
Ġin herent
Ġd red
Ġd az
Ġd war
or ters
an other
Ġth ud
Ġth ief
Ġl y
Ġl ens
Ġl ump
Ġl ucky
Ġn ort
Ġn iz
Ġn asty
Ġhe als
om ata
Ġe th
le te
Ġg h
Ġg ib
Ġbe ings
Ġbe eches
al ach
ent ured
Ġre vers
Ġre vel
ro st
st op
im med
id al
ot es
se ven
ow ered
ur able
ur day
Ġst ab
ver ing
Ġfor ge
Ġan ton
Ġr ome
Ġr usse
Ġr ifle
ere al
ere rs
Ġfr amed
ol is
Ġor che
ul ed
ul um
Ġse lection
Ġde ity
Ġde pl
Ġsu ited
Ġv olkonski
Ġsh ove
Ġsh cher
Ġsh ivering
Ġsh ippers
Ġk ochubey
ac re
ac on
ac it
Ġex ter
Ġso dden
ers per
os itis
ill oma
Ġne vada
ag ic
Ġpr one
Ġpr air
Ġch atter
Ġall ud
ant ry
Ġal ice
ig erent
Ġar ab
Ġj u
Ġj am
Ġj ob
Ġj okes
Ġsp ared
Ġsp ots
Ġsp ending
Ġro ots
Ġwe igh
Ġme nd
Ġup rising
Ġint ending
op ath
Ġle ash
Ġle af
Ġab r
Ġab ashed
Ġfe ed
Ġun rest
Ġun lim
Ġun covered
Ġun important
ress es
our ing
Ġdis ordered
iv able
ra ved
ra ising
ra emia
Ġad roit
ort ions
ge al
Ġmy tish
oc ity
Ġout let
Ġout right
Ġen h
Ġen rolled
Ġen forced
Ġpl ot
Ġpl ow
Ġpl ight
Ġpl umes
ke l
Ġag g
!" --
Ġqu artered
Ġqu incy
od erm
Ġcl ad
Ġapp alach
Ġcont ing
Ġcont usion
end ous
ass y
urn ed
Ġres ented
Ġcan cers
Ġem inent
Ġrep ay
Ġbr unn
Ġ( "
are t
Ġpe ering
Ġnat ives
Ġper il
Ġgr apeshot
int o
Ġcomp osition
Ġimp ly
Ġpre cisely
Ġatt raction
Ġcons pic
Ġfl ush
Ġbeg gar
Ġpres um
Ġsc ab
Ġsc orn
Ġfrench woman
Ġold enburg
Ġsl op
Ġsur pl
we ather
Ġ2 12
wh om
Ġdes k
Ġ18 13
Ġpass engers
so res
Ġ3 1
... ?"
Ġmet rop
Ġ4 1
Ġ4 12
Ġsk irm
Ġdist racted
Ġconf ine
Ġconf essed
Ġconf erences
Ġconf ronted
hes is
Ġass erted
Ġchar ters
Ġconst rict
Ġcap it
Ġstre amed
rit ic
ont oma
cept ibly
Ġyoung est
Ġinst ruction
Ġ5 00
Ġfore see
Ġsat urday
Ġdon ate
Ġhor rid
Ġhor rors
Ġdep ressing
Ġdr ained
Ġbel ova
Ġel iz
Ġsmall est
li hood
Ġwant ing
Ġsou p
Ġpain t
._ ,
Ġvar ied
Ġins ertion
Ġpar ce
ili ans
Ġcr um
Ġcr ash
Ġbo at
Ġcase ous
Ġdec ades
Ġtro p
Ġdet ained
Ġest eem
Ġsw ear
Ġcent uries
Ġprom oting
Ġhal ting
Ġhum ble
Ġhum iliation
Ġexpl oration
Ġclear ness
Ġhorse men
Ġed mund
Ġdisc ord
Ġste ep
Ġru ins
Ġcoll ision
Ġcoll apsed
Ġdiv iding
Ġterm ination
Ġtra ils
Ġmass ive
Ġinj unction
Ġsing ly
Ġorgan ic
Ġdev ote
form ed
form ing
Ġmother s
Ġheart y
Ġbed s
Ġdisp ers
Ġdisp uting
Ġdoub led
Ġlin k
Ġmid day
Ġplan ks
Ġfull er
ex c
Ġtown shend
Ġciv ilians
Ġsystem atic
Ġsn ake
Ġbar rel
Ġhy dra
Ġpost erity
Ġoccup ying
Ġje wel
Ġvisit ing
Ġdevelop ing
ric ally
Ġrequ ires
Ġsac rif
Ġsac culated
Ġz naim
Ġassum ing
Ġver t
Ġsuper fl
Ġscar f
Ġhusb ands
Ġant ip
Ġforeign er
Ġemb ar
Ġprob ability
Ġweak ened
Ġap ology
Ġ8 5
Ġfa rewell
Ġcre am
Ġfresh ly
Ġund ressed
Ġhar b
Ġ15 6
Ġaccept ing
Ġadmin ister
Ġinde bted
Ġobject ion
Ġexpect ations
Ġsecret ion
Ġbit ch
Ġcapital ists
Ġadminist rative
Ġswe ep
Ġswe ating
Ġorigin ally
Ġfun eral
ster ical
Ġdemand ing
Ġcry st
Ġhast ening
Ġremain der
Ġcoun c
Ġpret t
Ġgener osity
col or
Ġble nd
Ġnod ding
Ġirrit ant
Ġirrit ating
Ġsup ra
Ġimpro per
Ġlod ged
bl asts
Ġroyal ty
Ġpurpose ly
Ġlord s
Ġdmit ri
Ġemp owered
Ġ14 0
Ġimpl icate
Ġgrand eur
Ġdetail ed
Ġpeculiar ities
Ġfart hest
Ġexer ted
Ġwhisp ers
Ġcannon ade
Ġcomfort ing
Ġcomfort ably
Ġresemb lance
Ġwithdra wing
Ġconsist ent
Ġcrit ics
Ġ43 4
Ġdan il
Ġcou ghed
Ġ36 1
Ġgreen back
Ġdece ased
Ġiod ide
Ġ42 8
Ġsolemn ity
gl ass
Ġfill s
arr h
Ġsho oting
Ġspring ing
Ġenorm ously
Ġthro b
Ġconduct ing
Ġmechan ism
Ġmechan ically
Ġsuggest ing
Ġdil ig
Ġgland ers
Ġ190 4
Ġ190 7
Ġattend ant
Ġ29 4
ma id
Ġconfirm ation
Ġcorn wall
Ġundergo ing
Ġobst in
Ġobst acle
Ġgreet ings
Ġmerry weather
Ġsam o
Ġnon commission
Ġiv ory
Ġeat en
Ġspr ung
Ġrul ing
pre cisely
Ġded uced
Ġded uction
Ġid iot
Ġworking men
Ġ183 0
Ġ183 2
Ġhay es
Ġpuls ating
Ġlog ic
Ġrejo icing
Ġreck less
Ġnegoti ate
Ġsuperi ority
Ġfac ilit
Ġdespair ing
Ġric her
Ġseptic aemia
Ġrese ction
Ġapr on
Ġovert ake
Ġperplex ed
Ġembol i
rep ublic
Ġspeed ily
Ġwear iness
Ġperfor ated
Ġperfor ating
Ġchallen ged
Ġident ical
Ġox ford
Ġappreci ate
Ġdepos ited
Ġcaut iously
Ġlimit ations
Ġcontrib uted
Ġ176 3
Ġprincip ally
Ġbread th
Ġpin ch
cal c
Ġunus ually
Ġdispos al
Ġgle am
Ġfreem asons
prin cess
Ġcolor ado
Ġrecover ing
Ġtrif ling
Ġsche mes
Ġbetray ing
psh o
Ġneighbor hood
Ġrigid ity
Ġnour ished
Ġrhe umatic
every thing
Ġshy ly
Ġpick et
nest y
Ġmart ial
Ġweap ons
Ġdisappoint ment
Ġfier ce
Ġpuff ing
Ġrefr ained
cript ions
Ġcoinc idence
Ġtrades men
Ġau ersper
Ġbure n
Ġincom es
Ġpurit an
Ġhyp oderm
Ġcas ual
Ġped unculated
Ġdor an
Ġdor og
ucle ar
Ġpolite ly
Ġengine er
Ġprolif eration
Ġpopul ists
Ġarsen ic
Ġdisint egration
Ġbuff alo
stre et
Ġdisse ction
Ġgrim ace
Ġecst atic
Ġbust le
Ġimprison ed
Ġexplo it
Ġstagg ering
Ġrecru its
Ġprem ises
Ġexpand ed
Ġapolog ize
Ġtol eration
Ġtoss ed
Ġcong reg
Ġdiscol oration
Ġsarc astic
Ġeloqu ent
Ġsentin el
Ġpotato es
Ġhydro gen
Ġunhe althy
Ġfores ight
Ġscrut in
Ġkarag ina
+-------------- +--------------
bu ild
Ġdens er
Ġker chief
Ġdisinf ected
Ġbrad street
Ġlas car
Ġcomput er
Ġdiab etes
Ġbarg ain
Ġsumm ons
Ġsubmar ine
Ġresent ment
Ġscen es
Ġphagocyt es
Ġexhaust ion
Ġrh ine
Ġholl and
Ġmol asses
Ġindec ision
Ġtechn ical
Ġmagnific ent
Ġtsarev ich
Ġpect oral
Ġsok ol
Ġchis el
epithe li
Ġscur vy
Ġmalign ancy
Ġturk ish
Ġry der
Ġunbut toned
Ġappet ite
Ġdevital ised
Ġanteced ent
mac donald
Ġpatell a
Ġarmfe ldt
radi ogram
Ġoph thalm
Ġbiv ou
Ġorche stra
Ġmytish chi
Ġconspic uous
Ġsacrif ices
Ġnoncommission ed
Ġauersper g
' .
8 7
9 0
; --
a its
b in
b acter
b rown
b ott
c f
c all
d is
e le
f all
f ine
f ire
f acing
f ashion
g ently
h an
h ab
h ard
i ke
k ins
l at
l ou
l oy
l ower
l upus
m s
m id
n in
n osed
p ain
p ated
r ament
s ire
s pir
s burgh
t om
t um
t able
v oc
Ġt ay
Ġt acit
he res
Ġa we
Ġa vert
in ternal
in isc
Ġo le
Ġo val
Ġs ain
Ġs ine
re v
Ġw re
Ġw ens
Ġw ink
er ine
on ious
Ġb id
Ġb ount
Ġb ible
Ġb uz
Ġb ored
Ġb itten
is n
is an
Ġc el
Ġc ents
Ġh an
it ives
en n
Ġf est
Ġf ab
Ġf ete
Ġp u
Ġp ov
Ġm ast
Ġm oore
ing o
ing ton
ing itis
Ġin ward
Ġd rying
Ġd agger
Ġto ken
ar f
an ter
an ia
an ks
Ġl ang
Ġl orr
ll en
Ġn ic
Ġn ormally
Ġhe ars
om al
ic us
ion y
Ġe got
Ġg ift
Ġg asped
al ysis
Ġre nd
Ġre ly
Ġre lic
Ġre verse
ro oms
im ary
Ġu gly
ct ic
Ġwas n
Ġas hes
Ġst u
Ġst icking
Ġy arosl
ir rit
Ġan ec
Ġan arch
Ġr ural
Ġcon ver
Ġcon vert
Ġfr iday
am ong
Ġhad n
Ġor th
her land
il bl
ul ic
ul cer
all ing
Ġse ct
Ġse ward
us ually
Ġde w
Ġde gr
Ġv on
-- '
Ġsh ore
Ġsh aken
Ġsh aved
Ġsh orter
Ġk am
pp ers
Ġher nia
Ġex ile
Ġex ert
em por
ag ne
if ully
Ġsa van
Ġsa usage
Ġch uck
Ġch aff
um my
Ġpro ceeding
Ġal ve
Ġal aska
Ġj ac
Ġsp ar
Ġsp ons
Ġup hold
Ġint rig
op ular
Ġle v
Ġ1 18
Ġun m
Ġun av
Ġun iver
Ġun loc
Ġun mar
ie ves
Ġdo ings
Ġprin ces
Ġdis in
Ġdis hes
Ġdis ob
Ġdis franch
Ġman s
Ġman ip
Ġad ap
Ġad equ
un ci
Ġco quet
oc y
oc ular
Ġout ward
Ġag ency
ib ule
ind ustri
ost ic
od ion
Ġcl asped
Ġapp le
Ġcont our
Ġoff set
ci i
ci le
av l
Ġtr ache
Ġpart isan
Ġres idence
Ġres ume
Ġaf resh
Ġcount en
ub o
Ġbl own
Ġrem inisc
Ġbr iony
Ġind ist
Ġind ub
Ġind uction
Ġhand led
Ġper tur
Ġgr udge
Ġgl ute
Ġgl orious
Ġfo et
ud o
Ġimp e
Ġimp ost
Ġthen ce
ph lebitis
Ġfl ared
Ġfl og
Ġwar n
ious ness
Ġsc atter
Ġdown hill
Ġstr ang
Ġstr ains
Ġsl ipp
Ġsl ammed
Ġ2 18
Ġacc omm
ful ness
Ġreg ulating
wh ose
Ġthought fully
Ġmust aches
Ġstates man
Ġdes er
Ġ18 20
amp ed
Ġsub ur
Ġsub side
so as
Ġmet at
Ġ4 20
Ġ4 11
Ġgeneral ised
Ġhead ed
Ġpol es
Ġsupp lying
Ġdiff ers
Ġass ent
Ġass ailed
Ġback ground
Ġstre ams
Ġcall ous
Ġread ers
Ġref res
Ġref lex
Ġpers ists
old ing
Ġset s
Ġnap kin
Ġma zur
Ġple ura
Ġdr ums
Ġblood stained
Ġca es
Ġside ways
Ġmor bid
Ġpar as
Ġpar ox
Ġfin est
Ġred eem
Ġmon aster
Ġmon oton
ren ous
Ġrev oir
Ġnear ness
Ġadm ire
Ġcr ou
Ġspeak s
Ġbo ats
Ġve iled
pr imary
Ġdec omp
Ġfront al
Ġimport s
Ġopp ression
de ev
Ġcir c
Ġhigh ways
ug al
Ġhard ing
Ġless on
erent ial
Ġthir teenth
Ġoper a
br idge
Ġprop ortions
Ġprev ention
Ġlight ning
Ġul m
Ġnight cap
Ġexpl ains
Ġmer its
Ġvis its
Ġadj our
Ġcoll odion
Ġdiv or
Ġdifferent iate
Ġport fol
Ġpop e
edi ate
Ġopen ings
Ġdev ils
Ġbal con
Ġpublic an
Ġlymph adenitis
Ġlin ked
Ġfav ors
Ġfav oured
Ġhold ers
Ġtre nd
Ġ6 1
Ġdri ves
aim ing
Ġbelie ving
Ġappe als
Ġdemocr at
Ġparticular s
Ġsn iff
Ġbar red
Ġpeters on
com an
Ġsix teenth
Ġhy sterical
Ġcross es
Ġpast e
Ġpost p
Ġaccount ant
Ġann ette
Ġ16 1
Ġtri p
Ġrequ iring
Ġexperi ences
Ġgall ant
Ġgall ery
Ġstud ent
Ġstud ying
Ġgang renous
Ġwater y
Ġcourt es
Ġver mont
Ġwhis kers
Ġkeep s
Ġ7 2
Ġ7 8
Ġ10 7
Ġsens es
Ġreport ing
Ġdesp ise
Ġcompl iment
Ġcompl ication
Ġrad ius
Ġdim ensions
Ġ8 4
Ġprim e
Ġcre aking
Ġcre aked
Ġund es
Ġ186 3
Ġfine ly
Ġ15 9
ych ia
ert ies
Ġlib erties
Ġgran ulating
Ġglad ly
cy st
fig s
Ġwin chester
Ġ13 1
Ġ13 3
Ġ13 5
Ġ13 8
Ġ11 5
Ġmut ton
Ġappoint ments
Ġcommun icating
col onial
Ġble w
Ġirrit ability
Ġ12 6
Ġextens ors
Ġiron ic
Ġiron ical
Ġburs al
Ġbell y
Ġbell igerent
Ġclass ification
Ġlod ges
Ġlod gings
Ġ191 5
Ġrestr ained
Ġcaptain s
Ġdmit rich
Ġ14 6
Ġ14 9
Ġearth ly
Ġjefferson ian
Ġmult ip
Ġgro ove
Ġsmo ked
Ġworks h
Ġapart ment
Ġkar l
Ġkar ay
Ġ30 8
Ġ32 2
Ġgri z
ape ut
uly u
Ġcord ially
Ġdread ed
omin ate
Ġcompar ative
Ġwol ves
ĠĠĠĠĠĠĠĠĠĠĠĠĠĠĠĠĠĠĠĠĠĠĠĠ ĠĠĠ
Ġrat io
Ġcomfort s
Ġven ereal
Ġsple en
Ġdimin ishes
Ġtop ic
Ġspec ie
Ġ43 1
Ġ43 7
Ġ46 0
Ġ46 6
Ġ177 8
Ġ36 9
Ġ52 1
Ġ52 4
Ġ52 9
Ġdomin ated
Ġcast ing
Ġpack et
Ġmagn itski
Ġgard ens
Ġvalle ys
Ġunf air
Ġ25 9
Ġ27 6
Ġ50 8
Ġenterpr ises
Ġnarrow ing
Ġ26 5
Ġsympath ies
Ġ40 6
Ġsplendid ly
Ġqual ification
Ġgau nt
Ġfool s
Ġsuggest ive
Ġdelic acy
Ġsafe ly
Ġjump ing
Ġ190 1
Ġtib ial
Ġfalse hood
Ġaccess ible
Ġ178 3
Ġexplan ations
Ġstupid ity
Ġmat rix
Ġmel anotic
Ġsmooth ly
Ġsubs ided
Ġ34 4
mar ked
zing er
Ġ38 9
Ġstamp ed
Ġshri veled
Ġcolle ges
Ġsut ured
Ġsut herland
Ġcra fts
Ġstar vation
Ġnoble man
Ġflour ish
Ġnegoti ation
Ġhind rance
Ġlum inous
Ġafford ing
Ġgrave ly
Ġrese cted
Ġrese arch
Ġcorrect ly
Ġproof read
Ġconsult ation
Ġze alous
ni ki
Ġdesper ation
Ġdesper ately
Ġsword s
Ġembarrass ing
Ġfascia e
Ġsleigh s
Ġident ity
Ġenv oy
Ġming ling
Ġconc iliation
Ġconqu ered
lo ad
Ġanal y
Ġ200 1
Ġ200 2
Ġmission aries
Ġmag ist
Ġuneas iness
Ġjudic iary
Ġemph asis
Ġpenet rate
Ġtrif le
Ġradical s
Ġpou ches
Ġuns atis
Ġdelir ious
Ġinsignific ance
Ġamaz ement
Ġharness ed
Ġgar ments
Ġkid neys
Ġgrace ful
Ġantise ptics
Ġsuspic ious
Ġsupple ment
Ġrom ance
Ġrom antic
Ġstrateg y
Ġendeav oured
Ġcaps ular
Ġsubstit uted
Ġirresist ibly
Ġdocum ents
Ġcoag ulation
Ġphal anges
Ġther apeut
Ġpall or
apt ured
Ġabst ract
Ġacknow ledge
Ġascend ing
Ġfibro blasts
Ġvacc ines
Ġignor ant
Ġachieve ment
Ġachieve ments
Ġrein force
Ġsequ ence
Ġmetast asis
Ġpust ules
Ġvest ibule
Ġkir il
Ġawak ening
Ġhint ed
Ġchim ney
Ġimprison ment
Ġexplo its
Ġcontradict ory
estab lish
estab lished
Ġgoverness es
Ġlaz arev
Ġaggress ion
Ġstretcher s
Ġfug itives
Ġsport s
Ġintoxic ation
Ġdiscol oured
Ġcath olic
Ġsquee zed
Ġbaz deev
Ġneat ly
Ġintens ity
je fferson
Ġcort ex
itud es
Ġdow ry
Ġdus k
Ġappend ix
mal ignant
po ison
Ġmou ths
Ġreckon ing
Ġfoment ations
tra umatic
Ġoo zing
Ġoun ce
Ġcance llous
Ġshar psho
Ġincorpor ated
Ġadoles c
Ġwarri or
Ġtorment ing
Ġbroadshe ets
Ġnoiseless ly
Ġinterpret ation
Ġmand ible
Ġvoy age
Ġjes us
Ġapportion ed
fin ancial
Ġinspir ation
Ġverd ict
Ġfatig ue
Ġmourn ful
Ġwint zinger
Ġgarr ison
Ġcommod ities
Ġprecip itated
Ġsubj acent
Ġminnes ota
Ġconval escence
Ġenlight en
Ġscient ific
spr ing
Ġmumm ers
Ġamen able
Ġtransp arent
Ġprophe cy
Ġepis ode
Ġelectron ically
Ġmicros cop
dise ases
Ġfus iform
Ġsurpl us
Ġconstrict ing
Ġcounc ils
Ġdanil ovna
republic an
ele phantiasis
fashion ed
Ġtay lor
Ġpov ars
Ġlang uid
Ġlorr ain
Ġyarosl avl
Ġanec d
Ġsavan nah
Ġintrig ue
Ġuniver se
industri al
Ġaccomm od
Ġmazur ka
Ġparox ysm
Ġmonoton ous
Ġportfol io
Ġbalcon y
1 00
? --
_ :
a ution
b ones
b iograph
c in
c ir
c ame
c master
f th
f les
f und
g ers
g ence
g room
k o
l ay
l ist
l ie
l ittle
l abor
m ad
m ond
m ark
o ffic
p y
p ired
p iece
p unct
r uss
r iment
s al
s our
t i
t etan
t ailed
u gh
u ate
v ive
v ention
w is
w it
w art
y ema
z ema
Ġ +
Ġ --
he ment
Ġa ur
in ks
in ished
in cent
Ġo min
Ġs co
Ġs ne
Ġs ins
re c
Ġw ad
Ġw are
Ġw ings
Ġw ont
er o
Ġb if
Ġb un
Ġb uch
Ġb ark
Ġb aff
Ġc z
Ġc ited
Ġc ert
Ġc hess
ed ia
Ġh ou
Ġh ats
Ġh arp
it ar
it ations
Ġf ishing
Ġp se
Ġp ens
Ġp orr
Ġm am
es is
Ġin ade
Ġin cend
Ġd rown
Ġd ash
Ġto ast
Ġto ile
as se
as hes
Ġth om
Ġth urs
Ġl em
Ġl ect
Ġl ace
Ġl loy
Ġn uis
om il
ic ious
ion al
Ġe us
Ġe ag
Ġg estic
Ġbe amed
Ġbe ef
al y
Ġre op
st ret
im il
Ġwh oles
ot as
ve ted
Ġu k
Ġu m
ur c
ur dy
Ġas cribed
Ġas cii
Ġst y
Ġst ress
Ġst ations
Ġst ark
Ġst oke
Ġfor fe
et ition
ir on
ch lor
Ġnot ing
Ġcon verse
Ġfr anch
am ations
ol ve
ol us
ol ies
Ġor n
Ġor ator
il ich
res pect
us hes
ri pt
ri eg
ich ag
Ġsh ams
Ġk el
Ġso ire
os us
Ġcom et
em n
em ploy
ag u
ect asis
Ġch a
Ġch at
Ġch ord
Ġch att
Ġch ichag
Ġall y
ab eth
Ġj ost
Ġsp lin
Ġro pe
Ġwe ighed
art ar
ard ed
Ġint on
op le
Ġle aped
Ġfe ast
Ġun it
Ġun law
Ġdo ck
Ġdis k
Ġam nesty
ra w
ure ment
ace wen
Ġkn itting
Ġco vers
Ġco cked
Ġco veted
ry chn
the ir
oc ol
Ġout r
Ġout lying
Ġen ns
Ġen cy
Ġpl att
Ġpl ants
Ġag on
Ġag ony
Ġev ap
ost ov
Ġwor ry
od es
Ġcl ust
Ġcl ots
Ġapp osition
Ġapp li
Ġapp rehens
Ġcont ri
Ġloo ps
Ġpart ially
Ġpart icles
Ġres ignation
Ġem otions
Ġrep etition
cl op
Ġcomm odore
Ġbl ot
Ġbr ings
Ġbr uit
Ġind entured
Ġind emn
Ġcould n
Ġtw isting
Ġform at
Ġper oxide
Ġgr ating
Ġgl ist
Ġfo es
Ġcomp uls
Ġcomp osure
Ġpre ached
Ġyour selves
ph in
ph yl
Ġcons um
Ġfl att
Ġfl ash
co ll
co al
Ġwar like
erv ant
Ġsc ow
Ġsc ript
Ġmar ie
Ġmar ble
Ġmar ches
Ġeven ings
Ġsl ippers
Ġmen ingitis
ident ly
Ġgreat coats
Ġreg ime
wh atever
Ġcar cin
Ġent ity
Ġ18 24
Ġspe ck
Ġ3 00
Ġwhere as
Ġac re
Ġmost ly
Ġthin ner
Ġhead ing
Ġdist ressed
Ġdist ressing
ĠĠĠĠĠĠĠĠĠĠĠĠĠĠĠĠ ĠĠĠĠĠ
Ġinc urred
Ġsupp orters
ick et
Ġrel atives
Ġret iring
Ġdiff ered
Ġend orsed
Ġext ract
Ġass uring
Ġass imil
Ġchar coal
cer ity
Ġresult ant
Ġconst ruct
igh ter
ond e
Ġstre n
Ġshall ow
Ġcall us
Ġref er
Ġadd itions
Ġcle ans
Ġcle arer
Ġdef ensive
Ġser a
Ġstate hood
Ġpers ian
Ġte am
Ġinst all
Ġ5 1
Ġlast s
Ġsat in
Ġrest oring
Ġhor ace
Ġhor ns
Ġden y
Ġbel g
Ġel ong
Ġconsid ers
ten ance
ilit ated
Ġfrie ze
ange al
up on
Ġca ressing
Ġph lebitis
Ġgu itar
Ġins olent
Ġmem or
Ġput re
ins k
Ġmoment um
Ġpar ap
Ġmon ster
erest ed
Ġche ered
Ġbo b
Ġve hement
Ġdi vert
Ġdi verted
pr om
.... ....
atic he
Ġnum b
Ġlab our
Ġdest ination
Ġimm unity
Ġcrow ned
Ġra is
Ġra pp
Ġcur ving
Ġcur ls
Ġprop ag
Ġexpl oring
Ġexpl icit
uct or
Ġang lic
Ġang les
Ġhorse back
Ġkind led
Ġru ff
Ġcoll oid
ax illary
Ġloc ally
Ġloc king
Ġexc ising
Ġprot oplasm
Ġgod f
Ġtra ct
Ġtra uma
Ġproject ed
Ġwind s
Ġrepe aled
Ġorgan ised
Ġmain tenance
oid able
Ġbed stead
Ġnational ity
Ġdoub ted
arm ed
Ġhors ham
Ġgir th
Ġprep atellar
ob l
gr oma
Ġpost master
Ġcivil ized
Ġdom ingo
Ġut ilities
Ġsuccess es
Ġulcer ate
Ġ16 4
Ġrequ isite
Ġfur s
Ġsac rament
Ġself ish
Ġaneurysm s
Ġdeb ilitated
cap tain
Ġrespect ively
Ġcourt ier
Ġver b
Ġ9 1
Ġ9 4
Ġ9 8
Ġissu ing
Ġemb ry
Ġemb assy
Ġ10 5
Ġmod eration
Ġmod ification
Ġdesp ot
Ġmist y
Ġbene fic
Ġlo an
Ġlo oting
Ġsad dled
Ġsad dles
Ġjud ged
ays arov
Ġexcl amation
Ġ8 3
Ġfa ire
Ġfright en
Ġund uly
Ġ186 4
Ġ186 7
Ġ15 5
Ġ15 7
Ġsun ken
Ġsun light
Ġost itis
Ġinform ing
Ġsecret ly
Ġbound ed
Ġwin king
Ġcomb ine
Ġorigin ated
Ġorigin ating
Ġaddress es
Ġsugg ests
Ġmaster ly
Ġur ge
Ġ11 0
Ġ11 1
Ġbill ion
Ġhast en
Ġcircum st
Ġpret end
Ġlive lihood
Ġinflamm ations
Ġnod ule
Ġtrust ees
Ġsup ersed
Ġ12 1
Ġbank rupt
thy ol
bl ood
Ġcartil ages
hold ers
Ġinterrupt ing
Ġcapt ivity
Ġpor ous
Ġ14 2
Ġmanif ests
Ġassist ants
Ġsuffr ag
Ġimpl ies
dra wn
leg ged
bo rescent
Ġbac on
Ġbreat he
Ġlou ng
Ġsmo othed
Ġdiagn ostic
Ġtrem endous
Ġcost ly
Ġabsor b
Ġmount ing
Ġeld ers
Ġspo il
Ġfate ful
Ġthreat en
Ġ30 2
Ġ32 6
Ġconce aling
Ġaffection ately
Ġdread fully
Ġcomfort ed
Ġprol ong
Ġabol ishing
Ġregular s
Ġdimin ution
Ġbott les
Ġloose ly
Ġtransf erence
Ġstruct ural
Ġsof ter
Ġconnect ing
Ġcou ples
Ġ36 0
Ġallow ance
Ġpursu ing
Ġgreen ish
Ġdomin ance
Ġ187 6
Ġ42 3
Ġliber ated
Ġbold ness
Ġcho ir
Ġcho king
Ġpref erence
Ġ26 0
Ġxx ii
Ġfee bly
Ġ40 8
Ġ23 1
Ġali ens
Ġ28 2
Ġleng the
Ġinnoc ence
Ġ185 7
Ġpred est
Ġrum or
Ġdelic ious
Ġconserv atory
Ġfavour s
Ġpri ze
Ġdav id
Ġstro de
Ġvac ant
Ġvac ancy
Ġmoist ure
Ġobst ructed
Ġ48 0
Ġ53 2
Ġ53 8
Ġbelong ings
Ġtur mo
Ġbow els
Ġ47 3
Ġ47 9
Ġprotect or
Ġsav iour
Ġsubs id
Ġsubs ides
Ġque bec
Ġwhit ney
Ġattain ment
Ġid leness
Ġinit iated
Ġ183 7
Ġrejo ice
Ġcolle agues
Ġwid ow
Ġ188 0
Ġtravel ers
Ġplatform s
Ġhind ered
Ġreb u
Ġfil ip
Ġfac ility
Ġinterfere s
Ġod d
Ġod ontoma
Ġric hes
Ġric hest
Ġconcent ration
Ġshame ful
Ġintim a
Ġintim ately
Ġruin ous
Ġoutl ook
Ġrenew al
Ġtwel fth
Ġec zema
Ġrib bons
Ġmyst ic
Ġrevol utions
Ġign at
Ġperplex ing
grow ths
aryn geal
Ġhide ous
Ġvers ion
Ġmir rors
Ġunfortun ately
Ġcaut ious
Ġsecre ting
Ġloyal ists
Ġrear guard
Ġdistrict s
Ġmag az
Ġshell s
Ġbas eness
Ġglit ter
Ġparagraph s
Ġgle e
Ġren ounce
Ġnob les
Ġprec aution
Ġpenet rated
Ġgangl ia
Ġquarrel s
Ġshr ank
Ġuns ight
Ġrestless ness
minded ly
Ġbul k
Ġamaz ing
Ġnaev i
Ġabn ormally
Ġattrib ute
Ġta pped
Ġentertain ing
Ġenvelop ed
Ġscrew ing
Ġdiam et
iro vich
Ġinsult ed
Ġthreatening ly
Ġemanci pated
Ġstit ch
Ġtroubles ome
Ġther m
Ġcas ually
Ġpuck ering
Ġchamp agne
Ġdisag re
Ġraptur ously
Ġexclus ive
Ġtort ured
Ġcultiv ated
Ġrecommend s
Ġjest ing
Ġmelt ing
Ġtempt ation
Ġcontempor ary
Ġdrubets kaya
Ġbuff oon
Ġliqu or
Ġabd uction
Ġsant o
Ġpitt sburgh
Ġreserv es
Ġpoll s
Ġbogdan ovna
Ġpredomin ate
Ġanticip ated
Ġsevente en
Ġfug itive
Ġcong ested
Ġearnest ly
Ġconject ure
Ġtranspl antation
Ġpalp able
Ġbat hed
Ġriv als
Ġshud der
Ġshud dered
Ġsap raemia
Ġjol ted
Ġmeek ly
Ġencl osed
Ġpregn ant
Ġdram atic
Ġstimul us
satis faction
Ġmos k
Ġforc ible
Ġforc ibly
Ġpled ge
Ġfoll icles
Ġsubd ued
Ġsales man
Ġmurd erer
Ġinstruct ive
Ġunreason able
Ġtun ica
Ġfis her
Ġprosec ution
Ġsubord inate
Ġswall owed
Ġaustral ia
Ġbisc uit
Ġmathem atics
Ġluc rative
Ġpromin ence
Ġpenal ties
Ġeyel ids
Ġdisgu ise
Ġnatal ie
phal angeal
Ġincred ible
Ġneglig ence
Ġsubmiss ive
writ ing
Ġreass ure
imper ial
Ġoutst retched
Ġclam or
Ġoffend ers
Ġcolumb ia
Ġspind le
Ġtram pled
Ġbeck oned
Ġscant y
Ġpoet ry
Ġvanqu ished
Ġvladim irovich
cour t
Ġejac ulated
Ġstap les
Ġsyring e
Ġlocomot ive
Ġquarre led
Ġdisadvant age
cra ft
Ġich thyol
anat omical
Ġrecl amation
Ġintol erable
Ġrelent less
Ġbolkons kaya
Ġfol ks
Ġpenc il
Ġmorm ons
opath ic
Ġhydra ulic
Ġsuperfl uous
Ġcornwall is
Ġhypoderm ic
tom orrow
tum ours
Ġbuz zing
omal acia
Ġunav oidable
Ġcourtes y
Ġunsatis factory
Ġsharpsho oters
biograph ical
fles h
wit ness
Ġhou ston
Ġporr idge
Ġinade qu
Ġthurs day
Ġlloy d
Ġeus ol
Ġshams hevo
Ġkel oid
Ġchichag ov
Ġunlaw ful
rychn in
Ġency clop
Ġcompuls ory
Ġturmo il
- "
. ;
. [
0 1
1 000
4 5
5 1
_ ),
a en
a ire
a emic
b red
b ably
b earing
c aries
c iliation
d ri
d ress
d erm
e nder
e ying
e gum
f ur
f riend
g an
h of
i ectasis
k rieg
l a
l ast
l ucky
m ust
m el
m outh
m ma
n ap
p ay
p oss
r d
r us
r ag
r ice
r ath
r ator
s ay
s ore
t old
u v
v s
w ord
y sem
z ens
z ling
Ġt ack
Ġt ire
Ġt ents
Ġt ild
Ġt ires
Ġt artar
Ġa k
Ġa ching
in n
in av
Ġo oh
Ġo tis
Ġs ack
Ġs iber
re con
Ġw ail
Ġw ield
Ġw ret
er ment
at ile
Ġb rib
Ġb apt
Ġc ud
Ġc here
Ġc oven
Ġc atiche
ed s
Ġh of
it age
it ures
en ch
en uated
Ġf red
Ġf erv
Ġf ili
Ġf ists
Ġf itting
Ġf aded
Ġp om
Ġp ir
Ġp ere
Ġp au
Ġp od
Ġp ile
Ġp atter
Ġp lym
Ġp ensions
Ġm ig
Ġm asons
Ġm uzz
Ġm acewen
Ġd ates
Ġd ip
Ġd up
Ġd arted
Ġd wel
as ingly
Ġl u
Ġl ust
Ġl ister
Ġl athe
ll or
Ġn ipp
Ġn aught
Ġe ll
Ġe tern
Ġe gy
le uc
le ave
Ġg ol
Ġbe er
Ġbe ams
al ways
Ġre ared
Ġre ined
st art
st one
st ige
id ered
ot hel
se ed
se ated
se au
ce le
Ġon ychia
Ġu ly
Ġwith stand
Ġst if
Ġst inging
Ġst umbling
Ġst urdy
Ġst rychnin
Ġfor d
Ġfor s
Ġan us
Ġr ut
Ġat h
Ġnot with
Ġcon cept
Ġcon clude
Ġfr ied
Ġfr agr
ol ence
ol ics
Ġor ph
Ġor ators
Ġor ifice
all ied
Ġse vered
Ġse psis
us cript
Ġde lt
Ġde jected
Ġde acon
Ġv ist
Ġv ive
Ġv oc
Ġv ib
Ġv incent
ri ety
and um
Ġsh ield
Ġsh ocked
Ġsh iny
Ġsh abby
Ġk aysarov
ac les
ac hev
Ġex h
Ġex ult
Ġex cluding
oo f
os um
os ia
os ities
os seous
os uria
ill usion
th rom
Ġne y
em art
if ts
if lex
Ġsa ble
Ġch am
Ġch art
Ġch artered
est own
Ġall ows
um ents
ist on
Ġar ray
Ġar ousing
Ġj ail
Ġj ingling
Ġro d
Ġro i
Ġro ared
Ġro pes
Ġup l
Ġup land
Ġup right
Ġint egum
Ġle ak
Ġle aps
Ġun well
Ġun obs
ie nd
Ġdo zens
our able
Ġdis gr
Ġdis rupt
Ġdis like
Ġdis abilities
Ġdis illusion
Ġman ila
Ġman uscript
Ġam mon
Ġad am
Ġad ore
Ġad here
un ited
ort al
Ġkn ocking
Ġkn elt
Ġco des
Ġmy ositis
Ġout sp
ast ically
Ġen f
ount ed
ke e
pl ing
ost itis
au x
od ed
od ies
od ox
Ġcl ar
Ġapp l
Ġcont ra
Ġcont ended
Ġcont ests
Ġcont usions
av or
Ġpier ced
itt ent
Ġtr aged
Ġtr agic
Ġunder ne
Ġunder gone
Ġsm ugg
Ġsm ashed
Ġany how
Ġres umption
Ġcan n
Ġrep ent
Ġli king
Ġli ghter
Ġbl oss
Ġbl ush
Ġbl onde
Ġbr ut
Ġbr ittle
Ġbr istol
Ġind ict
ang ible
ang ioma
Ġover land
Ġpe g
Ġpe ep
Ġhand ic
Ġper ishing
Ġgr aciously
int ed
Ġinf amous
Ġgl oss
Ġcomp on
Ġcomp el
Ġimp act
Ġimp action
Ġpre rog
Ġpre stige
Ġatt ains
Ġatt entions
Ġatt enuated
Ġexp ed
anc ier
Ġgen ial
ull ed
Ġsc ru
ens able
Ġmar ine
Ġmar aud
Ġstr agg
Ġsl og
Ġ2 000
Ġ2 20
Ġ2 17
Ġ2 19
Ġ2 14
Ġcar ious
Ġcar go
Ġcar ries
Ġob eyed
Ġob edient
Ġus es
Ġent angled
Ġ18 11
Ġaff erent
ne uro
so id
Ġoffic ially
ole t
Ġac ad
... !"
Ġ4 18
lt on
Ġhead long
Ġdist ract
Ġdist rust
Ġpol ished
pe ople
Ġconf orm
Ġret ro
Ġret ract
Ġret raction
Ġend ured
Ġend othel
Ġback s
Ġchar red
Ġeng age
Ġcour ses
Ġref in
Ġadd s
Ġdef erence
Ġdef iance
Ġinv ite
cul ine
Ġpat rick
man y
Ġstate ly
Ġtal ents
Ġ5 14
Ġexpress es
Ġear ned
vers ion
Ġdep ending
Ġdep utation
Ġblood less
Ġel abor
Ġmus ical
Ġke eper
). ]
Ġph ases
ane an
Ġmor ally
Ġmor phin
Ġdra ught
Ġsin cerity
Ġred ucing
Ġfact ion
rem ember
Ġadm its
Ġbo om
pr udence
Ġcountry side
Ġcongress ional
Ġdet ective
Ġimport ed
Ġsign ature
Ġbus hy
Ġbus hel
Ġhard ened
ck et
Ġtum bler
Ġpa wn
Ġpa using
ars en
Ġtub es
Ġra z
Ġra ft
Ġcur ve
Ġcur ling
Ġprop osing
Ġprop riety
Ġprev ail
Ġlad en
Ġul na
Ġexpl ore
uct ible
Ġworld s
Ġ17 0
Ġ17 1
Ġ17 3
Ġ| .
bur y
Ġhorse flesh
Ġpo lled
Ġcamp s
ym ous
Ġprot opathic
for ward
hen ous
Ġten o
Ġmass acre
Ġill ustration
Ġproject ion
Ġlater ally
ron omy
Ġvas ilich
ocr atic
Ġorgan izing
Ġdev ast
Ġdev ise
form ation
Ġlymph ocyt
Ġfib romatosis
Ġnational ities
ery the
Ġdoub ly
Ġequ ipped
arm s
Ġbelie ves
Ġever ted
Ġball oon
Ġreason ably
Ġnews let
Ġpleas ing
ik ov
ex cept
ex isting
Ġsit es
Ġwal ks
Ġshort ening
Ġprocess ion
Ġgir lish
Ġsn ap
Ġsn orted
Ġge omet
Ġexce eding
Ġhy aline
Ġhy groma
Ġval or
rang ement
Ġann ually
ric ate
how ever
Ġbag s
Ġfur ious
Ġsac rum
Ġsal on
Ġsal ute
Ġpract ised
Ġwater loo
Ġster ile
Ġvict ims
Ġalex is
Ġty ran
Ġstri fe
Ġyork town
Ġsens ations
Ġinqu is
Ġlo vers
Ġap one
Ġinn ominate
Ġ8 8
Ġforg iven
Ġprim arily
Ġcre ak
Ġcre pt
Ġfresh ness
Ġhar bor
Ġenl isted
Ġsol icit
Ġcop se
Ġcop ied
Ġcop ious
Ġwrit s
Ġwood row
Ġexec uting
Ġfavor ing
Ġbit ing
she ll
Ġindustri ous
Ġmur dered
mon ary
Ġadminist rations
Ġdecided ly
Ġ11 9
Ġpun ch
Ġobl iv
Ġinterv ening
Ġcommun ities
nat ural
Ġpopular ly
Ġpopular ity
Ġnod es
Ġben ev
Ġ12 7
Ġstraight ened
Ġbank ers
Ġviol ated
Ġlatter ly
Ġstret ches
Ġrestr aining
Ġnote book
Ġban ner
Ġ14 3
Ġbir ches
Ġphil anth
af er
Ġimpl ication
Ġimpl oring
Ġmater ially
Ġwarm ed
bo at
Ġdistur bing
Ġdepart ments
Ġbreat hed
quest ion
Ġsmo othing
eng lish
Ġfrank ness
Ġpeculiar ity
asp ing
Ġ189 3
Ġ189 4
Ġsocial ist
Ġ20 2
Ġ20 5
Ġstat ements
Ġrupt ures
Ġfract ured
Ġ30 9
Ġast ronomy
Ġsubm itting
ĠĠĠĠĠĠĠĠĠĠĠĠĠĠĠĠĠĠĠĠĠĠĠĠ ĠĠĠĠĠĠĠ
Ġabol ish
Ġregular ly
Ġfair y
Ġburst s
Ġconflic ting
Ġspec ified
Ġ43 0
Ġ43 2
Ġ46 4
Ġforth coming
Ġfaith fully
Ġgreen backs
Ġ52 2
Ġ52 7
Ġminute ly
Ġtriumph antly
Ġtall ow
Ġcru elly
Ġunf inished
Ġ50 6
Ġpurch as
Ġpurch ases
Ġsympath ized
Ġsho res
Ġaut on
Ġ23 3
pap er
Ġconcl usive
Ġ28 7
Ġivan ych
Ġ39 2
Ġ185 2
Ġcontempt ible
Ġbil ateral
Ġmort g
Ġmort emart
Ġdil ate
Ġrum y
Ġdeleg ate
Ġsorrow ful
Ġpri or
Ġstro king
Ġfund ing
Ġundert ook
Ġ35 1
Ġ35 3
Ġcorn et
inc re
Ġ48 5
Ġ53 1
Ġmild er
Ġwatch man
Ġ47 4
Ġcloak s
Ġsav ings
Ġ37 0
Ġyellow ish
Ġ24 2
Ġ24 7
Ġ34 0
pet er
Ġana erob
Ġnec ros
Ġ38 5
Ġfer ry
Ġfer din
Ġ183 6
Ġrecur red
Ġrejo iced
Ġwid ened
Ġnice ly
Ġencour aging
Ġarbit r
Ġafford s
Ġfac ilities
Ġcorps es
Ġawkward ness
Ġpistol s
Ġstorm ed
Ġpossess es
Ġpossess or
Ġcub an
Ġenact ment
Ġserge y
Ġreven ues
Ġcher ry
Ġ44 2
Ġ44 3
Ġsimpl er
Ġdemonst ration
Ġwitness es
Ġmas culine
Ġproud ly
Ġdisloc ated
Ġspeed y
Ġach ieved
Ġsan ct
Ġnurs es
Ġtot ally
anes cent
Ġmyster ies
Ġprompt ed
Ġjealous ies
Ġident ify
Ġincl ine
Ġincl ination
Ġretain ing
Ġsem ic
Ġenv ious
Ġperipher y
Ġreluct ance
Ġdepos its
Ġtut ors
Ġdors iflex
Ġpron ounce
Ġcontrib ute
Ġchond ro
Ġfet ched
Ġtext ile
Ġcooper ative
cont empor
Ġcup board
Ġdun can
Ġtwit ch
Ġerr one
Ġemph ysem
Ġ184 4
Ġnomin ating
Ġconven ience
Ġillust rate
minded ness
stit ial
Ġbru ising
Ġwarrant y
Ġcalc ified
Ġgar field
Ġentertain ed
60 6
Ġexud ation
Ġfreehold ers
Ġmart in
Ġmart yr
Ġnovel ty
clot hes
Ġflor a
Ġintest inal
Ġnois y
Ġscand inav
Ġindefinite ly
Ġconfident ial
Ġboot y
Ġlymphang ioma
Ġtrades man
Ġfulfill ment
Ġhyp ot
Ġannoy ed
Ġduct s
Ġclergy man
Ġadvis ers
Ġhopeless ly
Ġselect ing
Ġoverth rown
Ġrecommend ation
Ġpour ing
Ġey ford
Ġpavlogr ads
burn ed
Ġthread s
Ġrag s
Ġarsen ical
Ġspont aneously
Ġdisint egr
Ġresc ued
Ġpolitic ian
Ġstrip es
Ġliqu id
Ġguess ing
Ġleisure ly
supp ly
Ġdiplomat ist
Ġdiplomat ists
Ġjuris prudence
Ġgren ville
Ġimpet us
Ġdiscon nected
Ġmagnanim ous
Ġconquer or
Ġwhir l
Ġaggress ive
Ġentreat y
Ġdiscrim ination
Ġdisclaim er
Ġdishon orable
Ġhud dled
Ġtol stoy
Ġactinomy ces
Ġcorrupt ion
Ġerupt ions
Ġocclud ed
Ġcripp led
Ġcath olics
Ġgal van
Ġgree ley
Ġras c
Ġras cal
Ġbliss ful
Ġsentin els
Ġtranspl anted
Ġconj unction
Ġconj unct
Ġsap henous
Ġdisgrace ful
Ġfores aw
should ered
Ġscrut iny
Ġkarag ins
Ġcontempl ate
satis fied
Ġpul monary
Ġdus ky
Ġtow er
Ġeffic acious
Ġjew s
Ġnikol enka
Ġunreason ing
Ġom itted
Ġfis ke
arter itis
Ġoverwhel med
Ġpatron age
Ġboast ed
Ġdecre ed
Ġswall owing
Ġilleg itimate
Ġacknowled ged
Ġdisfig urement
Ġscan ning
Ġregist ered
Ġperme ated
Ġboss es
Ġcau cus
olit an
Ġreprod uced
Ġperitone um
Ġmetacarp al
Ġrelaps ing
Ġeleg ant
Ġsalic yl
Ġingen ious
Ġmalle olus
Ġgy psy
Ġgor ki
Ġrav ine
Ġgeograph ical
Ġhaemophil ia
hung ary
Ġtug ged
Ġov ary
Ġps ych
Ġpear ls
Ġintegr ity
Ġindisp ensable
Ġperone al
Ġretic ule
Ġhydat id
Ġtelegr aph
Ġureth ra
jack son
Ġsess ions
Ġdit ch
Ġreapp eared
Ġseam en
Ġsuic ide
Ġabomin able
Ġemac iated
Ġbland ly
Ġscout s
Ġsket ch
Ġelectro lysis
Ġzak har
Ġcarpent ers
Ġuv arov
Ġunanim ous
Ġenr aptured
Ġrepud iated
Ġcavern ous
Ġinsol uble
Ġsubstant ial
Ġtribun al
Ġcateg ory
Ġgh ost
Ġjam estown
Ġagg reg
Ġappalach ians
Ġconting encies
Ġeliz abeth
Ġcrum pled
Ġtrop ical
Ġfacilit ate
Ġdorog omil
Ġcongreg ation
epitheli oma
bin in
lou is
Ġsain ts
Ġorth odox
Ġunmar ried
Ġadap ted
Ġadequ ate
unci ation
Ġcounten ance
Ġreminisc ences
Ġindist inct
Ġpertur bed
Ġimpe achment
Ġmonaster y
Ġgriz zled
Ġmagist rate
Ġtherapeut ic
poison ing
Ġwintzinger ode
list en
Ġomin ous
Ġbif urc
Ġpse udo
Ġthom son
Ġeag le
Ġcarcin oma
Ġmemor andum
Ġsupersed ed
Ġsuffrag ists
Ġpredest ined
Ġunsight ly
krieg s
Ġsiber ia
Ġcud gel
Ġplym outh
Ġdwel t
Ġetern ity
Ġegy pt
Ġnotwith standing
Ġdelt oid
Ġintegum ent
Ġunderne ath
Ġmaraud ers
Ġendothel ial
Ġtyran ny
Ġphilanth rop
Ġferdin and
contempor aries
Ġdorogomil ov
" )
" .
) --
- ,
5 3
5 4
7 7
9 7
a ena
b il
b ill
b ell
b ite
b ank
b sk
c ity
c orr
d ist
d one
d ry
d aughter
d irect
e lection
f al
g ic
g am
h m
h igh
h ni
i as
i rew
i ority
i antly
i ams
k ne
l ip
l ined
m or
m ill
m iss
m akers
m cmaster
n amed
n zy
n uclear
p ha
p ool
r ons
s c
s it
s im
s out
s ha
t ion
t end
t xt
u able
u gn
v ous
v na
w ife
x ious
y lic
y arosl
z d
Ġ &
Ġ +--------
Ġ erythe
Ġt at
Ġt ed
Ġt ough
Ġt el
Ġt ip
Ġt ying
Ġt erent
Ġt ula
Ġt angled
Ġt abes
he ast
Ġa pe
Ġa ps
in us
in ates
Ġthe or
Ġthe ology
Ġs ie
Ġs ample
Ġs angu
re na
Ġw ur
Ġw ob
er ant
er ates
er land
at ical
at ches
Ġb w
Ġb its
Ġb ars
Ġb ows
Ġb asket
Ġc os
Ġc ured
Ġc hern
Ġc rest
Ġc eded
Ġh ans
Ġh ob
it i
Ġf are
Ġf issu
Ġf uel
Ġf iance
Ġf encing
Ġf athom
Ġf irew
Ġp w
Ġp ult
Ġp ud
Ġp ater
Ġp airs
Ġp omp
Ġm u
Ġm ould
Ġm asha
Ġm amm
Ġm esh
Ġand ree
Ġd w
Ġd ent
Ġd and
Ġd art
Ġd ub
Ġd ia
Ġd ances
Ġd umb
Ġd ares
Ġd otted
Ġd azed
or us
or um
an se
an ity
an king
Ġth ither
Ġth ieves
Ġl en
Ġl ure
Ġl ys
Ġl ists
Ġl ax
Ġl ots
Ġl ash
Ġl apse
Ġl ids
Ġn est
Ġn un
Ġn ick
Ġhe d
Ġhe eding
om on
om atosis
ic ian
Ġe ther
Ġe ats
le v
le ar
Ġg am
Ġg ases
Ġg ully
Ġg omp
Ġg ips
Ġg ilt
Ġg ums
Ġg ifted
al abama
ent ric
ad y
Ġre igned
Ġre ceptions
ro pl
ro be
ro osevelt
st ri
st aking
st ruction
st aphyl
im ony
Ġwh ither
Ġwh ips
ct urn
Ġwith held
ur ring
Ġas semble
Ġfor ts
Ġr ouse
Ġr aces
Ġr uth
Ġr ash
Ġr ational
ch ym
ch arm
ch amber
Ġat ax
Ġnot ions
Ġnot ices
Ġnot orious
Ġcon ceptions
Ġha vers
Ġha gue
Ġfr aming
ter tiary
ess ful
il un
ul ance
ul ously
ul cers
Ġse ced
Ġse aling
Ġde ception
Ġde wey
Ġsu its
Ġsu itor
Ġsu kh
Ġsu llen
Ġv ig
Ġv ite
Ġv ocation
ri e
ri le
ri vers
-- -+
and am
Ġsh ill
Ġsh red
Ġsh iver
Ġsh oe
Ġsh ift
Ġsh irts
Ġk itten
Ġso ber
Ġbut ter
em b
em berg
ag ers
ag gl
if ies
ov ites
Ġch ate
Ġch anced
Ġch agr
Ġch ilbl
Ġch asse
ant sev
ak h
um sy
Ġshe ets
Ġshe lf
Ġpro se
Ġpro ver
Ġpro state
ist ice
ight y
." =--
Ġal k
ig ate
Ġar n
Ġar gue
Ġar bat
Ġar borescent
Ġsp ic
Ġsp ies
Ġsp un
Ġsp au
Ġsp urred
Ġle x
Ġfe l
Ġ1 12
Ġun ac
Ġun att
Ġun aware
Ġun cont
ie u
Ġdis pleas
Ġman ors
Ġam bit
Ġad verse
per itone
Ġkn itted
cc essful
Ġco iff
ge ance
Ġno on
Ġno cturn
Ġwhat so
Ġthem e
ast rop
Ġfre nzy
act ions
pl ay
Ġev olved
Ġev anescent
Ġwor rying
Ġwor ship
row ing
el ine
el son
od der
Ġcl inging
Ġcl umsy
Ġoff spring
Ġtr ay
Ġpart ing
Ġpart isans
Ġres igned
Ġres orted
Ġcount less
ear ners
Ġrep ress
cl oth
Ġli kes
Ġbl ast
Ġbl under
Ġbr ass
Ġbr ains
Ġover l
Ġover grown
Ġwill ingly
Ġwill iams
Ġform ulated
Ġform insk
Ġper ine
Ġgr ade
Ġgr ands
Ġgr imes
Ġarm en
Ġarm istice
Ġcomp at
Ġcomp lying
Ġcomp rehens
Ġcomp ressible
Ġimp ot
Ġimp ose
ph otograph
Ġexp osition
Ġexp edient
Ġexp anse
Ġfl ur
Ġfl ies
Ġfl aps
Ġfl itted
Ġfl aming
oss aise
Ġpres ervation
uc er
Ġsc aff
Ġmar au
Ġdown y
Ġstr oma
Ġstr ides
Ġstr aggl
Ġeven ly
Ġsl anting
eric k
omet er
Ġ2 11
Ġus er
Ġus age
Ġus hered
ily ch
te x
Ġdes criptions
Ġ18 00
Ġ18 15
Ġ18 28
Ġact or
Ġpass port
Ġpass enger
Ġaff inity
ne braska
so ft
Ġseem ing
Ġseem ingly
Ġwhere by
ave ts
Ġsk irts
ru ed
Ġdist ension
Ġinter stitial
Ġinc ons
Ġinc idence
Ġsupp osition
og ical
Ġend anger
Ġend urance
Ġass ert
Ġconst rued
Ġcap rice
Ġfound ing
Ġcor ns
Ġcor pse
Ġhouse keeper
ys hev
Ġkne eling
Ġread s
Ġrec ons
Ġrec urs
Ġinv ention
cul o
Ġser b
Ġser pentine
Ġpat ent
Ġpat rol
ev il
Ġbro ok
Ġes char
Ġ5 18
Ġfore cast
Ġdon ation
Ġear nings
Ġhor ny
Ġleg ally
Ġpain staking
Ġgu ise
Ġvar iously
Ġvar iation
Ġins ight
Ġfree zing
Ġwr ought
Ġpar ish
Ġpar otid
Ġred ress
Ġconv ictions
Ġmon k
ren ces
Ġpress es
Ġchap el
Ġnear ing
sh all
Ġpresent iment
Ġcr ut
Ġcr amp
Ġdi arrh
Ġdec ent
Ġdec iding
Ġtro chan
Ġtro itsa
Ġwork man
Ġdet ain
Ġamong st
Ġnum bered
de ath
de wey
Ġbus h
Ġhard y
Ġ19 2
Ġ19 6
Ġ19 21
Ġsw itz
Ġsw andam
Ġran ch
Ġimm eas
Ġimm ortal
Ġdear ly
pect ive
Ġbon net
Ġcur v
Ġcur tis
Ġtrans ient
Ġprom ising
Ġbur y
Ġbur nt
Ġexpl os
Ġexpl ored
Ġed ited
Ġste in
Ġste pp
Ġste alth
Ġpap ules
Ġpap illoma
Ġcamp an
Ġloc ation
for give
Ġaw fully
hen ce
Ġten n
Ġtra ction
Ġproject iles
Ġpop ulous
Ġdirect ors
Ġmad rid
Ġpublic ation
Ġep ic
Ġep au
Ġarter itis
Ġhelp ful
Ġhome ly
Ġ6 8
Ġ6 9
Ġdri ll
ung ual
Ġsubject ion
Ġsoft ware
Ġtubercul in
Ġreal ise
Ġhur ts
Ġsn atch
Ġbar riers
Ġav owed
Ġpeace fully
ah o
Ġdark ened
Ġgre asy
Ġrepres ents
Ġgra vel
Ġval iant
gr ay
Ġsum mar
Ġvill a
Ġelect ive
Ġelect rical
rang ed
Ġaccount ed
Ġann ouncing
Ġsqu amous
Ġer a
Ġer za
Ġexperi encing
aff ections
Ġsal iva
Ġz hil
Ġrid ers
Ġpract ices
Ġpow d
Ġver se
Ġver ge
Ġver anda
Ġsuper b
Ġcontro lling
Ġnerv ously
Ġmed ia
Ġemb olic
Ġ7 6
Ġ10 8
Ġsens ory
Ġquar tering
Ġgun ner
Ġbene f
Ġlo ad
Ġdead lock
Ġcy an
rod ent
Ġtor ture
Ġrub le
Ġ8 1
Ġmal o
Ġmal v
Ġund o
Ġund ress
Ġund ue
Ġund ef
Ġsatis factor
Ġhar riet
Ġthick ly
18 65
Ġprogress es
Ġaccept ance
Ġwood ed
ĠĠĠĠĠĠĠĠĠĠĠĠĠĠĠĠĠĠĠĠĠĠĠĠĠĠĠĠĠĠĠĠ ĠĠĠĠ
ĠĠĠĠĠĠĠĠĠĠĠĠĠĠĠĠĠĠĠĠĠĠĠĠĠĠĠĠĠĠĠĠ ĠĠĠĠĠĠĠĠĠ
Ġost ermann
Ġspecial ist
ogen es
Ġpath s
Ġwin ked
Ġpal pation
Ġsch mid
Ġlig atures
Ġur inary
Ġ11 3
Ġinterv ene
Ġpret ensions
Ġcommun is
Ġcommun ion
Ġfibr inous
Ġfurther more
Ġdeterm ines
Ġsend s
Ġ12 2
Ġ12 3
Ġ12 5
Ġ12 8
Ġmarked ly
Ġextens ively
Ġaccompan iment
Ġviol in
Ġoste omalacia
Ġlod ging
bl est
bl ade
Ġroyal ties
Ġemp yema
Ġdeform ed
Ġ14 5
Ġforget s
Ġphil ip
Ġmult itude
Ġimpl ored
pro gress
pro bably
Ġinh ib
Ġder iv
Ġmention ing
Ġtrem ulous
Ġcost s
Ġ189 9
Ġamount ed
Ġamount ing
Ġrich mond
Ġvan ish
Ġdistingu ishing
oe a
Ġstat ue
Ġwa vering
agr am
Ġscr atching
Ġ32 9
Ġdrag oon
Ġguards man
Ġhyper ostosis
Ġarth ropathies
Ġven geance
Ġresemb led
Ġoblig e
Ġbuild ers
Ġeager ness
Ġconsist ently
Ġtop ical
Ġdie u
Ġ46 1
Ġstir rup
Ġexcited ly
!' "
Ġcat astrop
Ġyell ed
Ġ36 3
americ a
Ġcommission er
Ġconsequ ent
Ġconsequ ential
Ġdomin ant
Ġcab man
Ġ187 3
Ġ42 4
hy per
Ġmagn ates
Ġ25 1
Ġ27 2
Ġ27 5
Ġ50 3
Ġnarrow ed
Ġ26 6
Ġxx iv
Ġxx iii
Ġfamiliar ity
Ġrepro aches
Ġ40 1
Ġcorrespond s
Ġ23 0
Ġ23 8
Ġ28 1
Ġ49 8
Ġ49 9
gra fts
Ġdegen erative
Ġjer k
Ġna ively
Ġreve aling
Ġhut s
Ġ185 4
Ġschool boy
Ġmort gage
Ġpot ent
Ġ190 2
Ġgarden er
Ġattend s
Ġ29 7
Ġlangu ages
Ġpill age
Ġ53 9
Ġparliament ary
Ġmat as
Ġmat rena
Ġuncom pl
Ġ47 1
Ġmonth ly
Ġmel on
Ġartillery men
Ġhospital ity
Ġ37 5
Ġfunction al
Ġgest ures
Ġ34 5
Ġnec ks
Ġfold ing
Ġ45 1
Ġ45 4
Ġdepri ving
Ġexper t
igr ant
Ġtempor al
Ġlog s
Ġrejo in
Ġrejo inder
Ġavail ing
Ġwild ly
Ġstar ry
Ġstar ving
quet te
Ġ188 7
Ġfit ness
Ġencour agement
isp here
Ġfil m
Ġfil es
Ġfil aments
Ġrough ly
Ġproceed s
Ġcard board
Ġfac ial
Ġva ult
anci ers
Ġshame faced
Ġskill fully
Ġrese cting
Ġuseless ly
Ġstorm y
Ġelastic ity
Ġreven ge
Ġapr aks
Ġfix ation
Ġsequest ra
Ġovert aken
Ġ33 7
Ġec ossaise
Ġdemonst rate
Ġdemonst rations
Ġrevol ver
Ġpunct ures
Ġunlike ly
Ġdisloc ations
Ġadmir ing
Ġadmir al
Ġthrust ing
Ġtrave lled
iot abes
Ġperfor ation
tt emberg
Ġinsp ire
Ġident ified
Ġvers a
Ġcere bral
Ġmir th
Ġmac erated
Ġsem ilun
Ġspasm od
Ġappreci ation
Ġflag s
Ġmanufacture r
organ ized
Ġber yl
Ġpub lis
Ġconc ur
Ġrestrain ts
lo ading
Ġlot ions
Ġblind fold
Ġcompet ent
Ġreward ed
Ġbutt ons
Ġdisorder ly
Ġemotion al
fib roma
cler osed
Ġerr atic
Ġexperiment al
Ġlamp s
Ġchanc res
Ġcler ical
Ġcler ks
Ġaccur acy
Ġbul ky
Ġsurv ived
Ġaltern ate
Ġinfilt rated
Ġprotest ing
inf ection
Ġ54 4
Ġtast es
Ġderm atitis
Ġlun atic
Ġflor id
Ġfier y
Ġhem isphere
Ġrent s
Ġrom an
Ġnois ily
Ġoccl usion
Ġepiphys es
Ġenerget ically
Ġconfident ly
conf idence
Ġsheep skin
clav icular
Ġendeav ouring
Ġbleed ers
count ess
Ġvel ocity
Ġscoundrel s
Ġisol ation
Ġanth ony
Ġbutton ed
Ġbutton ing
Ġuncon cer
Ġench anted
Ġclim ax
Ġpictures que
Ġexpans ile
Ġstrept ococcus
Ġhoarse ly
Ġjap anese
Ġmakar in
Ġdiscont ented
Ġpopul ist
Ġtempt ations
burn s
Ġmead ows
Ġemer ge
Ġindul gence
Ġflood ed
Ġrecon cil
Ġrecon ciliation
Ġnom inal
Ġkir ilych
Ġdisappro val
Ġdisappro vingly
---------------- ----------------
Ġecst asy
diff erential
hum an
hum ored
Ġbust ling
Ġcyl inder
Ġrab bit
Ġchim ed
Ġinval uable
Ġcens us
Ġcens ure
Ġlux ury
Ġlux urious
Ġnewcom ers
Ġreflect ing
Ġmonop olies
Ġmodest y
lad y
Ġmour ning
Ġegg s
Ġbee keeper
Ġinterpre ted
Ġconstr aint
Ġirre proach
Ġtransl ated
Ġrailroad s
Ġbewild erment
Ġbohem ian
Ġprofess or
Ġprofess ions
Ġdissent ing
Ġdissent ers
Ġocclud es
Ġskiagr am
Ġcripp le
Ġvenezuel an
Ġcough ing
Ġconject ures
Ġscream ing
Ġcomplain ts
Ġdanc ers
ropath y
Ġintens ified
Ġemerg ing
Ġpregn ancy
Ġinterm ediate
mot or
Ġdens ity
Ġlob ulated
Ġdisinf ection
Ġpled ged
Ġexpend itures
Ġeffic iency
Ġinsist ence
Ġtheat rical
Ġfung ating
oton os
Ġalm ighty
Ġunsu itable
Ġunsu ccessful
Ġdisorgan ized
Ġbride groom
Ġillum inated
Ġaustral ian
Ġtick et
Ġbisc uits
Ġmant le
Ġheir s
haem orrh
Ġscan ned
Ġmineral s
Ġveter ans
Ġadjust ment
Ġsymb ol
Ġard or
Ġami ably
Ġperitone al
Ġrelaps es
Ġsalic ylic
Ġingen uity
Ġdiamond s
Ġsulph ur
Ġinse cts
Ġshak os
Ġmyx omatous
Ġresident s
Ġflut tering
Ġsubl imate
bel ieve
somet hing
Ġcul min
Ġproc ured
Ġdiscer n
Ġknaps acks
Ġenfranch ised
Ġconvict s
Ġoppress ive
Ġunfav orable
Ġfacult ies
Ġcush ion
Ġtoler ated
Ġrecess es
Ġrand om
Ġevac uation
Ġoverfl owing
Ġentrench ments
Ġretal iation
Ġcourte ous
Ġspokes men
Ġgrenad iers
Ġglycer in
Ġmultipl ied
eff ect
Ġling ered
Ġecc entric
Ġgast ro
Ġprost rate
Ġjab ez
Ġoverhe ard
Ġcompass ion
Ġbehav ior
cran on
Ġbour bons
Ġbish op
Ġpell ets
Ġdaz zling
Ġdwar f
Ġnort on
Ġniz hni
Ġrevel ation
Ġdepl ored
Ġabr asion
Ġunlim ited
Ġpresum ably
exc use
Ġantip athy
Ġembar go
Ġthrob bing
build ing
Ġsokol niki
bacter ial
Ġtacit urn
Ġegot ism
Ġrelic s
Ġkam ens
Ġunloc ked
Ġdisin fect
Ġglute al
Ġcaes ar
Ġdivor ce
Ġundes irable
Ġmultip ly
Ġreinforce ments
Ġenlighten ment
offic ial
py ogenic
tetan ic
Ġbaff led
Ġcert ific
Ġlem on
Ġnuis ance
Ġgestic ulating
Ġcha os
Ġappli ances
Ġglist ening
phyl axis
Ġstren uous
Ġelong ated
Ġrebu ild
Ġdiamet er
Ġmosk va
nap oleon
rus ha
Ġtires ome
recon struction
Ġfred erick
Ġmuzz le
Ġleak age
Ġtraged y
Ġcann ula
Ġlymphocyt es
Ġapone u
Ġrumy antsev
incre asing
Ġnecros ed
Ġsemic ir
Ġhypot hesis
corr adi
kne e
sout hern
yarosl avets
Ġaps her
Ġsie ge
Ġwur ttemberg
Ġchern yshev
Ġandree vich
Ġgomp ers
Ġhavers ian
Ġvite bsk
rivers ide
Ġchate au
Ġspau lding
Ġdispleas ure
Ġambit ious
Ġwhatso ever
Ġgrands on
Ġgrimes by
Ġstraggl ers
Ġdiarrh oea
Ġtrochan ter
Ġswitz erland
Ġzhil inski
Ġsatisfactor ily
Ġschmid t
Ġcatastrop he
Ġsemilun ar
# .--
' ?
) :
7 5
8 0
8 8
9 8
a lex
a ires
b ad
b ooks
c oo
c ock
c oun
c arp
c ites
d ated
d uring
d isl
d iph
e w
e at
e ous
e cess
e lect
f er
f ell
g a
g out
g erm
g ments
g ency
g iving
h all
h art
h ome
h yl
h olic
j ohn
k ar
l oss
m ind
m osc
m ante
n ce
n ie
n ine
n itz
o king
p a
p g
p on
p ing
p an
p ace
p ast
p opular
r am
r able
r ough
r ates
r ices
r usion
r uble
s ir
s ol
s ier
s we
s burg
s ermann
t ar
t oo
t ill
v ier
v iz
v ars
w s
w ine
w ater
x son
z es
Ġt ver
Ġt il
Ġt att
Ġt ests
Ġt unn
he g
he veled
Ġa verse
Ġa verted
in arily
in ova
Ġthe ore
Ġo ven
Ġs i
Ġs ag
Ġs ord
Ġs ings
Ġs clerosed
re te
re ctions
Ġw ri
Ġw ight
Ġw ig
Ġw its
Ġw ards
Ġw rest
at um
at hed
Ġb ang
Ġb ord
Ġb ug
Ġc ott
Ġc ache
Ġc ante
ed uc
Ġh ier
Ġh ath
Ġh ired
Ġh ugh
it ory
it ching
it ox
Ġf id
Ġf oss
Ġf odder
Ġp on
Ġp aw
Ġp ained
Ġp als
Ġp ots
Ġp iled
Ġp oore
Ġp atting
Ġp soas
Ġm all
Ġm are
Ġm ail
Ġm aps
Ġm ik
Ġm uff
Ġm ocking
Ġm igr
Ġm oles
ou ter
Ġin im
Ġin land
Ġin ert
Ġd ing
Ġd ur
Ġd ough
Ġd ans
Ġd ys
Ġd ump
Ġd rows
Ġd nie
Ġto ol
or th
or ph
ar at
an an
as ible
as ya
Ġl il
Ġl ame
Ġl ugg
Ġn ous
Ġhe ll
Ġhe ss
Ġhe ctic
om an
om atic
Ġg id
Ġg ames
Ġg ale
Ġg ape
Ġg amb
Ġbe au
al es
ent iful
ad r
Ġre ci
ro aches
st y
Ġwh il
se ptic
ve lled
ce lled
Ġit ching
Ġwas sermann
ay ka
Ġas cites
Ġst ove
Ġst agn
Ġst aid
Ġst ifle
et iology
Ġy an
ir ted
Ġan aemia
Ġr i
ch ment
Ġat ro
Ġat her
Ġat one
ere s
Ġcon cession
Ġha iled
Ġha iti
Ġfr iv
Ġfr ail
Ġor b
Ġor is
il ight
us cum
us ale
Ġsu ng
Ġsu ites
Ġv ogue
ri a
ri um
-- (
and ed
Ġsh uff
Ġsh aping
Ġk ins
ac ies
Ġex qu
Ġso ap
ers ion
ill ips
Ġcom ed
ag us
ag ration
if lower
Ġsa vel
ov o
ov sk
Ġch an
Ġch yle
est inal
Ġall usion
ant ile
ak ings
ab us
ab ling
Ġwere n
Ġshe er
Ġshe lled
Ġal bert
Ġal oof
Ġal pha
ate ful
Ġar id
Ġar ched
Ġj ar
Ġj elly
Ġare na
Ġsp ray
Ġro ok
Ġwe ed
Ġwe arily
ard y
out ed
red ited
Ġle ve
Ġfe asible
Ġun e
Ġun ce
Ġun cond
Ġun sh
Ġun gr
Ġun acc
Ġun seem
Ġun think
Ġun employ
Ġun question
ie ving
ies cent
Ġdo d
Ġdo ff
Ġdo zed
Ġdis qu
Ġdis eng
Ġdis heveled
Ġam ple
ome l
ther itic
Ġkn ives
Ġco b
Ġco er
Ġco cci
Ġco cks
Ġno blest
Ġmay be
Ġim age
Ġim itation
Ġim itate
Ġout law
Ġout sk
ast ened
ast asya
Ġen ric
Ġpl ait
Ġpl aint
Ġpl entiful
Ġag it
Ġag ra
Ġag ility
Ġfre t
ind ing
ell igible
Ġqu itted
Ġqu iescent
od ied
Ġcl aw
Ġcl apped
Ġapp ell
Ġapp rent
Ġapp alling
Ġcont ag
ans hip
Ġtr ab
Ġpart ition
Ġres id
Ġres isted
ear th
Ġem in
Ġem ig
Ġrep ose
Ġrep rim
Ġrep ulsion
Ġrep ugn
ub b
Ġcomm une
Ġcomm enced
Ġli kh
Ġrem n
Ġbr ute
Ġbr icks
Ġind o
Ġind ig
Ġind isc
ang ling
Ġover sh
Ġover coats
Ġover came
Ġtw ilight
Ġpe w
Ġhas n
fore seen
Ġper it
Ġper ils
Ġgr m
int sev
int estinal
Ġtime ly
Ġgl ided
Ġgl iding
Ġgl azed
Ġcomp art
Ġimp elled
Ġpre ach
Ġpre ten
ign eur
iz ers
Ġatt ach
ph aryngeal
Ġcons ole
Ġcons ented
Ġexp iration
uc ent
uc king
ull o
Ġlong ing
Ġlong itud
Ġsc here
Ġsc ope
Ġmar vel
Ġstr ings
Ġsl ay
Ġsl aughter
ors hip
Ġsay ings
Ġ2 13
ok en
Ġacc l
Ġacc us
oy ne
Ġreg ained
Ġreg ister
Ġthr ice
Ġcar s
Ġcar ved
Ġob no
Ġob eying
na il
ath an
Ġmust ered
Ġdes erve
Ġcol i
Ġcol oured
Ġcol oration
Ġ18 10
Ġ18 49
Ġ18 29
Ġact ress
ne a
ne g
Ġ3 16
Ġ3 14
Ġmet aph
Ġmet hyl
ty sburg
Ġown s
Ġlet s
Ġhead er
Ġright ly
pe ace
Ġret ention
og ne
atter s
Ġend uring
Ġhapp iest
Ġext ir
Ġass ass
Ġass ign
Ġass izes
Ġchar ity
Ġchar itable
Ġconst ern
Ġeng aging
Ġcor k
Ġcor nea
Ġhouse maid
Ġunderst ands
Ġref ers
Ġref resh
Ġrec re
Ġrec omp
Ġdef ence
Ġinv inc
Ġeff used
Ġvo zd
ev na
Ġ5 12
Ġ5 10
Ġ5 15
Ġfore finger
Ġfore told
Ġple ases
Ġposs ibilities
Ġdon ned
Ġdep icted
Ġdep raved
Ġdr ama
Ġden ial
Ġden ote
Ġel igible
Ġoccur rences
Ġmus h
ps ies
Ġget tysburg
Ġpur ify
). --
ilit ary
Ġserv ile
Ġlook out
Ġmin ut
Ġph illips
Ġins urance
Ġins isting
Ġins anity
Ġmoment ous
Ġwr ists
Ġwr onged
Ġpar ing
Ġfin ancier
Ġfin anciers
Ġmon uments
ren al
Ġrev ived
Ġrev ival
Ġhol es
sh ott
Ġpresent ation
Ġcr ude
Ġorder ing
Ġdec rees
Ġprov oked
Ġwork er
Ġart istic
Ġsent ences
Ġhard ship
Ġhard ware
Ġ19 7
Ġsw im
Ġsw ore
Ġpa xson
Ġimm inent
Ġtub s
Ġappro vingly
Ġra id
Ġcur ses
Ġtrans actions
Ġoper ated
Ġves icles
Ġprom oters
Ġlad der
Ġhum ane
Ġhum ming
Ġexpl or
Ġmer riment
Ġstand point
Ġang lo
Ġunt o
Ġcal omel
Ġed ward
to ise
yl omata
par alysis
Ġste wards
Ġbes et
aps ing
Ġexc ite
Ġexc urs
Ġaw aits
hen ka
Ġfoot pace
Ġten ants
Ġtra it
Ġtra cts
Ġmass aged
Ġill iter
Ġport mante
Ġlabor ious
Ġpop ulations
Ġvas eline
Ġorgan ize
Ġorgan isation
Ġwoman ly
Ġrun away
peri enced
Ġmad ly
Ġheav ed
Ġdisp ense
Ġep ist
Ġmeas uring
Ġtem p
Ġdri vers
Ġemploy ing
Ġsen iority
Ġsoft ness
hod s
Ġunion ists
empt ion
ex p
ex ternal
Ġwal nut
Ġview ing
Ġassoci ations
con stitutional
Ġsn ort
Ġbar que
Ġprof und
Ġprof essed
Ġprof itable
Ġsurround s
Ġspir ited
ob ia
Ġburn well
com plete
Ġbrother ly
Ġgra zing
Ġval ues
Ġvi olet
Ġut ility
Ġvill ains
Ġpen ny
Ġann ulled
Ġthird ly
Ġrail s
Ġconvers ion
aff ected
Ġimag inary
Ġaneurysm al
Ġz ub
Ġz dr
Ġalex and
Ġproper ties
Ġissu ance
rest r
Ġ7 1
Ġ7 4
Ġtax pay
Ġ* *
Ġgaz ette
Ġresp ir
Ġweak en
Ġap iece
Ġtor toise
Ġinn ov
Ġinn keeper
Ġ8 9
Ġfear ful
Ġfright ful
Ġprim itive
Ġcre eping
Ġcre pit
Ġmal asha
Ġ186 6
Ġ186 8
Ġbeaut ifully
Ġ15 00
Ġbright ness
Ġbacter iology
Ġuniform ly
ĠĠĠĠĠĠĠĠĠĠĠĠĠĠĠĠĠĠĠĠĠĠĠĠĠĠĠĠĠĠĠĠ ĠĠĠĠĠĠĠ
ĠĠĠĠĠĠĠĠĠĠĠĠĠĠĠĠĠĠĠĠĠĠĠĠĠĠĠĠĠĠĠĠ ĠĠĠĠĠĠĠĠĠĠĠĠ
ĠĠĠĠĠĠĠĠĠĠĠĠĠĠĠĠĠĠĠĠĠĠĠĠĠĠĠĠĠĠĠĠ ĠĠĠĠĠĠĠĠĠĠĠĠĠĠĠĠĠĠĠ
Ġoccasion ed
Ġgran ular
Ġtemper ance
Ġpal er
Ġ13 7
Ġrelations hip
Ġconvention al
Ġmaster y
Ġentire ty
Ġhast y
Ġfem or
uff s
Ġpun itive
Ġplain ness
Ġmut ually
Ġevent ual
col ored
Ġpray ing
Ġacute ly
Ġmark ov
Ġsup in
Ġliving ston
Ġaccompan ies
Ġflo ated
ows ki
oste omyelitis
Ġeast ward
Ġdam ned
Ġmanufact ured
Ġchair man
Ġlod gment
Ġham m
Ġ191 1
Ġgrad es
Ġcapt ive
Ġban ished
Ġban quet
Ġ14 1
Ġsus ceptible
Ġadop ting
gu ards
Ġimper ceptibly
Ġwil mot
leg ia
Ġregion al
Ġlie u
Ġpull man
Ġtrem or
Ġstrugg les
Ġ189 2
road s
Ġstage co
Ġhunt ed
Ġwrong s
Ġhost ilities
Ġrich ard
Ġvan ishing
Ġsocial ism
Ġ180 3
Ġstat ist
ding ton
Ġbra v
Ġspo iling
Ġthreat s
Ġdeal er
Ġ30 4
Ġ32 1
Ġconce ived
Ġchronic le
Ġhyper text
Ġhyper aemic
Ġharm less
Ġbare fo
Ġbare foot
Ġchance llor
Ġjour neys
Ġtype wr
Ġreaction ary
Ġrat ify
Ġthrow s
Ġven om
Ġven erable
Ġbox er
Ġfurn ishes
Ġprivate ers
Ġ43 5
Ġ46 9
Ġ177 7
Ġdan ish
Ġlip omatosis
Ġ36 5
Ġ36 8
Ġpursu its
Ġresist ing
Ġ42 7
Ġdistinct ive
Ġbig ger
Ġpack s
rif ying
Ġchrist ians
Ġ25 0
Ġ25 4
Ġ27 0
Ġinhabit ant
Ġsho ots
Ġ40 3
Ġpit ched
Ġpit iable
Ġpersist ently
Ġestablish ments
Ġjer usale
Ġpict uring
Ġweight y
Ġtest imony
Ġpock marked
Ġunivers ally
Ġunivers ities
Ġ22 3
Ġ22 7
Ġ22 8
Ġextraord inarily
Ġpred ecess
Ġclub s
Ġsuggest ions
Ġmort ified
Ġguard ed
Ġpot ash
Ġamb ush
Ġamb ulance
Ġ190 8
Ġfavour ite
Ġ29 2
Ġadvent itious
Ġexception ally
Ġstro ve
Ġstro ked
Ġarriv als
Ġundert akings
Ġaccess ory
Ġ35 0
Ġ35 2
Ġ35 4
Ġ35 7
Ġobst ruct
Ġthy self
Ġmat ches
Ġ47 2
Ġheaven ly
rah am
Ġcreat ures
Ġ37 1
Ġ37 3
Ġ37 6
Ġtex ts
Ġnegot iated
Ġspr inkled
Ġ24 5
Ġ34 1
Ġcicat ris
Ġliter ally
Ġded uctions
Ġwhit eness
illa e
Ġid aho
Ġfer ment
Ġtransport ed
Ġshri ek
Ġcolle ague
zh ok
zh inski
Ġcra zy
Ġrang ed
Ġ188 3
Ġ188 8
Ġdust ing
Ġdream ing
Ġcritic ize
sp otted
Ġconve ying
Ġsuperi ors
Ġfault s
cher y
Ġintim idation
Ġpreced ent
Ġdig estion
Ġsept a
Ġrob bed
Ġaccum ulate
Ġcontrad ictions
Ġsweet ly
Ġelev enth
Ġtit les
Ġovert aking
Ġ33 1
Ġ33 2
Ġcollect ions
Ġvolunt eer
Ġec chym
gor od
Ġ179 0
Ġ179 4
Ġsteam er
Ġdelib eration
rep air
Ġ59 6
Ġadmir ably
hol mes
met hods
Ġach illes
Ġnurs ed
Ġtrib es
Ġalco holic
Ġperfor ates
Ġreject ion
Ġbattles hips
Ġfrost y
Ġident ification
Ġmun ching
Ġsaf er
Ġenv iron
Ġconsol idation
Ġconsol idated
Ġconqu ering
Ġcontrib uting
Ġimpress ive
Ġwrink le
Ġartific ially
Ġblind s
Ġseek ers
Ġprovincial s
cal ifornia
Ġbas in
Ġirres olute
fib ro
Ġerr and
Ġren ounced
Ġdiscl ose
Ġ184 6
Ġdiscover ing
Ġpad dington
Ġ58 8
Ġillust rations
Ġoak shott
Ġbul b
Ġcriticism s
Ġnin ety
Ġnour ish
Ġnour ishing
Ġger ard
Ġaltern ately
Ġcalc aneus
Ġbirth day
every one
Ġlac eration
Ġentertain ment
bra chial
Ġderm oid
Ġambassad ors
Ġdisappoint ing
lymph atic
Ġase psis
Ġhem med
sec ution
Ġrust ling
Ġcongrat ulated
Ġconsci ent
Ġtransm ission
Ġwise ly
abs or
Ġinflic t
Ġtrot ted
Ġfibros um
str ous
Ġsund ays
Ġadherent s
did n
Ġwilling ness
Ġfeverish ly
Ġconvenient ly
eight h
Ġtact ics
Ġped est
imm ing
imm igration
Ġabst raction
Ġhelpless ly
Ġphilosop her
Ġmaneu ver
Ġwart y
Ġcig ars
Ġkl ux
Ġrot ten
Ġdiscont in
Ġfibro id
Ġprefer ably
Ġdisint erested
Ġindul ge
Ġincap acity
Ġdrunken ness
Ġsymmet ry
Ġobsc urity
Ġinterp osed
Ġrab ble
Ġintr usion
Ġintr usted
Ġglob ular
Ġrecru it
Ġinsens ibility
Ġpredomin ance
Ġinitial s
Ġconquer ors
Ġtons ils
Ġdrow ning
Ġwhir ling
Ġriot ing
Ġargu ing
Ġunw r
Ġentreat ies
Ġconstr ained
Ġconstr iction
Ġirre voc
Ġdiscrim inations
Ġdisclaim ers
Ġtoss ing
Ġstub ble
Ġunch anging
Ġintoxic ated
Ġmorose ly
Ġerupt s
Ġward robe
Ġspecul ators
Ġgrie ve
ser ge
Ġpite ously
anth oma
Ġencl osure
Ġworm wood
Ġrepuls ive
Ġinterm ittent
Ġcalcul ation
Ġcalcul ate
Ġconvey ance
Ġcontempl ation
Ġelim inated
Ġburd ened
Ġbrig ade
Ġsacrific ing
hyd rops
po or
Ġcam bridge
Ġfung us
Ġdisorgan isation
Ġbron chial
Ġcomput ers
Ġilleg al
Ġcounsel s
Ġhypertroph ied
Ġsubmar ines
Ġoun ces
Ġlament ed
Ġseed s
Ġvind ict
Ġshar per
Ġimpass able
Ġregist ration
Ġswed ish
Ġadjust ing
Ġsymb ols
Ġeyel id
Ġsid el
Ġrever ie
Ġrever ber
Ġrud dy
chond roma
Ġprote ge
Ġard uous
Ġblessed ness
Ġconfl agration
Ġsubmiss ively
Ġcraw l
cart il
cong en
Ġgy psies
cet oma
Ġshak o
Ġunint elligible
Ġsubl ime
Ġburg oyne
Ġuntr ue
Ġcoward ice
somet imes
Ġnit rate
Ġvul gar
Ġexasper ated
Ġmelyukov s
Ġknaps ack
Ġblaz ing
Ġredistrib uting
Ġcran ial
Ġmisunder stand
Ġmisunder standing
Ġrestrict ive
Ġunfav ourable
Ġinvestig ations
Ġfacult y
bus iness
Ġaward ed
Ġlumb ago
Ġgou vern
again st
Ġsab ret
Ġsax e
keep ers
Ġprejud ices
Ġembroid ery
Ġsarcom atous
Ġancest ors
name ly
Ġlag ged
Ġoutfl ank
Ġinfring ement
Ġsyll able
Ġcaul iflower
Ġdiscour aged
Ġprotrud ing
Ġsterilis ation
Ġdissip ated
sett led
Ġcauter ised
Ġgelat inous
Ġanastom osis
sur g
Ġtu fts
Ġrusse ll
Ġdispers ing
Ġprett ier
Ġdilig ent
Ġobstin acy
Ġsamo an
calc aneus
Ġbivou ac
hab eas
Ġole cranon
Ġbount ies
Ġhan over
Ġstu art
Ġanarch y
Ġdegr aded
Ġchuck led
Ġalve oli
Ġsubur b
Ġmetat arsal
Ġrefres hed
Ġdecomp osition
Ġmicroscop ical
sour ce
Ġbuch anan
Ġmam onov
Ġtoile t
stret ching
Ġforfe it
Ġscript ures
Ġbelg ium
Ġnumb ness
Ġverb al
Ġdespot ism
Ġcircumst ance
Ġlengthe ning
Ġprotector ate
Ġtherm ometer
Ġinadequ ate
fur t
mel anotic
Ġcoven ant
Ġhof kriegs
Ġpatter n
Ġdup ort
Ġfried land
throm b
Ġupl ifted
Ġdisgr aced
Ġappl ause
Ġindict ment
Ġpeep ed
Ġgloss y
Ġexped itions
Ġstragg ling
Ġslog an
Ġdevast ated
Ġnewslet ter
Ġinquis itive
Ġauton omy
Ġmortg ages
Ġarbitr arily
Ġerrone ous
Ġrasc als
Ġbifurc ation
Ġphilanthrop y
Ġpater nal
Ġlys ander
Ġgips ies
Ġvig il
Ġchasse urs
Ġarn old
Ġspic ules
Ġlex ington
peritone al
Ġcoiff ure
Ġserb ia
Ġstealth ily
Ġmalv intsev
Ġderiv ative
Ġreconcil ed
Ġkamens ki
coo ee
viz henka
vars an
Ġtatt oo
Ġwri gg
Ġcante en
Ġpoore r
Ġdnie per
Ġlil ac
Ġlugg age
Ġwhil st
Ġfriv ol
Ġexqu isite
Ġsavel ich
Ġuncond ition
Ġungr ateful
Ġunacc ustomed
Ġunseem ly
Ġunthink able
Ġoutsk irts
Ġlikh achev
Ġpreten se
Ġschere r
Ġobno xious
Ġconstern ation
Ġrecomp ense
Ġvozd vizhenka
Ġzdr zhinski
Ġbarefo oted
Ġjerusale m
Ġcicatris ation
Ġenviron ment
Ġhofkriegs rath
Ġmalvintsev a
! )
! *
! --
" ),
) (
* ]
- +--------
1 10
2 30
3 2
4 6
8 00
9 9
b all
b ri
b ound
b one
b und
b ug
c d
c ould
c ke
c uss
c ord
c aut
c ingly
c itiz
c osuria
d ad
d ron
e al
e ys
f ar
f em
f olk
f ool
f ena
f rench
f avor
g as
g us
g iv
g own
g umm
h i
h at
h al
h ap
h ire
i ard
i od
i ances
i anced
i hil
j ap
j our
l it
l aid
m u
m art
m ass
m ove
m ination
m ake
m ixed
m oral
m ilitary
n ormal
n onsense
n aud
o pp
p en
p her
p ig
p ull
p ublic
p ros
p rod
p olit
r h
r ac
r un
r ings
r ont
r anean
s ure
s oc
t z
t ry
t aking
t ips
u en
v re
v ic
v ag
v ents
w in
w on
w orn
x ton
Ġt et
Ġt ier
Ġt uch
Ġt ended
Ġt ues
Ġt ete
Ġt inge
he art
he av
he alth
he aven
Ġa ld
Ġa us
Ġa per
Ġa cet
in os
in nat
in ites
Ġs om
Ġs age
Ġs its
Ġs owing
Ġs omb
re al
re ast
re ts
re gn
re xia
re proach
Ġw iz
Ġw ithe
Ġw ostov
er a
er b
er ical
er ty
on na
on itis
on athan
at ie
at hing
Ġb a
Ġb ov
Ġb red
Ġb ile
Ġb other
Ġb ened
Ġb ared
Ġb ump
Ġb ubo
is o
is ch
Ġc ess
Ġc ore
Ġc ant
Ġc ake
Ġc ows
Ġc ooks
Ġh ound
Ġh ire
Ġh ushed
Ġh ilton
it ates
it ably
it iveness
en et
en ny
Ġf au
Ġf ade
Ġf used
Ġf ait
Ġf use
Ġf usion
Ġf isc
Ġf ainted
Ġf umbling
Ġf wom
Ġp ound
Ġp int
Ġp anc
Ġp itted
Ġp ending
Ġp ensive
Ġp ike
Ġm i
Ġm ish
Ġm oss
Ġm ouse
Ġm ug
Ġm ature
Ġm atted
Ġm ummy
Ġand ros
ou in
ou re
Ġin ac
Ġin app
Ġin equal
Ġin active
Ġd ated
Ġd und
Ġto y
Ġto wel
or ks
ar ion
ar agu
Ġl ain
Ġl ured
Ġl amb
ll er
Ġn ary
Ġn oses
Ġn astasya
Ġhe p
Ġhe y
om ination
ic is
ic an
ic her
ic iency
ion ed
Ġe in
Ġe ug
le ment
le vard
Ġg ul
Ġg um
Ġg ab
Ġg erv
Ġg ifts
Ġbe aver
Ġbe arers
al most
al ayka
ent ered
ad ers
Ġre union
Ġre assured
ro b
ro ke
ro pe
st im
st ation
st ud
st ock
im p
ly uch
id ays
Ġwh im
Ġwh iff
se ction
se lect
ce ivable
Ġon wards
Ġon look
ct ure
ur ative
ur iston
Ġhis sing
Ġas cer
Ġas phy
Ġst an
Ġst em
Ġst amm
Ġst ored
Ġst anch
Ġst ael
Ġst ony
Ġst umps
Ġst outer
Ġi ber
Ġis a
Ġfor age
Ġfor cing
Ġfor aging
et ary
et ah
gh am
ir d
Ġan ge
Ġan ew
Ġr ou
Ġr ive
Ġr ally
Ġr aging
Ġr allied
ch ow
ch au
ch ild
ch anges
Ġcon ced
Ġfr iant
Ġfr inge
am ble
ol ph
Ġor ations
her ing
il k
il ion
il ized
il ateral
il ocular
Ġse gments
ain court
us k
us en
Ġde ft
Ġde li
Ġv it
Ġv iv
Ġv ale
ri el
-- +
Ġsh ap
Ġsh aving
Ġsh aven
Ġk u
Ġk os
Ġk ick
Ġk az
Ġk atie
Ġher b
Ġher n
Ġher itage
Ġex ub
Ġso ph
os a
ill ating
th ren
Ġcom an
em per
em pl
ag ged
Ġsa iled
Ġpr usse
Ġpr isons
qu ity
ap olis
Ġch ol
Ġch iv
Ġch ip
Ġch icken
Ġch orus
est able
est hetic
Ġall ay
Ġall otted
Ġall iances
ant a
ak able
Ġshe pher
Ġpro w
ist ence
Ġal ight
Ġar c
Ġj aunt
Ġj onathan
Ġsp onged
Ġsp heres
Ġro ger
Ġro cke
Ġwe aving
Ġme ager
Ġme atus
out ing
Ġup hill
Ġint ubation
Ġint ricate
Ġle o
Ġab ide
Ġab used
Ġab rid
Ġab reast
Ġfe igned
Ġun al
Ġun sp
Ġun occup
Ġun stead
Ġun equal
Ġun lucky
Ġun official
Ġun foreseen
Ġun affected
Ġdo om
Ġdis rep
Ġdis abled
Ġman ia
Ġman aging
Ġman agers
Ġthere in
Ġthere upon
iv an
iv ision
Ġam iss
Ġad vers
un ctions
Ġco c
Ġco d
Ġco gn
Ġno str
Ġim b
Ġen m
Ġen erg
Ġen roll
Ġen abling
Ġpl owed
Ġpl asm
Ġpl aus
Ġpl ucked
Ġpl undered
Ġag itating
Ġfre mont
act ing
act ivity
ib re
ib ular
ib odies
pl icable
Ġev id
su dden
reat h
Ġqu er
Ġqu iver
Ġqu akers
Ġqu adr
el piece
Ġcl iff
Ġcl ick
Ġcl oses
Ġcl osure
Ġcl apping
Ġcl onic
Ġcont ention
Ġpier cingly
ass ian
Ġtr im
Ġtr ump
Ġtr immed
Ġloo s
Ġunder clot
Ġunder ground
Ġsm elled
Ġany way
Ġres cript
Ġcan ad
Ġem an
Ġem erson
Ġem igration
Ġrep el
Ġrep aired
Ġrep nin
cl ass
cl osed
Ġcomm encing
Ġbl und
Ġbl asp
Ġbl oom
Ġbl aine
Ġbl azed
Ġrem inder
Ġbr im
Ġind ignation
Ġind orsed
Ġover all
Ġover ha
Ġover head
ine a
are ous
Ġtw ir
Ġtw ink
ep iph
Ġhand writing
Ġform ally
Ġper n
Ġper v
Ġper cent
Ġper secution
Ġper cuss
Ġhow e
Ġhow ling
Ġgr am
Ġgr unt
Ġgr angers
Ġgr umbled
Ġinf inites
Ġgl ans
Ġcomp osing
Ġcomp elling
iz ar
Ġatt or
Ġatt aches
Ġatt itudes
ph one
Ġexp elled
Ġfl ock
Ġfl ax
Ġfl uff
Ġfl ows
Ġfl anks
ical s
co ver
co gn
co burg
Ġpres cribe
uc ers
ber y
Ġwar ren
Ġwar mer
Ġgen lis
Ġday break
erv ing
erv ants
Ġsc hed
Ġsc ented
Ġsc raw
Ġmar king
Ġold est
Ġsl it
Ġsl ain
Ġsur pass
ord inate
tain able
Ġacc ession
Ġreg ulated
Ġthr onged
Ġcar riers
Ġob li
Ġob olens
Ġus ur
Ġocc ip
Ġent reated
Ġent renched
Ġdes ol
Ġdes iring
Ġdes erves
Ġ18 25
att y
Ġcame l
amp utation
Ġaff ianced
Ġ3 12
Ġ3 20
Ġ3 17
Ġ3 19
Ġ3 13
Ġ4 000
Ġ4 48
Ġ4 15
Ġjust ly
Ġright eous
Ġinter cept
Ġinter action
Ġinter osseous
Ġconf in
Ġconf ide
Ġconf ided
Ġconf erring
Ġrel ieving
Ġret orted
og g
Ġext ingu
Ġcond yle
Ġcond esc
Ġruss o
Ġconst ructive
Ġstre aming
Ġstre aks
Ġcor rection
Ġcall ender
Ġref erable
Ġrec eded
Ġcle m
Ġdef icient
Ġinv ades
ros es
Ġadv ising
Ġpers hing
old ed
Ġlaw less
Ġlaw rence
Ġabs ently
ev idently
Ġbro od
Ġfore b
Ġexpress ive
Ġple aded
Ġrest ive
Ġdon ors
Ġdep ut
Ġdr inks
Ġden unciation
ank a
Ġleg ion
ps es
ark a
Ġpur ifying
Ġpain ting
Ġmin er
Ġmin ims
Ġph aged
Ġsuff ice
Ġlead en
Ġhel en
Ġins ert
Ġins ince
Ġcontinu ance
Ġside board
Ġmor gan
Ġter rific
Ġmem oir
Ġir ration
Ġconstit uent
Ġpar iet
Ġpar chment
Ġfin er
sw orth
Ġred und
Ġred emption
Ġconv icted
Ġmon ument
Ġmon strous
Ġmon etary
Ġfact ions
cond itions
Ġhol idays
Ġchap s
Ġche ers
Ġche val
Ġche etah
Ġcr isp
Ġve hem
Ġve wy
Ġdi oxide
Ġcase ated
Ġdec oration
no is
Ġtro op
Ġoften er
Ġoften est
Ġprov iso
Ġdet ect
Ġrepl aces
Ġest rangement
de ep
Ġlab ia
Ġhard est
Ġhard ships
Ġ19 8
Ġsw ab
Ġsw iss
Ġsw orn
Ġsw arthy
ars us
Ġappro ving
Ġappro aches
Ġcrow s
Ġprod ucers
Ġcent res
Ġtend o
Ġcur l
Ġcur se
Ġcur ts
Ġtrans cription
br ing
br ance
Ġprev al
Ġlight hearted
Ġul ster
---- -+
Ġhum bug
Ġbur r
Ġperi ostitis
Ġmer ge
Ġmer ging
bur ton
Ġunt reated
Ġhorse man
Ġcal mer
Ġed iting
Ġdisc redited
to id
par is
Ġvis c
Ġ[ *]
Ġpo em
Ġpo nder
Ġpo lym
Ġpo isons
Ġste al
Ġstep mother
Ġpap illae
ven es
Ġbri xton
Ġkind hearted
Ġmiss hap
Ġloc ke
Ġloc ations
Ġloc ks
Ġbre ed
Ġbre thren
fact ive
Ġexc av
Ġexc uses
Ġdel usion
Ġfed ya
for th
Ġaw aken
Ġdiv inity
Ġterm inate
Ġten or
Ġten fold
Ġport ly
Ġsouth ward
Ġinj ure
Ġinj uring
Ġinj unctions
Ġlabor atory
Ġsing er
ocr acy
Ġvir chow
Ġdev out
Ġdev iation
Ġbal anced
Ġbal alayka
Ġdraw ers
Ġheart less
Ġbed side
Ġbed ouin
Ġlymph o
Ġlymph adenoma
Ġfib rosis
Ġarter i
Ġhold ings
Ġtre p
Ġtre ph
Ġremem bers
Ġremem brance
Ġrecogn ising
Ġrecogn izes
ung ing
Ġemploy ee
Ġcart ing
Ġla ure
Ġla uriston
Ġquick ness
Ġreason er
Ġfire arms
Ġwait er
Ġbest ow
Ġgent leness
ex cell
Ġshort ened
Ġprocess ing
Ġorig ins
Ġassoci ates
Ġsn ub
Ġsn oring
Ġsn atching
Ġbar ring
Ġprof ile
Ġrevolution ists
com pass
Ġgre ene
Ġplay ers
Ġplay ful
Ġexcept ing
Ġperiod ic
Ġcross ly
Ġgra ves
Ġval ve
gr an
gr ain
Ġpost ure
Ġvot ing
Ġut itsa
Ġut erine
Ġsum ner
Ġsum med
Ġfirm er
Ġje op
Ġaccord ed
Ġpen za
Ġann ular
Ġann ihil
Ġtri ll
Ġtri angle
Ġsqu atting
Ġfur iously
Ġer got
Ġer oded
Ġer furt
Ġsal ver
Ġjoy ously
Ġremar king
Ġdescrib es
Ġstud ents
Ġdeb s
cap ular
Ġwater ways
Ġbad ge
Ġvol umes
Ġvol ta
rupt ed
Ġmed dle
Ġmed itation
Ġled ger
Ġant itox
Ġstri ve
Ġstri ving
by e
Ġmod ify
Ġmod ifications
Ġcompl ac
Ġcompl aining
Ġho arf
Ġboy ars
Ġbene fact
Ġlo oted
Ġmo ans
Ġinflu ential
Ġdim ple
arc y
arc ot
Ġweak ening
Ġrare r
Ġrare fied
Ġtor ch
Ġtor zhok
my x
Ġfear less
Ġcre ases
see ing
Ġmal ady
Ġhar vard
Ġconcer t
uk es
Ġsol omon
Ġsun ny
Ġaccept s
be ing
Ġuniform ity
ĠĠĠĠĠĠĠĠĠĠĠĠĠĠĠĠĠĠĠĠĠĠĠĠĠĠĠĠĠĠĠĠ ĠĠ
ĠĠĠĠĠĠĠĠĠĠĠĠĠĠĠĠĠĠĠĠĠĠĠĠĠĠĠĠĠĠĠĠ ĠĠĠĠĠĠĠĠĠĠĠ
ogr ams
Ġexec utions
Ġmur phy
Ġsupport s
Ġwin ced
Ġcomb ating
Ġswe ets
Ġlig ated
Ġur ban
Ġbill et
inct ure
Ġenc amp
Ġband y
Ġlive lier
Ġclot hed
col onel
-------- ----
do ing
nat al
Ġirrit ably
Ġstraight en
cent ral
Ġflo at
Ġmis ch
Ġmis chief
Ġmis giv
Ġbroad er
Ġoste obl
che ll
Ġclass ic
Ġclass ical
Ġclass ified
tr ade
path ic
Ġsher ren
Ġnote worthy
Ġgrad uated
Ġcapt uring
Ġban ners
Ġ14 4
Ġ14 8
Ġmanif ested
Ġhero in
Ġpy rexia
Ġspite ful
Ġimpl anted
Ġimper ative
right s
bo ards
pro v
Ġinh aled
Ġpull ey
Ġdepart ed
Ġgro ver
Ġgro oves
Ġunex pl
ivers ary
Ġvalue vo
Ġtrem ble
Ġagree ing
Ġ189 5
Ġwis er
Ġwis chau
Ġamount s
Ġphys iology
Ġphys ician
Ġhost s
Ġvan illa
Ġsocial istic
Ġdispl acing
Ġ20 4
Ġ20 7
Ġ20 9
oe uv
Ġbra z
Ġbra ce
Ġperm itting
Ġscr ap
Ġscr ape
Ġthreat ens
Ġ30 5
Ġ32 3
Ġ32 4
Ġbod ily
Ġconce ivable
Ġast ute
Ġast ray
Ġharm onious
Ġcompar able
Ġsubm axillary
Ġbare ly
Ġbare headed
Ġflex ing
Ġlisten ers
Ġoriginal ity
Ġtransf usion
Ġank les
Ġclean ed
Ġclean ing
omb s
Ġ43 6
Ġ177 2
Ġstop er
Ġinhab ited
Ġcat ac
Ġshad es
Ġshad ing
Ġ36 4
Ġ36 7
Ġmess ages
Ġclaim ing
Ġ52 6
Ġconstitutional ity
Ġdomin ate
Ġoss ified
Ġiod ides
Ġ187 7
Ġ187 8
Ġ42 2
Ġcavalry men
Ġunf astened
Ġcloud ed
Ġ27 8
Ġ50 9
Ġnarrow ly
17 7
Ġcover t
Ġsympath izers
Ġspl ashed
Ġ40 2
Ġqual ified
Ġcontract ing
Ġexact ing
Ġcoach men
Ġ28 0
Ġ28 4
Ġ28 5
Ġjun cture
Ġagr arian
Ġjul ia
Ġ39 1
Ġ39 4
Ġtest ing
Ġsick ly
Ġhang s
Ġ22 2
Ġ185 9
Ġrespons ibilities
Ġshed ding
Ġsecure ly
Ġuseful ness
fl ower
Ġmort ally
Ġmort ier
Ġdeleg ation
Ġdeleg ated
Ġsorrow s
Ġhosp itable
Ġdav y
48 2
Ġpill s
Ġpill ars
Ġprocl aiming
Ġ35 5
Ġconfirm s
Ġdebt ors
inc innat
ete xt
Ġwars aw
Ġobst acles
Ġ48 7
Ġ53 0
Ġ53 4
Ġ53 6
Ġ53 7
Ġ178 0
Ġ178 1
Ġtur ks
Ġtur pentine
Ġbow l
Ġutter ance
Ġ47 7
Ġartillery man
Ġcreat or
Ġexcit ability
Ġmaintain s
Ġtong ues
Ġpan el
Ġ24 1
Ġ24 4
Ġsubs cribe
Ġ34 2
Ġ34 3
Ġ34 6
Ġ34 7
Ġsusp end
Ġsusp ense
Ġcicat rices
roph obia
Ġsuc ceeding
Ġadvoc ating
pre p
pre ced
Ġana emic
Ġ45 2
Ġ45 9
Ġ183 3
me an
thir sty
Ġclever ness
Ġwid th
Ġrang ing
Ġ188 9
Ġreview s
Ġreview ed
Ġhandkerchief s
Ġsigh s
Ġreb els
Ġstim ulation
Ġstim ulate
Ġinvest ments
Ġcritic ized
sp inal
Ġcoo king
Ġlic ensed
Ġhollow s
Ġod or
Ġintim idated
Ġpreced e
tub e
Ġdig est
Ġrese ct
Ġrob ust
Ġoutl ined
Ġaccum ulations
Ġaccum ulates
Ġsweet heart
Ġcub s
Ġcher ish
Ġconsult ed
Ġ44 5
Ġ44 7
Ġmerc iful
Ġvolunt arily
joint s
Ġgap ing
Ġappropri ation
Ġappropri ated
Ġweakness es
Ġ179 1
Ġ179 2
Ġ179 8
Ġpunct uation
grow ing
Ġalb us
Ġremed ied
Ġ59 2
Ġtrib ut
Ġperfor ations
Ġincomp et
Ġmale vol
25 7
Ġmun itions
Ġretain s
Ġvascular ity
Ġpub erty
Ġconc ili
Ġpron ouncing
Ġchem istry
Ġpond s
Ġregen erated
Ġpil es
Ġtext ure
Ġbas ic
Ġbas il
Ġil arion
Ġbutt ocks
Ġscal es
Ġ60 6
Ġcarp i
Ġcarp al
Ġren al
Ġren ouncing
Ġliver pool
Ġthanks giving
Ġpou ch
Ġnomin ally
Ġshr ine
Ġshr ink
Ġunha pp
Ġpalm s
Ġrigid ly
ran ial
Ġwra pping
Ġdrunk ard
Ġcalc areous
Ġprotest ants
Ġexerc ising
Ġinaug ural
Ġ54 7
Ġgrace fully
Ġencoun tering
natured ly
Ġsuspic ions
Ġtast ed
Ġbew itching
Ġshop keepers
Ġsail or
Ġwarning s
Ġ57 3
Ġelement ary
Ġdou ching
Ġincon ceivable
Ġgrav itation
var icose
Ġpuff y
Ġnut s
Ġcongrat ulations
Ġformal ities
Ġrecoll ections
Ġsuperv ene
Ġcelebr ate
bro ker
abs olute
Ġdrift ing
whe at
Ġbeast s
Ġsund ial
Ġexhib its
Ġafric an
Ġabsurd ity
Ġdivers ion
cha emic
Ġspong e
Ġeffective ly
Ġ*** **
Ġwax y
Ġpall id
Ġproced ures
Ġclim b
Ġceremon ies
Ġbree ze
Ġpya emic
ante ed
43 3
Ġcig aret
Ġpneum ococcal
Ġatl anta
Ġkl an
Ġrot ation
Ġrot ated
Ġhoriz ont
Ġhonest ly
Ġmoan ed
Ġarchitect ure
Ġfaint ly
Ġglim pses
Ġrecon cile
Ġefficient ly
Ġguar anteed
Ġobsc ured
bor ne
inter rupted
Ġsar at
Ġgriev ous
Ġgriev ance
Ġliqu ef
Ġapproxim ated
Ġecst atically
har ness
Ġabd uct
supp urative
Ġsciatic a
Ġpark er
Ġreact ive
Ġreact ions
opl astic
Ġimpet uous
Ġimpet uously
Ġexport s
Ġdistin ctions
Ġcalam ities
Ġpoll icis
Ġsavage ly
Ġcust ody
Ġlaz ily
Ġgly cosuria
Ġneural gic
Ġexpand ing
Ġanticip ation
Ġextravas ation
Ġalbum in
Ġalbum en
Ġinex perienced
Ġinex plicable
omed ay
Ġsex ual
Ġtele phone
Ġocclud ing
Ġcripp ling
del toid
Ġsarc astically
Ġhug hes
Ġfut ility
Ġspirocha etes
Ġperce ived
Ġordin arily
Ġaffirm ative
Ġeloqu ence
Ġsquee zing
Ġsatisf ying
synov ial
Ġshrie ks
ser um
Ġbat hing
Ġbaz a
Ġheed less
Ġstuff ed
Ġriv alry
Ġrug ay
Ġrude ly
Ġexal t
Ġunhe ard
Ġbud s
Ġdow ager
Ġker atitis
Ġappend ages
Ġexpend iture
Ġbrig ands
Ġlandlord s
Ġcharacterist ically
Ġ66 6
Ġmurd ers
Ġmortal ity
Ġbayon et
Ġtread ing
Ġtheat ers
Ġcam den
Ġratt ling
Ġoverwhel m
Ġconvuls ive
Ġconvuls ively
Ġdiab etic
Ġobser vers
Ġhypertroph y
Ġacknowled ging
Ġfoment ation
Ġmant elpiece
Ġdwell ing
Ġthri ving
Ġheiress es
Ġquit rent
Ġimpass ioned
aneurysm al
Ġperme ation
Ġtint ed
rov na
Ġrud eness
Ġdisregard ing
Ġadoles cent
Ġwarri ors
Ġveto ed
grand dad
Ġbroadshe et
Ġamput ated
Ġcarbon ate
Ġlantern s
nor th
Ġpok lon
Ġhaz el
Ġmyx oma
Ġoutst ri
Ġblank ets
Ġperse ver
Ġperse vered
Ġimpart ial
Ġflut tered
Ġcolumb us
Ġesp oused
Ġveget ables
Ġgeograph y
Ġvictor ia
Ġhaemophil ic
Ġrhythm ic
Ġfow ler
Ġfow ls
seem ed
Ġexasper ation
Ġproc ure
Ġenfranch isement
Ġindisp osition
Ġoverse er
Ġoverse as
Ġsolic itude
Ġpredisp oses
Ġhydat ids
Ġtelegr am
bag s
Ġbou levard
Ġfain ting
Ġlumb ar
Ġnucle us
Ġgou ge
Ġrand olph
Ġprejud ice
Ġcondescend ing
Ġlimp ing
Ġimmob ilised
Ġembroid ered
Ġparaly zed
Ġspokes man
Ġemphas ized
Ġsarcom as
Ġgrenad ier
Ġglycer ine
pur ulent
Ġdad dy
Ġyawn ing
Ġrip e
Ġhaul ing
Ġconfisc ation
Ġmax illa
Ġcaul aincourt
Ġswamp s
Ġgreed ily
Ġsterilis er
Ġingrat itude
Ġpoult ice
Ġdisdain fully
Ġgelat in
hon neur
iat owski
Ġsna pped
ito xic
Ġfost er
Ġrevers es
Ġshove l
Ġshcher binin
Ġprair ie
Ġprair ies
Ġallud ed
Ġallud ing
Ġenh anced
Ġslop ing
Ġmetrop olis
Ġmetrop olitan
Ġskirm ishing
Ġcapit ulation
Ġvert ical
Ġharb ors
Ġcryst al
Ġgreenback ers
Ġsine wy
Ġwre ck
Ġfab vier
Ġnic aragu
Ġrend ers
Ġjac ob
Ġspar ks
Ġcoquet tish
Ġindub itable
Ġimpost s
Ġflog ged
Ġcirc assian
Ġadjour n
Ġsniff ing
Ġpostp one
cyst ic
Ġbelligerent s
Ġworksh ops
Ġgaunt let
Ġkiril ovich
Ġsports man
Ġadolesc ents
Ġpovars koy
Ġanecd otes
russ ia
Ġsne er
Ġcz ar
Ġincend iar
Ġreop ened
Ġwholes ale
chlor ide
Ġchatt el
Ġinton ation
ocol ate
Ġcontri ved
Ġscow ling
Ġputre factive
Ġvehement ly
prom ising
Ġpropag anda
Ġexplicit ly
Ġanglic an
Ġgodf rey
Ġbenefic ent
Ġabsorb ent
Ġfilip inos
imperial ism
Ġencyclop a
Ġtire less
Ġtild en
Ġpom aded
Ġpau vre
Ġnipp le
Ġgol itsyn
Ġuly ulyu
Ġorph an
Ġvist ula
Ġcham bers
Ġunobs erved
Ġbrut al
Ġpawn broker
Ġraz um
Ġgeomet ry
Ġbenev olent
Ġemphysem atous
Ġgalvan ic
Ġsalicyl ates
louis iana
gam y
lip oma
Ġerythe ma
Ġted ious
Ġhans om
Ġfiance e
Ġpult usk
Ġdia z
Ġlax ity
Ġgam bler
ropl asty
stri ped
Ġruth less
Ġatax ia
Ġsukh arev
Ġfel ony
Ġnocturn al
Ġarmen ian
Ġcompat ible
Ġscaff olding
Ġincons ist
Ġcrut ch
Ġcurv ature
Ġepic ritic
Ġcyan osis
Ġinhib it
Ġuncompl icated
Ġflorid as
Ġirreproach able
haemorrh age
Ġcertific ates
Ġaponeu rosis
eat en
mosc ow
sol id
Ġmuff led
Ġdough y
Ġdys p
Ġgamb ling
Ġreci pro
Ġyan kee
Ġri ots
Ġshuff ling
Ġagra fena
Ġindo ors
Ġoversh ad
Ġperit onitis
Ġmethyl ated
Ġminut est
renal in
Ġrespir atory
Ġtypewr itten
Ġbulb ous
serge y
Ġvindict ive
congen ital
Ġmisunderstand ings
Ġgouvern eur
Ġsabret ache
thromb osis
caut ery
jap anese
mart ial
soc ial
Ġtuch kov
Ġtues day
Ġaper ture
Ġsomb re
Ġwithe red
Ġbov ine
Ġfau ces
Ġfisc al
Ġinac cess
Ġnary sh
Ġeug ene
Ġgab riel
lyuch arev
Ġascer tained
Ġiber ian
Ġkaz an
Ġexub erant
Ġchiv alry
Ġjaunt ily
Ġrocke fell
Ġunoccup ied
Ġunstead y
Ġnostr ils
Ġenroll ment
Ġplasm a
Ġplaus ible
Ġunderclot hing
Ġblund ers
epiph ys
Ġinfinites im
Ġobli que
Ġobolens ki
Ġcondesc ension
Ġinsince re
Ġvehem ence
Ġpolym orph
Ġmisshap en
excell ent
Ġhoarf rost
Ġmisgiv ings
Ġosteobl asts
incinnat i
Ġilarion ovich
Ġcigaret te
Ġpoklon ny
Ġnicaragu a
" ?
" ...
' --
' ...
) ]
0 2
0 8
2 00
3 00
4 12
4 22
5 51
6 7
8 4
9 3
: --
a ix
a evich
b ation
b ul
b ig
b age
b olkonski
b acked
b rother
b ubo
c qu
c row
c ities
c rosis
c urrent
d p
d or
d est
d un
d ep
d ened
d ock
d ark
d ium
d isp
e an
e ither
f at
f is
f ay
f ires
f elt
f arcy
g un
g land
g kin
h or
h ot
h our
i ast
i ian
i ards
i omyelitis
i omas
k on
k as
l ar
l us
l ace
l od
l ings
l az
l app
l orn
m at
m ain
m em
m ort
m pt
m ile
m ail
m oll
m rs
m aker
m aine
n el
n age
n ish
o a
o es
o res
p in
p ya
p rit
p its
r ad
r ub
r als
r inous
r atus
r unn
s qu
s ab
s ound
s ius
s erous
t ol
t ong
t od
t ical
t emp
u i
u er
u ition
u pping
u hof
v in
v ir
v ass
w at
w ow
w ich
w ick
w itted
w ool
w rist
x ter
y ll
y ard
z heg
Ġt as
Ġt res
Ġt ipp
Ġt aint
Ġt alle
Ġt uge
Ġt aunted
Ġt angible
Ġt arsus
he nt
Ġa ar
Ġa ve
Ġa version
in it
in st
in able
Ġthe od
Ġo es
Ġo ment
Ġo pt
Ġo mit
Ġs es
Ġs ic
Ġs own
Ġs eren
Ġs atell
Ġs vents
Ġs omeday
re et
re ason
re action
Ġw an
Ġw oo
Ġw ry
Ġw av
Ġw ins
Ġw right
Ġw ailed
Ġw oven
Ġw ailing
nd ell
nd bund
er ately
on ce
on aise
at i
at em
at tainable
Ġb in
Ġb ot
Ġb art
Ġb ade
Ġb ory
Ġb anc
Ġb ail
Ġb ases
Ġb inary
Ġb aked
Ġb wing
Ġb uzz
Ġb izar
is en
is able
Ġc ed
Ġc it
Ġc ov
Ġc age
Ġc akes
Ġc asket
Ġc incinnati
Ġh ord
Ġh oth
Ġh itting
Ġh ush
it a
it ative
it ime
it ania
en gh
Ġf t
Ġf w
Ġf ated
Ġf ult
Ġf ont
Ġf erg
Ġf ilar
Ġf iled
Ġf oli
Ġp ic
Ġp est
Ġp end
Ġp ins
Ġp ump
Ġp ension
Ġp antry
Ġm ate
Ġm op
Ġm ute
Ġm oses
Ġm agg
Ġm astoid
Ġm ails
Ġand rusha
ou ched
es d
ing le
Ġin att
Ġin wards
Ġin acc
Ġin activity
Ġd ot
Ġd ile
Ġd aw
Ġd yn
Ġd renched
Ġd ukes
Ġto ry
or ating
ar is
ar ity
ar ia
ar ves
ar ians
ar ches
ar iable
ar ranged
ar inova
an z
an oe
as eless
Ġth rees
Ġl or
Ġl act
Ġl ass
Ġl ub
Ġl anc
Ġl onel
Ġl ashed
Ġl isp
Ġl ittered
ll a
ll ey
Ġn ud
Ġn ash
Ġhe aping
ic c
ic o
Ġe cl
Ġe rection
le ft
le ading
le mma
Ġg w
Ġg in
Ġg ull
Ġg asping
Ġbe ver
al c
ad le
Ġre vere
Ġre election
ro ft
ro thal
st en
st ers
st ains
st roke
ut or
ut erine
im et
im osis
im bo
Ġwh ipped
Ġwh ims
Ġwh arf
Ġwh arves
se baceous
se igneur
ve vna
ow e
Ġit em
ith ing
ur ial
ur ities
ur ium
Ġas cribe
Ġst rew
Ġst are
Ġst ip
Ġst ating
Ġst ev
Ġst ature
Ġst ains
Ġst aining
Ġst aked
Ġst oned
Ġst abs
Ġis chial
Ġfor um
Ġfor ges
Ġfor lorn
et tle
gh an
Ġy au
Ġy el
Ġy oke
ir itis
Ġan on
Ġan ts
Ġan aphyl
Ġr ack
Ġr ue
Ġr amp
Ġr ins
Ġr ides
Ġr acing
Ġr umm
Ġr ushes
ch art
ch arcot
Ġat oms
Ġnot able
Ġcon e
Ġcon ical
Ġha il
Ġha unt
Ġfr aen
ter k
am our
am ount
am ination
Ġor sha
il ation
il ess
ul ary
Ġse l
Ġse wn
Ġse cluded
Ġse wing
Ġde er
Ġde ign
Ġde hyd
Ġde xter
Ġsu ck
Ġv ow
Ġv ine
ri an
ich rist
Ġsh ower
Ġsh ipped
Ġsh ifted
Ġk en
Ġk ate
Ġk ais
Ġk lyucharev
ac o
ac qu
ac erb
ac ranial
pp ich
Ġher ds
Ġex empl
Ġex acerb
oo h
Ġso othe
Ġso dium
os h
os itions
os ilt
os yll
th us
Ġcom ical
Ġcom te
Ġcom ments
ag ements
Ġsa uce
Ġsa bre
Ġsa ucer
Ġpr ank
ous sier
ap ared
Ġch al
Ġch ir
Ġch ick
Ġch ased
Ġch yl
Ġch attered
Ġch atted
Ġch ocolate
Ġall ev
ant ically
um ble
ab ol
ab runn
ab ulary
Ġshe ds
Ġpro pped
nt on
Ġal oy
Ġal iment
ate ur
ig y
Ġar ching
Ġar rog
Ġj au
Ġj ests
Ġj ena
Ġj ammed
Ġj ocular
Ġsp or
Ġsp ur
Ġsp erm
Ġsp hin
ust ing
Ġro ds
Ġro gers
Ġwe ndell
Ġme als
Ġup ris
Ġint ract
Ġint renched
op eration
Ġle agues
Ġle ppich
Ġab ate
Ġab raham
Ġun st
Ġun ra
Ġun ans
Ġun cl
Ġun ction
Ġun equ
Ġun inj
Ġun settled
Ġun ilateral
Ġun preced
Ġun interrupted
Ġun harness
Ġun attainable
Ġdo zing
Ġdo yle
Ġdo omed
Ġprin ters
Ġdis ent
Ġdis use
Ġdis favor
Ġman or
Ġman ure
Ġman chester
iv or
Ġam ateur
ra il
ra ised
Ġad ject
Ġad oration
Ġad apt
Ġad hered
Ġad renalin
ort s
Ġco g
Ġco il
Ġco ins
Ġco ordinate
ge nd
Ġno de
Ġmy th
Ġim be
oc ent
oc ard
oc aly
ast ric
Ġpl us
Ġpl ac
Ġpl um
Ġpl ast
Ġpl ane
Ġpl ug
Ġpl ots
Ġpl ows
Ġpl ague
Ġpl aited
Ġpl umber
ount s
ke ys
act ic
pl ain
pl antation
ind epend
ind icated
ost al
su per
au chery
?" *
Ġqu i
Ġqu ill
Ġqu art
Ġqu inine
Ġqu otas
Ġqu orum
ough s
el ed
el ity
el age
od en
Ġmore au
Ġcl ang
Ġcl ip
Ġcl amp
Ġcl amm
Ġcl apared
ci um
av ia
ass ed
ass urance
Ġtr icks
Ġpart icle
Ġres ign
Ġres ists
Ġcan e
Ġcan on
Ġem igrants
Ġrep ressed
Ġrep aid
Ġcomm in
Ġcomm is
Ġcomm end
Ġcomm otion
Ġli ed
Ġli ar
Ġli ken
Ġbl ed
Ġbl uff
Ġbl inking
Ġbl ocks
ish ly
Ġrem onst
Ġbr us
Ġbr aced
Ġbr oussier
Ġind ign
Ġind uces
Ġind olence
ang io
ine au
Ġtw eed
Ġtw inkled
Ġpe er
Ġpe ered
Ġhand y
Ġhand ley
Ġhand ica
Ġnat han
Ġform ats
ha usen
Ġper ch
Ġper ry
Ġper ceptibly
Ġgr un
ia h
Ġinf erred
Ġinf ancy
Ġinf inity
Ġgl are
Ġarm aments
Ġcomp ress
Ġcomp aring
Ġcomp ressing
ud ed
Ġimp unity
Ġimp eded
Ġimp regn
Ġimp enet
Ġpre ying
Ġpre acher
Ġpre arranged
iz z
iz able
Ġatt aining
Ġatt aching
Ġatt achments
Ġcons umed
Ġexp ulsion
Ġfl ing
Ġfl ound
Ġfl int
Ġfl aw
Ġfl aring
Ġfl ask
Ġfl irt
Ġfl acc
Ġfl abby
co cci
Ġpres umption
anc he
Ġsee ks
Ġgen et
Ġgen ev
ach able
Ġday time
Ġsc oli
ens ation
Ġmar qu
Ġmar ia
Ġmar itime
Ġdown load
Ġdown loading
Ġstr and
Ġstr ap
Ġstr ands
Ġstr icken
Ġstr atum
Ġsl ice
Ġsl ob
Ġsl ips
Ġsl umber
we ight
tain ing
Ġ2 15
Ġsy non
air y
Ġcar av
Ġent angle
Ġmust ard
erm ost
Ġop son
Ġdes ir
Ġcol oss
Ġcol ors
Ġcol omb
Ġbet rothal
Ġ18 1
Ġact uated
Ġaff lic
ne ed
ne xt
ne crosis
so ld
so il
Ġ3 10
Ġac ne
Ġac up
Ġac rim
Ġown ing
Ġsk yl
Ġjust ifying
Ġjust ifications
Ġpol iomyelitis
Ġpol onaise
Ġinter muscular
Ġinc ising
Ġconf id
Ġsupp ression
Ġrel ates
Ġret racted
og a
og ene
Ġend orse
Ġend arteritis
Ġend ocard
Ġass ail
Ġass isted
Ġass ertion
les iast
Ġcond ensed
Ġcond ylomata
Ġwell s
Ġmak ers
den ing
Ġson orous
Ġconst able
Ġconst ip
uch y
Ġeng raved
Ġeng agements
Ġfound ers
Ġmosc ovites
Ġadd uctor
enc hed
enc hes
Ġpet tic
Ġrec ounted
Ġcle vere
Ġdef ining
Ġdef iciency
Ġinv ariable
Ġser o
Ġser pent
Ġser ratus
man n
Ġgovernment al
Ġpers isted
Ġnap e
Ġhere in
Ġhere to
Ġfore man
Ġsat ire
Ġsat urated
Ġple ading
Ġrest aur
Ġbatt ered
Ġear ning
Ġdep osition
Ġden ying
Ġden omin
Ġround ly
Ġsil enced
Ġblood shot
Ġblood thirsty
ling hausen
Ġel ope
Ġel apse
Ġmus lin
Ġmus culo
li o
Ġwant on
Ġph ot
Ġph imosis
Ġsuff used
Ġsuff ocation
Ġsuff erer
Ġgu iding
Ġvar iance
Ġhel ps
Ġhel ena
Ġins pected
Ġins cription
ane y
Ġmor and
Ġmor als
Ġter rifying
Ġmem orial
Ġir resp
Ġwr ing
Ġpar ched
Ġpar quet
Ġpar rot
Ġfin es
Ġfin ancing
Ġlim iting
Ġsin ners
Ġred uctions
Ġconv ent
Ġmon key
Ġmon osyll
ism us
Ġrev ised
ili ac
sh op
Ġadm on
Ġche cks
Ġche cking
Ġcr umbling
Ġcr icket
Ġspeak ers
Ġbo on
Ġbo omed
Ġdi ver
Ġbeh aving
Ġdec ay
Ġdec ently
Ġnecess itates
Ġdet ach
Ġdet roit
Ġart ist
Ġrepl acing
Ġreco il
Ġreco vers
Ġnum erical
Ġsign ing
de arest
Ġcir soid
Ġhigh way
Ġdress ers
Ġhard ness
Ġtum ult
Ġtum bled
Ġsw ind
Ġsw imming
ars eness
Ġimm ersion
Ġtend ing
Ġcur t
Ġsec ular
Ġalong side
Ġtrans cribe
Ġoper ator
br icals
Ġprop hes
Ġrap t
Ġrap ier
Ġhal ves
Ġexpl osion
Ġpatient ly
Ġang ered
bur sal
Ġunt ouched
Ġhorse cloth
Ġcal ibre
Ġcal cium
Ġed itors
yl au
par able
Ġmind ful
Ġstep hen
az in
Ġbes uhof
Ġneed ful
Ġneed ling
Ġland lady
ym a
ec her
ec ular
ec anoe
hen ne
Ġterm inated
Ġfig ured
Ġten otomy
Ġill ustri
Ġport ugal
Ġlabor iously
Ġcharacter ise
Ġvas o
Ġrun ners
Ġdraw ings
Ġdirect ory
crib ing
Ġmad ness
Ġmad ura
Ġbusiness like
Ġbed clothes
Ġpublic ly
Ġpublic ity
Ġdisp ro
Ġep ile
Ġhold s
Ġtre nton
Ġequ ino
Ġ6 12
Ġmid wife
Ġcart ed
Ġcart oon
Ġplan ets
Ġla fay
Ġsto ol
Ġappe aling
Ġball arat
Ġreason ed
Ġhundred th
ik off
Ġfire place
Ġnorth ward
Ġcut s
Ġsyst olic
Ġfing ering
Ġshort sighted
Ġsn ar
Ġsn ug
Ġsn akes
Ġav ulsion
olk mann
ob iograph
Ġdark er
com pl
Ġgre kov
Ġplay er
fort y
Ġpast eur
Ġpast ime
Ġval gus
Ġmill er
Ġmill ar
Ġdom ination
Ġsum ter
Ġblack ened
Ġoccup ant
Ġann als
Ġann apolis
Ġthird s
mit inov
Ġtri es
Ġtri als
Ġpay s
Ġpay able
Ġsqu atted
Ġsqu ares
Ġfur row
Ġsac ro
Ġsal iv
Ġsal ient
Ġsal uted
Ġsal mon
Ġgall ows
Ġz ero
Ġdestro ys
Ġrid ge
Ġpract iced
Ġpract icable
Ġdeb ated
Ġdeb auchery
Ġobserv ant
Ġsuper st
Ġkiss es
Ġexam inations
rupt ure
Ġmed itating
Ġmed iter
Ġled ge
Ġant ibodies
Ġant ichrist
Ġquiet er
Ġemb ark
Ġemb ittered
Ġsens ational
Ġtax ed
Ġtax ing
Ġmod erately
Ġinqu est
Ġswell ed
Ġho ar
Ġgun shot
Ġfail ures
Ġlo af
Ġlo ading
Ġlo omed
Ġrad iated
12 8
Ġtar get
ump ing
bit es
ilis ation
Ġap ost
Ġap ocaly
Ġrare faction
Ġtor ments
Ġce aseless
my el
Ġmil an
Ġcre p
Ġund one
umb ent
Ġhar per
Ġhar ris
uk h
Ġthick er
Ġpaper work
Ġsun set
Ġsun burned
Ġprogress ion
Ġprogress ives
Ġbacter iological
ĠĠĠĠĠĠĠĠĠĠĠĠĠĠĠĠĠĠĠĠĠĠĠĠĠĠĠĠĠĠĠĠ ĠĠĠĠĠĠĠĠ
ĠĠĠĠĠĠĠĠĠĠĠĠĠĠĠĠĠĠĠĠĠĠĠĠĠĠĠĠĠĠĠĠ ĠĠĠĠĠĠ
ĠĠĠĠĠĠĠĠĠĠĠĠĠĠĠĠĠĠĠĠĠĠĠĠĠĠĠĠĠĠĠĠ ĠĠĠĠĠ
ĠĠĠĠĠĠĠĠĠĠĠĠĠĠĠĠĠĠĠĠĠĠĠĠĠĠĠĠĠĠĠĠ ĠĠĠĠĠĠĠĠĠĠ
Ġfat ally
Ġpriv ation
Ġpriv ately
Ġexpect s
Ġsecret ions
Ġlib eration
Ġaim e
Ġaim ing
Ġfavor ably
Ġbit es
Ġpath ology
Ġcapital s
Ġwin cing
Ġtemper ament
Ġorigin ator
Ġsch olar
ee bled
Ġur gently
Ġfem ales
Ġarrest s
Ġdiss olve
Ġenc oding
Ġenc amped
Ġris ked
Ġinterv ened
Ġmut ter
Ġcommun ism
Ġstaff s
Ġartic ulating
Ġagre ements
Ġhot ly
Ġserious ness
Ġgroup ed
Ġsup ers
Ġimpro bable
Ġben ign
yt es
yt ic
Ġbroad ened
Ġbell iard
Ġextra cted
Ġextra vag
Ġdry ly
Ġdry ness
hold er
path ological
Ġinterrupt ion
Ġdipl oe
Ġcircul ated
Ġpoor ly
Ġsus an
ocyt osis
Ġinject ing
Ġdischar ges
Ġpy ogenes
Ġmult ilocular
Ġimpl ore
Ġimpl icating
Ġimpl icates
Ġgrand ee
Ġax es
Ġimper ceptible
Ġwarm est
bo om
pro phylaxis
Ġsort ing
Ġinh um
Ġder iving
Ġdiplom ats
Ġvalue v
Ġcost ing
Ġcost umes
het ically
Ġwis p
Ġwis est
Ġphys ics
Ġtroub ling
Ġ20 3
Ġ180 4
Ġ180 8
10 1
Ġbra ved
Ġbra zen
Ġarch bish
Ġhung arian
agr ant
Ġperm its
Ġscr atched
Ġbod ice
cons id
uly ulyu
Ġast ounded
Ġbull ae
Ġharm on
Ġjour ne
Ġflex ible
Ġregular ity
Ġweek ly
Ġadvance ment
Ġclean se
Ġ46 7
Ġ177 3
with in
Ġcorpor ate
Ġsnow y
Ġcat ches
Ġdism al
Ġ36 2
Ġbrill iantly
Ġbear ings
Ġinfantry men
Ġdece it
Ġvirt ually
Ġcab bage
Ġ187 5
Ġ42 1
Ġ42 9
Ġfill more
Ġcavalry man
Ġaug esd
Ġunf it
Ġunf athom
Ġunf olded
Ġ25 3
Ġ25 7
Ġ25 8
Ġenterpr ising
17 4
Ġ26 2
Ġ26 3
Ġ26 4
Ġ26 7
Ġsympath ize
Ġwonder fully
Ġalarm ing
Ġempt ying
Ġ40 9
Ġcorrespond ent
Ġaut ocratic
Ġ23 4
Ġ23 6
Ġdefe ats
Ġfal tered
Ġ49 0
14 0
Ġleng ths
Ġdegen erate
Ġjer ky
Ġjun ot
Ġspot ted
Ġcomprom ises
Ġreve als
Ġivan ushka
Ġmillion aires
Ġanti que
Ġ22 1
Ġ22 5
Ġ185 6
Ġ185 8
Ġschool master
Ġrum ored
Ġscre ened
Ġscre ening
Ġguard ian
Ġwit ch
Ġpot em
Ġsore ly
Ġspan iards
Ġamb itions
Ġconserv atives
Ġ190 3
Ġ190 6
Ġ190 9
Ġclo ac
Ġ29 5
Ġ29 8
was hing
Ġcult ures
Ġmot to
Ġlangu or
Ġsquad rons
Ġsquare ly
48 5
arov s
Ġ35 8
Ġmoist ened
Ġkur ag
Ġclay ton
Ġ48 9
Ġ53 3
Ġirregular ity
Ġswift ness
Ġtur b
Ġmild ly
Ġmild ness
Ġdu oden
Ġintention ally
Ġsurre y
Ġutter most
Ġmat ured
Ġuncom promising
Ġ47 0
Ġprotect s
kov o
Ġ24 9
Ġobtain able
Ġsubs cribed
Ġsubs cription
mar ks
Ġaud itor
Ġaud acity
Ġaud itory
Ġdescend ants
Ġcrime an
pre vention
Ġfast en
Ġded uctible
Ġ38 3
Ġ38 4
Ġ45 3
Ġ45 5
Ġthorough bred
Ġid i
Ġfer oc
Ġital ians
Ġembr aces
Ġ183 4
Ġmusic ians
Ġtransport s
Ġspectac ular
me ans
Ġhay ne
Ġpuls atile
Ġheight ened
Ġshri velled
noe a
Ġwid est
Ġwid ows
Ġstiff ly
Ġcra fty
Ġpig e
Ġstar ve
Ġrang ers
Ġ188 4
Ġhind ers
Ġreb uke
Ġhousehold s
Ġinvest ment
Ġdron ushka
Ġimperial s
dy nia
Ġlum bricals
Ġrough ness
Ġmood s
Ġcontrast ed
wor king
Ġod ious
Ġconcent rate
Ġconcent rating
Ġshame fully
Ġpruss ians
Ġpreced es
kh arovs
Ġdig ested
Ġrese arches
Ġoutl ines
Ġpossess ing
Ġcheerful ness
Ġunpleasant ness
Ġcub ans
Ġattract s
Ġattract ing
Ġelev ate
Ġmoral ity
car b
oph agus
Ġconsult ations
Ġ33 3
Ġ33 4
Ġ44 1
Ġmerc antile
Ġmerc urial
Ġbreath lessly
Ġsucceed s
Ġtear ful
Ġmyst ical
Ġregret ting
Ġdemonst rating
Ġappropri ately
Ġpel vic
Ġign ore
Ġsteam boat
Ġrele v
Ġ59 0
Ġ59 1
Ġreproach ful
Ġwear ied
Ġcrack ing
Ġslee k
Ġperfor ate
Ġincident al
Ġchallen ging
25 0
25 4
kind ly
Ġox en
Ġcous ins
Ġmir acle
Ġmac aul
Ġconsol ing
Ġtut elage
Ġber ks
Ġrain y
Ġconc ord
Ġconc urrent
Ġimpress ment
Ġ176 4
Ġgather ings
Ġinspect ing
Ġpoison ed
Ġfeb rile
Ġcompet itors
Ġinstinct s
Ġapt ly
Ġinfect ing
Ġscal ds
Ġphotograph s
Ġridic uled
bre lla
cont usion
fib rinous
arth ropathies
arth ropathy
Ġgle aming
Ġcloth s
Ġalcohol ism
di pl
tw enty
Ġmic hel
Ġdiscl osed
Ġ184 0
Ġ184 5
Ġredoub led
Ġsentiment al
Ġexecution er
Ġintellig ible
Ġspecific ally
Ġadventure rs
Ġsurrender ing
mary a
Ġpad s
Ġnomin ate
Ġuns olved
Ġworst ed
Ġ58 2
Ġillust rating
Ġneutral ise
Ġbru ises
Ġsurv ives
Ġsuppur ations
Ġcele b
Ġnaev oid
Ġwip e
Ġdre ary
Ġger ry
Ġstick y
Ġaltern atively
Ġprotest ant
Ġneighbour s
every body
Ġlac key
Ġgar ment
Ġshy ness
Ġadvert ising
Ġencoun ters
Ġmaids ervant
24 4
Ġgon ococcal
Ġbew are
Ġstock holders
Ġili um
Ġmart ineau
Ġnovel s
Ġdisappoint ed
Ġdismount ing
Ġindifferent ly
Ġpuff s
Ġpuff ed
Ġscand als
Ġdefend ers
Ġsuperv ise
Ġmurder ous
dr am
Ġsuit ors
Ġcoinc ide
Ġdrift ed
Ġfulfill ing
whe el
str uck
str icken
Ġstit ched
Ġneuro lemma
Ġsmart ly
Ġbrid le
Ġendeav or
Ġdivers ified
chn ikoff
Ġspark led
Ġcoag ulates
Ġbrand ed
Ġpool s
Ġhyp og
35 4
Ġther mo
Ġoath s
Ġbry ce
Ġcas ement
Ġped icle
Ġpall ida
Ġmit ka
Ġhaw k
Ġsemen ovna
Ġchamp ions
Ġmyel in
Ġench ant
Ġadvis er
Ġhopeless ness
Ġradi ating
Ġgroan ing
Ġol ive
Ġstrept ococcal
Ġprolif erate
Ġcultiv ate
Ġdeliber ations
Ġphilosop hers
27 8
pass ive
Ġpneum ococcus
Ġlan ol
Ġlan nes
Ġfruit ful
Ġfruit less
unct ure
Ġpreoccup ation
Ġpopul ace
Ġhence forth
Ġaggrav ate
Ġchill iness
iev ous
Ġindul ged
Ġdecor um
Ġdecor ated
Ġsymmet rically
bor is
fif ths
inter c
Ġkir sten
Ġdisse cted
Ġdisse cting
Ġsmith s
Ġlabore r
Ġapproxim ation
Ġcurtain s
Ġdisappro ved
Ġninete en
Ġinconven ient
har vard
Ġduc rey
import ation
Ġrab ies
Ġvyaz mitinov
Ġintr acranial
Ġdak otas
Ġstaphyl ococci
Ġstaphyl ococcal
Ġreserv ation
Ġreserv ations
Ġperf ume
Ġperf umed
Ġincor rect
Ġrecru iting
Ġrobber ies
Ġtap er
Ġlaz y
Ġriot ous
Ġunw ounded
Ġsurve yed
Ġboil er
Ġapolog ies
Ġdisclaim s
Ġvelve ty
Ġkitc hens
Ġinex orable
Ġante chamber
Ġrye field
Ġsport ing
Ġenum eration
Ġblunt ly
Ġimpuls ive
Ġesc orted
Ġharv ests
ext ra
Ġhug ged
Ġhug uen
Ġgree k
Ġgree ce
Ġens uring
Ġspecul ation
Ġspecul ator
Ġcaus ative
Ġpoly gamy
Ġsquee ze
Ġpuzz le
Ġpamph let
Ġsust aining
Ġjol ting
Ġemerg ence
Ġemerg ency
Ġtroy kas
Ġeditor ial
Ġlandown ers
Ġstimul i
yr in
yr and
Ġcort ical
Ġbrad dock
Ġfoll ette
Ġelim inate
Ġbrig and
Ġchristian ity
Ġnikol iev
Ġnikol aevich
37 5
ban ks
bet ter
Ġom itting
Ġbuck wheat
Ġdict ated
Ġlas hes
Ġnov osilt
Ġprosec ute
Ġalm s
Ġsubord ination
Ġconvuls ions
Ġboast ing
Ġdecre ase
Ġfrontiers men
Ġbarg aining
Ġhypertroph ic
Ġhawa iian
Ġbol t
Ġthri lling
Ġvind ication
Ġdisfig ured
Ġimpass ive
Ġscen ery
Ġveter an
Ġswed en
Ġswed es
Ġpromin ently
Ġcau c
Ġram rod
Ġdisgu ised
Ġdisregard ed
Ġeleg antly
comp any
Ġneglig ible
Ġholl abrunn
Ġcondemn ation
Ġfistula e
Ġsulph ate
cong ress
din ner
Ġpok rov
Ġlur id
Ġlur king
imper fect
Ġvag ina
Ġunint ention
Ġblank et
Ġimpart s
Ġveget able
Ġswarm ing
Ġcommonwealth s
Ġbarbar a
Ġresource ful
Ġrhythm ically
Ġtid ings
Ġcul prit
Ġmes hes
Ġye omen
Ġchlor ide
Ġspind les
Ġunjust ly
Ġtram pling
Ġunderm ine
Ġunderm ined
Ġunderm ining
Ġblaz e
Ġsurm ise
Ġsurm ises
Ġredistrib ution
Ġcran iotabes
Ġvladim ir
Ġsess ile
Ġcush ions
Ġreapp ear
Ġsuic idal
Ġevac uated
Ġentrench ment
neur oma
Ġmim icked
Ġlag ging
Ġecc lesiast
Ġintend s
Ġconfisc ated
Ġbehav iour
Ġprotrud ed
Ġingrat iating
Ġanalog y
Ġanalog ies
Ġphilosoph ic
Ġpoult ices
strept ococcus
aur icular
canc er
spe cial
yan i
infl amm
Ġbiograph y
Ġbiograph ies
Ġhook er
Ġfost ered
rost ov
Ġshcher bat
Ġexter na
Ġju ice
Ġweigh ing
Ġenh ance
Ġslop es
Ġparce l
Ġbarrel s
Ġvert ically
Ġobjection able
Ġblend ed
Ġobstin ately
Ġsamo a
Ġscrutin izing
Ġophthalm ic
Ġophthalm ia
Ġbivou acking
nin th
spir ited
irrit ants
Ġchaff ing
Ġspons or
Ġdisfranch isement
Ġmans ion
Ġmanip ulation
Ġtrache a
Ġtrache otomy
Ġindub itably
Ġfoet al
Ġslipp ery
Ġdeser ts
Ġparas itic
Ġredeem ed
Ġadjour ned
Ġworksh op
Ġadolesc ence
Ġpovars kaya
Ġanecd ote
Ġaccommod ation
Ġparoxysm s
punct ure
punct ured
Ġaur icular
Ġaur icle
Ġwad dling
Ġbun ch
Ġpens ively
Ġlect ure
Ġlect ures
Ġuk r
Ġum bil
Ġum brella
Ġfranch ise
Ġfranch ises
Ġsoire e
Ġsoire es
Ġjost led
Ġsplin ters
Ġevap oration
Ġevap orating
Ġclust er
Ġapprehens ion
Ġapprehens ive
Ġindemn ify
Ġflatt ened
Ġspeck led
Ġcleans ed
Ġcleans ing
Ġinstall ment
Ġparap et
Ġparap legia
Ġbob tailed
Ġrais ins
Ġembry o
Ġbankrupt cy
Ġloung ing
Ġmagaz ine
Ġmagaz ines
Ġdisagre ement
Ġfisher ies
Ġtack le
Ġak imbo
inn ocent
Ġwret ches
Ġferv or
Ġpere mpt
Ġmig rate
Ġstif led
Ġath let
Ġfragr ance
Ġexh ort
Ġexult antly
Ġdisillusion ment
Ġammon ia
Ġoutsp oken
Ġenf eebled
Ġbloss om
Ġpeg s
Ġcompon ent
Ġimpact ed
Ġprerog ative
Ġrefin ements
Ġelabor ate
Ġobliv ious
Ġpurchas ers
Ġsanct uary
Ġscandinav ians
Ġconjunct iva
bill on
Ġtat arinova
Ġsangu ine
Ġfissu res
Ġfirew orks
Ġpud ding
Ġmu co
Ġdares ay
charm ing
rie ved
Ġchagr in
Ġchilbl ains
Ġprover b
Ġalk aline
Ġunatt ended
Ġuncont roll
play er
Ġperine um
Ġcomprehens ion
Ġimpot ence
Ġflur ried
tex as
Ġimmeas urable
Ġexplos ives
Ġstepp es
Ġpowd ers
Ġbenef its
progress ive
Ġapraks ina
Ġspasmod ically
Ġconcur rence
Ġunconcer ned
Ġdisinfect ing
Ġsemicir cle
Ġchateau bri
coun ter
disl ocation
diph theritic
kar ay
swe ep
Ġtheore tical
Ġcott age
Ġcache xia
educ ation
Ġpon iatowski
Ġpals y
Ġding ley
Ġcomed y
ovsk is
Ġchan ning
Ġleve e
Ġunce asingly
Ġdod d
Ġdoff ed
Ġdisqu iet
Ġdiseng aged
Ġplaint ive
Ġcontag iousness
Ġtrab ecular
Ġrepugn ant
Ġremn ant
Ġcompart ment
Ġlongitud inal
Ġextir pation
Ġrecre ation
Ġinvinc ible
Ġilliter acy
restr aint
Ġtaxpay ers
Ġhamm ering
Ġstageco ach
Ġstatist ics
Ġbrav est
Ġpredecess or
Ġecchym osis
Ġconscient ious
absor bed
Ġunwr itten
Ġsidel ong
cartil aginous
surg ical
dron ushka
move ment
prod ucing
polit ical
sure ly
Ġacet ab
Ġbened ict
Ġcess ation
Ġdund ee
icher ry
Ġonlook ers
Ġasphy xia
Ġstamm ered
Ġvale ts
Ġhern ial
Ġenm ity
Ġenerg ies
Ġquer ulous
Ġquadr iceps
Ġtrump et
Ġblasp hem
Ġoverha uled
Ġpercent age
Ġattor ney
Ġfluff y
Ġsched ule
Ġscraw led
Ġdesol ation
Ġconfin ement
Ġleaden hall
Ġmemoir s
Ġirration al
Ġredund ant
Ġcurts ied
Ġpreval ent
Ġarteri oles
Ġtreph ine
Ġjeop ardy
Ġtrill ion
Ġvolta ire
Ġantitox in
Ġencamp ment
Ġmisch ievous
Ġtribut aries
Ġhorizont al
Ġsarat oga
Ġalbumin uria
Ġbaza ar
Ġpersever ance
Ġencyclopa edia
Ġrazum ovskis
Ġinconsist ent
Ġdysp noea
Ġinaccess ible
Ġrockefell er
dun yasha
fis ke
lus itania
lod ge
mort em
moll uscum
tong ue
tod ay
temp ered
Ġtalle yrand
Ġtuge ndbund
Ġaar on
Ġtheod osia
Ġoes ophagus
Ġseren ity
Ġsvents yani
Ġwav y
Ġbanc roft
Ġbizar re
Ġcov ent
engh ien
Ġfult on
Ġinacc urate
Ġnash ville
Ġstev ens
Ġyau za
Ġramp art
Ġrumm aged
Ġkais er
acqu ired
Ġexacerb ations
Ġaloy sius
Ġsphin x
Ġupris ings
Ġintract able
Ġunans w
Ġuninj ured
Ġunpreced ented
Ġadject ive
Ġimbe cile
Ġclamm y
Ġclapared e
Ġliken ess
Ġhandica pped
Ġimpenet rable
Ġflacc id
Ġgenev a
Ġscoli osis
Ġsynon ymous
Ġacup uncture
Ġacrim onious
Ġpettic o
Ġhereto fore
Ġrestaur ant
Ġdenomin ations
Ġirresp ons
Ġillustri ous
Ġlafay ette
obiograph y
Ġmediter ranean
Ġunfathom able
Ġmacaul ay
Ġhuguen ots
Ġnovosilt sev
Ġecclesiast ical
Ġchateaubri and
! **
0 4
2 21
3 34
4 20
4 10
4 49
4 47
5 6
5 00
5 49
6 6
6 20
6 22
7 3
7 8
8 3
; "
a i
a um
a fe
b en
b ow
b rew
b ath
b ys
b raid
b oned
b odied
c iv
c ult
c rit
c atch
c rum
c ream
c icat
d ou
d ig
d ire
d uc
d iss
d aw
d og
d iness
d rop
d urate
d evil
e pt
e ering
e urope
e book
e aux
e ylau
f ra
f illed
f erence
f right
f irm
f ellow
g om
g le
g al
g ol
g all
g ain
g ave
g ents
h o
h im
h og
h aven
h orse
h otonos
h ullo
i per
i ates
i atic
i ature
i omatous
j er
j ones
k ut
k ened
k ling
k illed
k new
l ut
l ter
l ain
l ich
l ate
l av
l amp
l ater
l ude
l oral
l ads
l iber
m ic
m ur
m and
m ate
m out
m ish
m are
m oved
m ex
m arch
m anship
n p
o il
o ks
p ter
p ol
p ac
p ers
p ate
p ra
p ite
p igh
p ax
p ob
p uff
p attered
p neum
p articular
p aine
p aying
p soas
r uc
r ants
r hod
r ude
r aneous
r usted
r ators
r ann
r aks
r usse
r lich
s at
s ion
s hed
s ci
s erv
s ided
s par
s car
s aid
s inus
s ilk
t urn
t ors
t inent
t ieth
u per
u ence
u ents
v i
v iv
v ost
v olent
w a
w arm
w ash
w ashed
w ski
w ostov
x imate
y ards
z ay
z ip
z ius
z naim
Ġ /
Ġ vern
Ġt ag
Ġt ab
Ġt ig
Ġt row
Ġt ren
Ġt estic
Ġt incture
Ġt aney
he y
he at
he gorod
Ġa z
Ġa er
Ġa gh
Ġa qu
Ġa ster
Ġa uction
Ġa iding
in her
in ers
in qu
in oc
in ence
in itis
in vol
Ġo t
Ġo re
Ġo ily
Ġo men
Ġs ow
Ġs ans
Ġs erm
Ġs ands
Ġs ene
Ġs acks
Ġs clav
Ġs ardon
re pe
re ys
re mes
Ġw ick
Ġw ither
Ġw ired
Ġw ww
Ġw icket
Ġw reath
er st
on et
at ious
at ories
Ġb i
Ġb oo
Ġb act
Ġb we
Ġb ower
Ġb ash
Ġb unk
Ġb athe
Ġb itski
Ġb oul
Ġb ordered
Ġb enches
is ers
is ome
is ci
is co
is ively
is hers
Ġc us
Ġc um
Ġc ree
Ġc ement
Ġc ze
Ġc ette
ed ged
Ġh m
Ġh one
Ġh og
Ġh inges
it im
it ch
it erated
Ġf es
Ġf ich
Ġf als
Ġf ission
Ġf aut
Ġf ences
Ġp ard
Ġp ence
Ġp ang
Ġp ian
Ġp itting
Ġp ung
Ġp ony
Ġp ints
Ġp akh
Ġm ates
Ġm ined
Ġm erest
Ġm astic
Ġm owing
Ġm umbling
es hy
ing ers
Ġin ad
Ġin ve
Ġin verse
Ġin aud
Ġin unction
Ġin effect
Ġd ick
Ġd ating
Ġd uck
Ġd orr
Ġd ams
Ġd usted
Ġd aunted
Ġd angling
Ġd uchy
Ġto ils
Ġto cqu
or ge
or ingly
or ama
ar n
ar rest
an al
an ous
an na
an itz
an alysis
as ia
as ters
Ġth res
Ġth aw
Ġth undered
Ġl ut
Ġl am
Ġl op
Ġl ome
Ġl oun
Ġl ata
ll ers
Ġn ause
Ġn aming
Ġn ether
Ġhe ave
Ġhe arers
Ġhe brew
om at
om att
ic ide
ic osity
ion age
Ġe chin
le m
le ather
Ġg il
Ġg ust
Ġg age
Ġg ear
Ġg ase
Ġg na
Ġg ads
Ġg oli
Ġg inger
Ġbe an
Ġbe ats
Ġbe ads
Ġbe echer
al ation
al cul
al ien
ent ive
ent ering
ent ery
ad t
ad ic
ad dle
ad onna
Ġre ed
Ġre ap
Ġre read
Ġre te
Ġre aw
Ġre aping
Ġre eds
ro ar
ro gen
ro lysis
st ates
st ick
st rict
st olen
ut s
ut tered
ut arch
ly pin
id ate
ot er
ot rich
se a
se par
se cut
ve x
ve y
ve lling
ve reshchagin
ce ipt
ce phal
Ġu pp
Ġit ems
ur ous
ur iously
ur ida
Ġhis sed
Ġas ia
Ġas iatic
Ġst reat
Ġst ops
Ġst ability
Ġst ale
Ġst asis
Ġst ables
Ġst agger
Ġst icks
Ġst owe
Ġi g
Ġi ritis
ver a
Ġis chaemic
Ġfor am
Ġfor ged
et a
et erm
et ime
ir ium
ir rel
Ġr im
Ġr ation
Ġr if
Ġr ous
Ġr ans
Ġr ite
Ġr ations
Ġr use
Ġr aged
Ġr ake
Ġr anches
Ġr ousing
ch al
ch ik
ch rist
ch lear
Ġat om
Ġat rop
Ġcon an
Ġcon cise
Ġcon nois
Ġcon kling
Ġcon secut
Ġha ck
Ġha ze
Ġha ught
Ġha worth
Ġha voc
Ġfr am
Ġfr ust
Ġfr au
Ġfr ater
Ġfr antic
Ġfr anz
Ġfr antically
ter ly
ter ians
ol a
Ġyou ths
ess es
il ib
ul ino
Ġse et
Ġse cl
Ġse ating
Ġse izes
Ġse aco
res ent
us on
Ġde ment
Ġde ane
Ġde br
Ġde als
Ġde ploy
Ġde igned
Ġde lete
Ġsu e
Ġsu is
Ġv ie
ri ent
ri est
ich ond
and ise
Ġsh ag
Ġsh ant
Ġsh ine
Ġsh oving
Ġsh ays
Ġsh aded
Ġk h
Ġk il
Ġk oly
ac ial
Ġher cul
Ġex iled
Ġex agg
Ġso ot
Ġso phia
Ġso cket
os in
os er
os se
os ures
ill o
Ġbut cher
th ou
th ar
th ouse
th aemia
th rop
th rough
Ġcom a
Ġcom ic
Ġne o
em inal
em bered
em bro
em akers
Ġsa it
Ġpr ze
Ġpr icking
Ġpr udence
ov s
ov ial
ov ski
qu es
Ġch ig
Ġch iff
Ġch rom
Ġch af
Ġch loral
Ġall usions
ant i
ant own
ak in
ak ia
um ing
ab and
ab dom
ab ashed
ab leness
Ġwhe w
." )
Ġal am
Ġal ph
Ġal tering
ig ger
ig uous
Ġar row
Ġar isen
Ġar kharovs
Ġj ets
Ġj ovial
Ġsp ade
Ġsp elling
ust ible
Ġro ans
Ġro oted
Ġro ses
Ġro gue
Ġwe ld
Ġwe ars
Ġwe ird
art ory
ard ing
out e
Ġup side
Ġup dated
Ġup heav
Ġup braid
Ġup roar
Ġint ros
Ġint ensive
Ġint rud
Ġint angible
Ġint emper
Ġint uition
op y
op ian
op erate
Ġle ap
Ġle vers
Ġle eches
Ġle vy
Ġle wis
Ġle pros
Ġle gend
Ġab ys
Ġab ras
Ġab laz
Ġfe at
Ġun b
Ġun h
Ġun en
Ġun aw
Ġun app
Ġun kind
Ġun armed
ff e
ff ler
Ġdis av
Ġdis par
Ġdis asters
Ġman ned
Ġthere after
ame l
iv ated
iv ided
Ġam ster
Ġam ply
Ġam icable
Ġam orous
ong ru
ra ught
Ġad ip
Ġad orn
Ġad ieu
Ġad hering
Ġad ept
Ġad raks
per for
un ft
un ching
Ġkn uck
Ġco here
Ġco eur
ge orge
pt on
pt uous
Ġmy oma
Ġim ages
Ġim itating
the w
oc her
Ġout s
Ġout do
Ġout fit
Ġout growths
Ġout done
ast in
Ġen ables
Ġen compass
Ġpl ank
Ġpl ural
Ġpl astic
Ġpl ume
Ġpl ums
Ġpl unging
Ġpl utarch
ount ing
Ġag ile
Ġag grand
Ġfre ak
ib ib
pl at
pl aces
ost erous
su it
su pra
?" --
Ġqu ote
ough am
el in
od a
Ġcl ing
Ġcl int
Ġcl ump
Ġcl asp
Ġcl amped
Ġcl anking
Ġcl enched
Ġapp osed
Ġapp lies
Ġapp omatt
Ġcont ested
Ġcont ending
Ġcont amination
ans ion
Ġoff ence
ci us
ci ating
own ed
own ess
own ers
av ulsion
ass umed
Ġtr ape
Ġtr inity
Ġtr iceps
Ġtr ismus
Ġloo p
Ġunder line
Ġsm el
Ġsm ack
Ġsm ash
Ġsm ote
Ġsm elt
Ġprince ly
Ġprince ton
Ġres on
Ġres ounding
Ġcan vas
Ġcan crum
Ġcan opy
Ġem ol
Ġem pe
Ġem bers
Ġem itted
Ġem igrant
Ġrep airs
Ġrep ressing
Ġrep orter
Ġcomm its
Ġli pping
Ġli kened
Ġbl aming
Ġbl undered
ish ness
ish na
Ġrem ot
Ġrem ounts
Ġbr ist
Ġbr uce
Ġbr ink
Ġbr ougham
Ġind ignant
ang iectasis
Ġ( *
Ġover coming
Ġover power
Ġover borne
Ġwill ful
ult ory
are n
Ġtw in
Ġtw ins
ep idermis
Ġpe u
Ġpe ak
Ġpe aked
Ġform ula
ha ir
ha ustible
fore ign
Ġper u
Ġper ched
Ġper ichond
Ġhow l
Ġhow ard
Ġgr ud
Ġgr ape
Ġgr umbling
Ġnew ton
int erest
Ġinf er
Ġinf irm
Ġinf erences
Ġgl ade
Ġgl oved
Ġgl aring
Ġgl ott
Ġgl ued
Ġfo am
Ġfo nder
Ġcomp asses
ud ent
Ġimp ed
Ġimp lying
Ġimp arted
Ġimp rud
Ġpre uss
Ġpre aching
Ġpre lude
iz ement
Ġatt ic
Ġatt ire
yes terday
Ġcons erve
Ġcons ume
Ġcons cript
Ġcons umption
Ġcons pired
Ġexp ound
Ġexp el
Ġexp ended
Ġfl ail
Ġfl ick
Ġfl amed
Ġfl akes
Ġfl ints
Ġfl ashing
Ġfl eshy
Ġbeg g
co cc
co gen
Ġpres by
uc rum
ber ing
Ġwar ring
Ġwar ships
Ġwar rants
Ġgen oa
ull och
erv ance
Ġsc y
Ġsc rib
Ġsc ored
Ġsc uff
ens ing
Ġmar s
Ġmar ines
Ġmar oon
Ġmar riages
Ġmar bury
Ġmar quette
Ġdown fall
uss ian
Ġstr ay
Ġstr ide
Ġstr ayed
Ġsl ab
Ġsl ide
Ġsl ower
Ġsl ugg
Ġsl ums
Ġsl apping
eric idal
we e
ord re
iss ible
ful s
Ġreg rets
Ġcar ous
Ġthought less
Ġob so
Ġob durate
na is
na iss
Ġent ries
Ġdes c
Ġdes ultory
Ġ18 19
Ġsub t
Ġsub ungual
Ġaff ili
ne x
ne ck
Ġ3 48
Ġwhere in
Ġwhere of
Ġwhere about
ole ons
Ġac he
Ġac ce
Ġmet chnikoff
Ġpeop led
ail able
Ġthin ned
Ġhead wat
ru ciating
Ġdist raction
Ġdist rusted
Ġdist raught
Ġinter l
Ġinter ced
Ġinter rog
Ġinc ont
Ġinc alcul
Ġinc ongru
Ġconf ound
Ġconf using
Ġconf ront
Ġsupp l
Ġsupp ers
Ġsupp ressing
Ġsupp orter
Ġrel ay
Ġrel ish
Ġrel ied
Ġrel ays
Ġrel apsed
Ġrel inqu
og n
Ġdiff using
Ġend ang
Ġext rud
Ġext raneous
Ġext remes
Ġass id
Ġass ess
Ġcond y
Ġmak er
Ġchar ring
Ġchar ging
Ġword ing
Ġfound er
Ġcor ium
Ġcor rections
Ġcall osity
Ġcall osities
Ġmosc ou
Ġref uses
Ġref ract
Ġref uting
Ġadd icted
Ġpet it
Ġpet ro
Ġpet ted
oth y
oth rix
Ġrec ite
Ġwound ing
Ġdef y
Ġinv itations
Ġinv aders
Ġpat ro
Ġpat erson
cept ive
Ġstate craft
Ġyoung ster
Ġadv sh
Ġadv ances
Ġpers pired
ific ans
Ġhist ological
Ġfar away
Ġfar adic
Ġeff igy
Ġvo ir
Ġvo iced
Ġvo lley
ev ille
Ġnap oleons
Ġbro oks
Ġhere ford
Ġinst alled
Ġ5 000
Ġ5 16
Ġ5 17
Ġpower fully
Ġfore leg
Ġgrow led
Ġma im
Ġma hog
Ġdon ets
Ġear l
Ġear rings
vers ed
vers us
Ġdep rec
Ġdr umm
Ġden ounce
Ġden ouncing
Ġround s
Ġsil very
Ġleg itim
Ġel ated
Ġel ias
Ġskin s
Ġmus c
ten o
ten ess
ten ham
Ġdem ean
Ġthink er
Ġthink ers
li qu
you ng
ilit as
Ġsim ulating
ange l
Ġpain lessly
Ġmin iature
Ġfriend liness
Ġca ressed
Ġph ren
Ġph leg
Ġgu ides
Ġvar icosity
Ġmor se
Ġmor io
Ġmor occ
Ġmor car
Ġir ref
Ġput rid
Ġdoor post
Ġwr ap
Ġwr ithing
Ġwr np
Ġpar ad
Ġsin ful
Ġsin ner
Ġred der
Ġconv ened
Ġmake ev
Ġmon ogram
Ġmon mouth
Ġmon seigneur
sh ire
Ġche at
Ġche ster
Ġche wing
Ġche ese
Ġcr us
Ġcr adle
Ġbo or
Ġbo ister
Ġbo oming
Ġbeh old
Ġdec rep
not es
Ġrece iver
no ble
Ġcongress es
Ġcongress men
Ġnecess ities
Ġnecess itate
Ġprov oc
Ġprov ides
ces ter
Ġdet ested
gn ette
de fect
Ġlab yrin
Ġsent enced
Ġbus ily
ck y
ck mu
Ġsw oop
Ġsw abs
Ġdest it
ars ivan
Ġimm ov
Ġimm ersed
Ġimm igrant
Ġtub ular
Ġsever ing
Ġappro bation
Ġappro ximate
Ġprod ig
Ġlist ing
Ġbon fires
Ġcur b
Ġcur ative
Ġcur ves
Ġcur sing
Ġcur sed
Ġsec urities
Ġquestion ingly
Ġinfl ation
br ush
br unn
br immed
Ġprev ailing
Ġlight ness
---- +--------
ble ed
Ġlay s
Ġhum our
Ġhum ility
Ġnight mare
Ġmer cil
Ġmer riest
Ġang ina
Ġ17 2
Ġ17 50
Ġed it
Ġed ifice
Ġdisc ourse
Ġdisc arded
Ġdisc reet
Ġste er
Ġstep an
uck r
Ġbes ee
Ġpap ular
Ġpap ule
Ġpap illary
Ġbri gham
Ġland au
Ġland less
Ġkind le
Ġkind ling
Ġkind liness
Ġmiss ile
Ġincre asingly
ym n
Ġcoll isions
Ġcondition al
Ġcondition ally
Ġexc used
Ġexc ruciating
Ġprot ocol
Ġprot rusion
Ġsound ing
Ġsound ness
Ġdel ays
Ġdel hi
Ġgod father
ec uted
Ġaw ed
Ġaw ry
Ġdiv ined
Ġfoot fall
Ġfoot notes
Ġten ant
Ġten acious
Ġten aciously
Ġtra ppers
Ġtra versed
Ġill usion
Ġill ogical
Ġgerm antown
Ġlabor ing
Ġwhite washed
ocr at
edi ately
Ġrun g
Ġdev oured
Ġdev iations
Ġbal k
Ġbal moral
Ġexpression less
oud ed
peri ence
Ġmad man
Ġheav ing
app arent
Ġdisp osing
Ġdisp atching
Ġnational ized
Ġep isc
Ġep isp
Ġdoub ting
Ġlin king
Ġdecl ares
Ġdeep ened
Ġhome ward
Ġequ ity
Ġequ ilib
Ġfrequ ented
Ġrecogn isable
Ġ6 10
Ġ6 19
Ġ6 11
Ġ6 41
Ġmid way
Ġdri es
Ġdri lled
Ġdri pping
uten ess
Ġplan es
Ġsubject ive
Ġtalk ative
Ġwat ered
Ġlimb ers
Ġsto lypin
Ġball et
Ġfull ness
Ġreason ableness
Ġpleas anter
Ġbest owed
velop ed
Ġwall et
Ġeffect ing
Ġcut is
Ġhur led
Ġwal tz
Ġcomple ment
Ġcomple teness
Ġfing ered
Ġshort ness
Ġtown ship
Ġprep osterous
con ce
Ġsn atches
Ġbar ber
Ġbar ren
Ġbar ley
Ġprof ited
Ġprof lig
Ġspir al
com mon
Ġgre ase
Ġask ance
Ġperiod ically
Ġcross roads
Ġpast ure
gr ade
Ġpost al
Ġpost mark
Ġvot er
Ġut il
Ġforward ed
Ġsum mit
Ġvill e
Ġelect or
Ġstart s
Ġblack sm
Ġblack guard
Ġlocal isation
rang ing
Ġulcer ative
Ġpen it
gg y
gg er
rom ion
Ġann iversary
aph y
Ġ16 5
gen stein
Ġtri pping
Ġtri gger
Ġpay ne
Ġsqu atters
Ġsqu irrel
Ġrail ings
Ġrequ ested
Ġrequ ests
Ġsac ked
Ġer b
Ġer ad
Ġsal ut
Ġcav al
ash ka
Ġimag in
Ġimag ines
Ġz at
Ġz inc
Ġtill age
Ġdeb ility
Ġobserv ance
Ġwater pro
Ġacqu ies
Ġacqu iring
ract ure
Ġster ling
Ġcourt ly
Ġver ruc
Ġfort ress
Ġfort ification
Ġfort ify
Ġfort ifications
Ġfort resses
Ġsuper fic
Ġsuper venes
Ġvol can
Ġprevent ive
aut obiography
orrh aphy
Ġexam ines
Ġscar ce
Ġscar city
Ġty rann
Ġmed al
Ġmed als
Ġant itoxic
Ġstri pping
Ġneck lace
Ġemb ank
Ġtou lon
Ġ10 6
Ġcompl iments
Ġsout heast
Ġho ch
Ġho arseness
Ġboy ish
Ġlo ft
Ġlo ath
Ġmo ll
Ġmo haw
arch y
Ġrad iance
Ġinflu x
Ġlaugh ingly
Ġcy n
12 1
12 5
Ġjo lly
Ġresp ite
Ġap es
Ġap athy
Ġpurp ort
Ġexcell ence
Ġtor sion
Ġexcl aiming
Ġexcl amations
Ġinn ate
Ġinn ervation
my oma
my cetoma
Ġmil ky
Ġforg ave
Ġmal pigh
Ġund aunted
Ġstra it
Ġstra its
Ġthick et
Ġenl ist
18 8
Ġsol es
Ġsol utions
Ġcop ern
Ġprogress ing
Ġaccept able
Ġbright est
Ġbright ening
Ġobject ive
Ġarri ves
Ġsecret aries
Ġlib r
Ġlib erate
Ġaim less
she lter
Ġbound less
Ġcapital ist
Ġwin es
Ġwin throp
Ġcomb ining
Ġadminist rator
Ġtemper ate
Ġtemper atures
Ġindivid ually
Ġmembers hip
Ġlif etime
Ġsch lapp
Ġur ate
Ġur ates
Ġur gency
Ġindividual ity
Ġfem me
Ġhope ful
Ġpun ched
Ġpun ishing
Ġplain er
mer c
Ġcommun ist
Ġcommun istic
Ġcommun icates
Ġble ak
Ġble bs
Ġhot els
Ġeb cd
Ġloud est
astic us
Ġirrit ate
Ġimpro ves
ze wski
Ġ12 4
Ġflo ors
Ġflo pped
Ġviol ating
Ġmis car
Ġmis leading
oste oma
Ġsharp ened
Ġsharp ening
Ġbroad ly
Ġbroad cast
Ġdam n
Ġbell adonna
Ġsight ed
Ġecon omical
Ġham p
Ġham mer
bl isters
Ġforest ry
Ġforest alling
tm l
path ogenic
Ġlord ship
Ġnar rated
Ġgrad uate
lin coln
rel ig
Ġdeg lut
Ġearth work
Ġcircul ate
Ġbir ming
urs or
Ġforget fulness
af raid
Ġdischar ging
Ġpy ocy
Ġimpl anting
Ġimpl icit
Ġimpl oringly
Ġgrand e
Ġmater nal
Ġimper tur
Ġimper tinent
Ġwarm ing
leg al
bo ats
pro f
pro p
Ġperform ances
Ġinh alation
Ġder og
sy n
Ġlou ise
Ġnotice ably
Ġunex p
Ġunex ecuted
20 8
Ġtrem ens
Ġtrem ors
Ġagree ably
Ġconvin ces
Ġexer ting
Ġplat oon
Ġ20 6
Ġ180 1
Ġstat ute
Ġstat utes
Ġstat ues
Ġfro g
10 4
Ġbra very
ded uctible
Ġdeal ers
Ġ30 6
Ġ32 7
Ġthor ns
Ġgri pping
Ġconce ited
Ġmerch andise
Ġcord ed
Ġreform ation
Ġinstant aneously
Ġguards men
Ġenjoy s
Ġenjoy able
omin ated
Ġsubm ucous
Ġbeat ific
Ġbeat son
Ġtype writ
Ġtype writing
Ġrat ifying
Ġleuc ocy
Ġnav ig
Ġven eration
Ġberg s
Ġfurn ace
Ġfurn ishing
Ġfair ness
Ġcolour less
athe ter
16 6
16 7
Ġ46 8
ators hip
Ġcat al
Ġcat arrh
Ġcou pled
Ġhom me
Ġyell s
Ġyell ing
Ġhall s
[...]
