{"!":0,"\"":1,"#":2,"$":3,"%":4,"&":5,"'":6,"(":7,")":8,"*":9,"+":10,",":11,"-":12,".":13,"/":14,"0":15,"1":16,"2":17,"3":18,"4":19,"5":20,"6":21,"7":22,"8":23,"9":24,":":25,";":26,"<":27,"=":28,">":29,"?":30,"@":31,"A":32,"B":33,"C":34,"D":35,"E":36,"F":37,"G":38,"H":39,"I":40,"J":41,"K":42,"L":43,"M":44,"N":45,"O":46,"P":47,"Q":48,"R":49,"S":50,"T":51,"U":52,"V":53,"W":54,"X":55,"Y":56,"Z":57,"[":58,"\\":59,"]":60,"^":61,"_":62,"`":63,"a":64,"b":65,"c":66,"d":67,"e":68,"f":69,"g":70,"h":71,"i":72,"j":73,"k":74,"l":75,"m":76,"n":77,"o":78,"p":79,"q":80,"r":81,"s":82,"t":83,"u":84,"v":85,"w":86,"x":87,"y":88,"z":89,"{":90,"|":91,"}":92,"~":93,"¡":94,"¢":95,"£":96,"¤":97,"¥":98,"¦":99,"§":100,"¨":101,"©":102,"ª":103,"«":104,"¬":105,"®":106,"¯":107,"°":108,"±":109,"²":110,"³":111,"´":112,"µ":113,"¶":114,"·":115,"¸":116,"¹":117,"º":118,"»":119,"¼":120,"½":121,"¾":122,"¿":123,"À":124,"Á":125,"Â":126,"Ã":127,"Ä":128,"Å":129,"Æ":130,"Ç":131,"È":132,"É":133,"Ê":134,"Ë":135,"Ì":136,"Í":137,"Î":138,"Ï":139,"Ð":140,"Ñ":141,"Ò":142,"Ó":143,"Ô":144,"Õ":145,"Ö":146,"×":147,"Ø":148,"Ù":149,"Ú":150,"Û":151,"Ü":152,"Ý":153,"Þ":154,"ß":155,"à":156,"á":157,"â":158,"ã":159,"ä":160,"å":161,"æ":162,"ç":163,"è":164,"é":165,"ê":166,"ë":167,"ì":168,"í":169,"î":170,"ï":171,"ð":172,"ñ":173,"ò":174,"ó":175,"ô":176,"õ":177,"ö":178,"÷":179,"ø":180,"ù":181,"ú":182,"û":183,"ü":184,"ý":185,"þ":186,"ÿ":187,"Ā":188,"ā":189,"Ă":190,"ă":191,"Ą":192,"ą":193,"Ć":194,"ć":195,"Ĉ":196,"ĉ":197,"Ċ":198,"ċ":199,"Č":200,"č":201,"Ď":202,"ď":203,"Đ":204,"đ":205,"Ē":206,"ē":207,"Ĕ":208,"ĕ":209,"Ė":210,"ė":211,"Ę":212,"ę":213,"Ě":214,"ě":215,"Ĝ":216,"ĝ":217,"Ğ":218,"ğ":219,"Ġ":220,"ġ":221,"Ģ":222,"ģ":223,"Ĥ":224,"ĥ":225,"Ħ":226,"ħ":227,"Ĩ":228,"ĩ":229,"Ī":230,"ī":231,"Ĭ":232,"ĭ":233,"Į":234,"į":235,"İ":236,"ı":237,"Ĳ":238,"ĳ":239,"Ĵ":240,"ĵ":241,"Ķ":242,"ķ":243,"ĸ":244,"Ĺ":245,"ĺ":246,"Ļ":247,"ļ":248,"Ľ":249,"ľ":250,"Ŀ":251,"ŀ":252,"Ł":253,"ł":254,"Ń":255,"Ġt":256,"he":257,"Ġa":258,"in":259,"Ġthe":260,"Ġo":261,"Ġs":262,"re":263,"Ġw":264,"nd":265,"er":266,"on":267,"at":268,"Ġb":269,"is":270,"Ġc":271,"ed":272,"Ġh":273,"it":274,"en":275,"Ġof":276,"Ġf":277,"Ġp":278,"Ġm":279,"Ġand":280,"ou":281,"es":282,"ing":283,"Ġin":284,"Ġd":285,"Ġto":286,"or":287,"ar":288,"an":289,"as":290,"Ġth":291,"Ġl":292,"ll":293,"Ġn":294,"Ġhe":295,"om":296,"ic":297,"ion":298,"ĠĠ":299,"Ġe":300,"le":301,"Ġg":302,"Ġbe":303,"al":304,"ent":305,"ad":306,"Ġre":307,"ro":308,"st":309,"ut":310,"im":311,"ly":312,"id":313,"Ġwh":314,"ot":315,"se":316,"ve":317,"ce":318,"Ġ\"":319,"ow":320,"Ġon":321,"Ġu":322,"ct":323,"Ġit":324,"Ġthat":325,"Ġwas":326,"ith":327,"Ġwith":328,"ld":329,"ur":330,"Ġhis":331,"ay":332,"Ġas":333,"Ġst":334,"Ġi":335,"ver":336,"Ġis":337,"Ġfor":338,"et":339,"gh":340,"Ġy":341,"ir":342,"Ġan":343,"Ġr":344,"ation":345,"ch":346,"Ġat":347,"ere":348,"Ġnot":349,"Ġcon":350,"Ġha":351,"Ġfr":352,"ter":353,"am":354,"ĠĠĠĠ":355,"ol":356,"Ġhad":357,"Ġyou":358,"Ġor":359,"her":360,"ess":361,"il":362,"ul":363,"all":364,"Ġse":365,"Ġby":366,"res":367,"ain":368,"Ġhim":369,"us":370,"ght":371,"Ġde":372,"Ġsu":373,"Ġv":374,"ri":375,"ich":376,"--":377,"and":378,"Ġsh":379,"Ġk":380,"ac":381,"pp":382,"Ġher":383,"Ġex":384,"Ġfrom":385,"oo":386,"'s":387,"Ġso":388,"ers":389,"os":390,"ill":391,"Ġbut":392,"ould":393,"th":394,"Ġcom":395,"Ġne":396,"em":397,"ag":398,"if":399,"ore":400,"Ġsa":401,"Ġwhich":402,"Ġpr":403,"ov":404,"ect":405,"ous":406,"qu":407,"ap":408,"Ġch":409,"est":410,"Ġall":411,"ant":412,"..":413,"ak":414,"um":415,"ab":416,"Ġwhe":417,"Ġwere":418,"Ġshe":419,"Ġpro":420,"nt":421,"ist":422,"ight":423,".\"":424,"Ġal":425,"ate":426,"ig":427,"Ġar":428,"Ġwho":429,"Ġthis":430,"Ġj":431,"Ġare":432,"Ġthey":433,"Ġsp":434,"ust":435,"Ġro":436,"Ġwe":437,"art":438,"ound":439,"ard":440,"Ġme":441,"out":442,"Ġup":443,"ment":444,"ive":445,"Ġint":446,"one":447,"op":448,"Ġsaid":449,"red":450,"Ġhave":451,",\"":452,"Ġle":453,"Ġab":454,"Ġfe":455,"Ġ1":456,"Ġun":457,"Ġone":458,"ie":459,"ary":460,"ies":461,"Ġdo":462,"very":463,"ress":464,"Ġprin":465,"sel":466,"ff":467,"our":468,"ity":469,"Ġdis":470,"Ġman":471,"Ġthere":472,"ame":473,"iv":474,"Ġam":475,"ong":476,"ome":477,"Ġtheir":478,"ther":479,"ra":480,"Ġwhen":481,"Ġad":482,"per":483,"ked":484,"un":485,"ĠĠĠĠĠĠĠĠ":486,"ure":487,"Ġgo":488,"ace":489,"ally":490,"ort":491,"Ġkn":492,"cc":493,"ood":494,"Ġco":495,"ge":496,"pt":497,"ated":498,"ier":499,"Ġno":500,"Ġbeen":501,"Ġwhat":502,"Ġthem":503,"Ġmay":504,"hed":505,"Ġ_":506,"Ġmy":507,"ions":508,"Ġim":509,"ry":510,"the":511,"nder":512,"oc":513,"Ġout":514,"ast":515,"Ġen":516,"Ġpl":517,"ount":518,"ke":519,"Ġag":520,"Ġfre":521,"act":522,"ib":523,"pl":524,"ind":525,"Ġev":526,"ost":527,"able":528,"su":529,"reat":530,"au":531,"?\"":532,"!\"":533,"Ġwor":534,"ell":535,"Ġqu":536,"Ġif":537,"self":538,"ough":539,"ose":540,"Ġinto":541,"row":542,"cess":543,"ered":544,"el":545,"od":546,"Ġmore":547,"ack":548,"hing":549,"ance":550,"Ġcl":551,"Ġapp":552,"Ġcont":553,"ans":554,"Ġoff":555,"ci":556,"own":557,"av":558,"end":559,"Ġpier":560,"ass":561,"Ġother":562,"itt":563,"Ġtr":564,"Ġwould":565,"Ġloo":566,"ide":567,"Ġpierre":568,"Ġunder":569,"Ġsm":570,"Ġprince":571,"Ġdid":572,"Ġpart":573,"Ġtim":574,"age":575,"ice":576,"Ġany":577,"urn":578,"ite":579,"Ġres":580,"way":581,"Ġaf":582,"Ġonly":583,"Ġcan":584,"Ġcount":585,"Ġsome":586,"ence":587,"ear":588,"Ġem":589,"Ġrep":590,"ub":591,"cl":592,"Ġcomm":593,"Ġli":594,"Ġbl":595,"ish":596,"Ġrem":597,"ase":598,"Ġbr":599,"Ġind":600,"ang":601,"Ġ(":602,"rew":603,"Ġover":604,"Ġcould":605,"Ġwill":606,"ult":607,"ine":608,"are":609,"ought":610,"Ġtw":611,"Ġbec":612,"ep":613,"Ġpe":614,"Ġhand":615,"Ġits":616,"Ġnat":617,"ile":618,"Ġnow":619,"Ġform":620,"ha":621,"Ġafter":622,"ove":623,"ft":624,"Ġhas":625,"fore":626,"Ġper":627,"king":628,"Ġhow":629,"Ġgr":630,"ial":631,"ates":632,"ire":633,"Ġnew":634,"Ġshould":635,"int":636,"ition":637,"ade":638,"Ġtime":639,"ied":640,"ĠĠĠ":641,"ia":642,"Ġinf":643,"ction":644,"Ġagain":645,"Ġgl":646,"Ġfir":647,"Ġevery":648,"Ġfo":649,"Ġtak":650,"Ġarm":651,"Ġcomp":652,"Ġabout":653,"ud":654,"Ġimp":655,"Ġthen":656,"wn":657,"ations":658,"Ġpre":659,"ign":660,"iz":661,"Ġyour":662,"Ġatt":663,"Ġsuch":664,"eral":665,"yes":666,"ph":667,"Ġcons":668,"Ġexp":669,"Ġbefore":670,"Ġfl":671,"oss":672,"Ġthan":673,"Ġbeg":674,"ical":675,"co":676,"Ġpres":677,"ory":678,"Ġknow":679,"uc":680,"ber":681,"ife":682,"'t":683,"anc":684,"nch":685,"Ġsee":686,"Ġvery":687,"Ġwar":688,"Ġgen":689,"ach":690,"ull":691,"Ġlong":692,"orm":693,"Ġday":694,"asha":695,"erv":696,"ious":697,"Ġsc":698,"ens":699,"Ġmar":700,"oint":701,"ise":702,"ue":703,"Ġfrench":704,"Ġdown":705,"ness":706,"uss":707,"ons":708,"Ġstr":709,"Ġold":710,"Ġeven":711,"other":712,"ip":713,"Ġthese":714,"Ġsl":715,"Ġmen":716,"ors":717,"ward":718,"Ġnatasha":719,"Ġthose":720,"ular":721,"Ġsay":722,"Ġsur":723,"iff":724,"ident":725,"eric":726,"Ġfirst":727,"Ġandrew":728,"Ġhimself":729,"we":730,"Ġour":731,"ord":732,"ks":733,"Ġface":734,"omet":735,"Ġlike":736,"tain":737,"Ġ2":738,"ok":739,"iss":740,"lic":741,"ited":742,"Ġacc":743,"Ġupon":744,"Ġtwo":745,"Ġgreat":746,"ried":747,"oy":748,"Ġsomet":749,"ened":750,"ful":751,"llow":752,"Ġreg":753,"wh":754,"Ġsy":755,"Ġrost":756,"ution":757,"ause":758,"ather":759,"Ġthr":760,"air":761,"Ġcar":762,"Ġthought":763,"Ġob":764,"na":765,"ath":766,"Ġus":767,"ject":768,"Ġsame":769,"read":770,"Ġocc":771,"Ġameric":772,"Ġent":773,"ible":774,"Ġmust":775,"ily":776,"Ġstates":777,"erm":778,"ian":779,"ning":780,"te":781,"Ġop":782,"ittle":783,"aw":784,"Ġwent":785,"Ġdes":786,"Ġcol":787,"Ġwithout":788,"Ġmade":789,"vern":790,"Ġbet":791,"Ġroom":792,"Ġ18":793,"Ġlittle":794,"Ġact":795,"att":796,"Ġcame":797,"Ġpass":798,"amp":799,"Ġord":800,"Ġsub":801,"Ġaff":802,"Ġspe":803,"ne":804,"so":805,"ree":806,"Ġrostov":807,"Ġseem":808,"Ġ3":809,"Ġwhere":810,"Ġoffic":811,"ole":812,"ings":813,"Ġac":814,"...":815,"Ġturn":816,"Ġmet":817,"ty":818,"Ġpeop":819,"Ġ4":820,"Ġeyes":821,"ng":822,"Ġgeneral":823,"Ġprincess":824,"ail":825,"Ġown":826,"Ġway":827,"lt":828,"ave":829,"ower":830,"Ġbeing":831,"Ġstill":832,"ving":833,"Ġmost":834,"Ġthin":835,"ared":836,"Ġgovern":837,"Ġlet":838,"Ġsk":839,"Ġhead":840,"ents":841,"Ġjust":842,"ru":843,"Ġpeople":844,"rib":845,"Ġright":846,"Ġthrough":847,"Ġ=":848,"led":849,"Ġdist":850,"issu":851,"ears":852,"Ġlife":853,"ya":854,"Ġpol":855,"Ġcome":856,"ished":857,"ĠĠĠĠĠĠĠĠĠĠĠĠĠĠĠĠ":858,"pe":859,"Ġinter":860,"Ġinc":861,"Ġtissu":862,"ised":863,"thing":864,"Ġaway":865,"Ġmary":866,"Ġconf":867,"Ġsupp":868,"hes":869,"ick":870,"Ġanother":871,"Ġleft":872,"Ġrel":873,"Ġret":874,"ures":875,"og":876,"Ġdiff":877,"atter":878,"Ġend":879,"Ġhapp":880,"Ġext":881,"Ġgood":882,"Ġass":883,"les":884,"Ġback":885,"ouse":886,"Ġcond":887,"Ġwell":888,"Ġbegan":889,"ted":890,"Ġmak":891,"Ġruss":892,"Ġchar":893,"ild":894,"den":895,"=--":896,"ected":897,"ration":898,"Ġson":899,".=--":900,"Ġasked":901,"Ġalso":902,"cer":903,"Ġdise":904,"Ġresult":905,"Ġconst":906,"00":907,"Ġword":908,"Ġarmy":909,"igh":910,"ved":911,"Ġcap":912,"osc":913,"uch":914,"Ġlooked":915,"Ġeng":916,"ways":917,"ating":918,"Ġfound":919,"ond":920,"Ġstre":921,"Ġwhile":922,"Ġwhole":923,"Ġcour":924,"ection":925,"Ġfollow":926,"ater":927,"Ġshall":928,"Ġcor":929,"Ġcall":930,"Ġhouse":931,"Ġ'":932,"Ġmosc":933,"rit":934,"ases":935,"ys":936,"Ġkne":937,"Ġread":938,"Ġunderst":939,"Ġref":940,"Ġadd":941,"Ġmoscow":942,"ute":943,"ont":944,"ient":945,"enc":946,"Ġwom":947,"Ġpet":948,"ict":949,"oth":950,"Ġrec":951,"Ġcle":952,"ublic":953,"Ġwound":954,"Ġdef":955,"Ġinv":956,"cul":957,"Ġusu":958,"Ġfelt":959,"Ġser":960,"ix":961,"ros":962,"ief":963,"Ġseemed":964,"Ġpat":965,"man":966,"cept":967,"Ġstate":968,"Ġgovernment":969,"Ġyoung":970,"Ġadv":971,"Ġpers":972,"ific":973,"old":974,"Ġlaw":975,"Ġamerican":976,"Ġsold":977,"Ġsomething":978,"land":979,"Ġhist":980,"Ġplace":981,"Ġemper":982,"Ġset":983,"Ġabs":984,"gress":985,"osed":986,"Ġfar":987,"Ġmuch":988,"Ġte":989,"Ġcontin":990,"Ġeff":991,"ined":992,"Ġvo":993,"ev":994,"Ġhaving":995,"Ġtal":996,"Ġnap":997,"Ġnor":998,"ween":999,"Ġagainst":1000,"Ġbro":1001,"Ġhere":1002,"Ġinst":1003,"uring":1004,"well":1005,"Ġes":1006,"Ġlar":1007,"Ġ5":1008,"osition":1009,"Ġbetween":1010,"olas":1011,"Ġemperor":1012,"Ġgiv":1013,"Ġheard":1014,"icholas":1015,"Ġpower":1016,"Ġlast":1017,"Ġele":1018,"Ġfeel":1019,"Ġfore":1020,"oleon":1021,"uz":1022,"Ġgrow":1023,"ner":1024,"Ġsat":1025,"Ġbone":1026,"ants":1027,"Ġma":1028,"Ġexpress":1029,"ention":1030,"Ġthough":1031,"Ġnapoleon":1032,"Ġdisease":1033,"Ġnever":1034,"Ġcommand":1035,"less":1036,"Ġple":1037,"Ġposs":1038,"Ġnicholas":1039,"Ġrest":1040,"Ġbatt":1041,"Ġdon":1042,"ently":1043,"Ġear":1044,"dden":1045,"Ġhor":1046,"Ġnothing":1047,"vers":1048,"Ġdep":1049,"Ġsaw":1050,"Ġdr":1051,"Ġden":1052,"ank":1053,"ained":1054,"Ġmany":1055,"Ġround":1056,"ock":1057,"Ġbel":1058,"Ġalways":1059,"Ġbecause":1060,"Ġtake":1061,"Ġsil":1062,"Ġblood":1063,"iness":1064,"ling":1065,"Ġleg":1066,"oved":1067,"oma":1068,"Ġel":1069,"Ġskin":1070,"Ġconsid":1071,"Ġquest":1072,"Ġoccur":1073,"Ġfather":1074,"Ġmom":1075,"Ġmus":1076,"ands":1077,"Ġhands":1078,"Ġsmall":1079,"ps":1080,"ten":1081,"Ġtook":1082,"ark":1083,"Ġget":1084,"Ġyears":1085,"Ġsudden":1086,"Ġke":1087,"Ġbor":1088,"Ġmight":1089,"men":1090,"Ġpur":1091,"Ġonce":1092,").":1093,"ody":1094,"Ġtell":1095,"Ġmove":1096,"Ġdem":1097,"und":1098,"Ġdire":1099,"Ġthink":1100,"ative":1101,"li":1102,"ves":1103,"ters":1104,"Ġunited":1105,"you":1106,"Ġwant":1107,"ilit":1108,"Ġfrie":1109,"Ġthree":1110,"Ġserv":1111,"Ġsim":1112,"ange":1113,"Ġtissue":1114,"Ġsou":1115,"...\"":1116,"Ġpain":1117,"Ġlook":1118,"Ġtoo":1119,"._":1120,"up":1121,"Ġmin":1122,"Ġfriend":1123,"Ġca":1124,"osis":1125,"Ġph":1126,"Ġsuff":1127,"Ġlead":1128,"ki":1129,"ple":1130,"Ġgu":1131,"Ġvar":1132,"Ġkut":1133,"Ġhel":1134,"uzov":1135,"Ġins":1136,"ided":1137,"Ġcontinu":1138,"ts":1139,"Ġside":1140,"ane":1141,"iet":1142,"Ġmor":1143,"Ġfree":1144,"Ġcolon":1145,"Ġter":1146,"Ġkutuzov":1147,"Ġmem":1148,"Ġir":1149,"ility":1150,"Ġdra":1151,"ross":1152,"acter":1153,"Ġput":1154,"ting":1155,"ins":1156,"Ġdoor":1157,"Ġusually":1158,"Ġmoment":1159,"ton":1160,"Ġtreat":1161,"ertain":1162,"ged":1163,"Ġboth":1164,"vel":1165,"Ġshow":1166,"_,":1167,"pped":1168,"ived":1169,"but":1170,"oub":1171,"Ġconstit":1172,"Ġwr":1173,"Ġpar":1174,"ither":1175,"Ġfin":1176,"what":1177,"ual":1178,"Ġlarge":1179,"Ġlim":1180,"sw":1181,"Ġsin":1182,"here":1183,"Ġred":1184,"Ġjoint":1185,"Ġlove":1186,"Ġgive":1187,"Ġconv":1188,"Ġmake":1189,"Ġmon":1190,"Ġchild":1191,"Ġturned":1192,"Ġmatter":1193,"augh":1194,"Ġfact":1195,"cond":1196,"ments":1197,"Ġduring":1198,"mes":1199,"its":1200,"ever":1201,"ren":1202,"ism":1203,"Ġrev":1204,"Ġansw":1205,"ired":1206,"oh":1207,"Ġhol":1208,"Ġpress":1209,"erest":1210,"Ġknew":1211,"Ġsuddenly":1212,"iers":1213,"Ġchap":1214,"ready":1215,"Ġunderstand":1216,"Ġcountess":1217,"rem":1218,"Ġtold":1219,"ening":1220,"Ġalready":1221,"ili":1222,"Ġnear":1223,"Ġreturn":1224,"Ġnation":1225,"ists":1226,"Ġchief":1227,"sh":1228,"ene":1229,"Ġadm":1230,"Ġpresent":1231,"Ġche":1232,"Ġcertain":1233,"Ġbattle":1234,"ement":1235,"Ġcr":1236,"Ġwhom":1237,"Ġspeak":1238,"Ġwhy":1239,"Ġevident":1240,"Ġbo":1241,"Ġyet":1242,"Ġfew":1243,"Ġquite":1244,"son":1245,"Ġve":1246,"Ġdi":1247,"hov":1248,"Ġorder":1249,"get":1250,"pr":1251,"Ġcase":1252,"ield":1253,"Ġinterest":1254,"cle":1255,"ying":1256,"Ġpoint":1257,"ized":1258,"oun":1259,"ased":1260,"Ġbeh":1261,"olution":1262,"Ġdec":1263,"oke":1264,"ully":1265,"not":1266,"Ġrece":1267,"Ġchapter":1268,"Ġofficer":1269,"Ġfront":1270,"....":1271,"Ġvoice":1272,"ched":1273,"imes":1274,"aces":1275,"ended":1276,"Ġholmes":1277,"ured":1278,"Ġwords":1279,"no":1280,"Ġtro":1281,"Ġcountry":1282,"Ġrussian":1283,"Ġcongress":1284,"ced":1285,"Ġoften":1286,"Ġnecess":1287,"Ġsoon":1288,"cially":1289,"Ġcases":1290,"cted":1291,"Ġprov":1292,"Ġwork":1293,"Ġdays":1294,"ces":1295,"Ġdet":1296,"Ġimport":1297,"Ġamong":1298,"gn":1299,"Ġsecond":1300,"Ġart":1301,"Ġlooking":1302,"atic":1303,"cial":1304,"Ġopp":1305,"Ġrepl":1306,"Ġest":1307,"Ġreco":1308,"Ġseen":1309,"used":1310,"erve":1311,"Ġnum":1312,"Ġsign":1313,"de":1314,"Ġcir":1315,"Ġeverything":1316,"Ġlab":1317,"Ġgave":1318,"aring":1319,"Ġshout":1320,"Ġtaken":1321,"Ġx":1322,"ason":1323,"ering":1324,"ense":1325,"aced":1326,"Ġsent":1327,"Ġbus":1328,"isov":1329,"Ġhigh":1330,"Ġdress":1331,"ug":1332,"Ġhard":1333,"Ġposition":1334,"ck":1335,"Ġtum":1336,"Ġless":1337,"ook":1338,"ately":1339,"Ġ19":1340,"ait":1341,"Ġsw":1342,"Ġdone":1343,"Ġran":1344,"erent":1345,"ities":1346,"Ġpa":1347,"Ġdest":1348,"ars":1349,"Ġimm":1350,"'ll":1351,"Ġdear":1352,"Ġsmile":1353,"Ġsonya":1354,"Ġtub":1355,"ital":1356,"itis":1357,"Ġsever":1358,"Ġappro":1359,"Ġcrow":1360,"ached":1361,"Ġprod":1362,"Ġhowever":1363,"Ġcent":1364,"Ġthir":1365,"ians":1366,"icular":1367,"ned":1368,"Ġsometimes":1369,"Ġpolit":1370,"iment":1371,"Ġdenisov":1372,"Ġtend":1373,"Ġlist":1374,"Ġcalled":1375,"Ġra":1376,"pect":1377,"use":1378,"Ġtoward":1379,"Ġbon":1380,"uth":1381,"ides":1382,"Ġcur":1383,"that":1384,"Ġsoldiers":1385,"Ġothers":1386,"Ġeach":1387,"Ġbecome":1388,"Ġfam":1389,"Ġcommon":1390,"ision":1391,"tern":1392,"Ġsec":1393,"ages":1394,"Ġalong":1395,"Ġtrans":1396,"Ġquestion":1397,"Ġbrought":1398,"Ġoper":1399,"ison":1400,"Ġves":1401,"Ġinfl":1402,"br":1403,"pecially":1404,"Ġbehind":1405,"Ġprom":1406,"Ġtumour":1407,"Ġprop":1408,"Ġrap":1409,"Ġprev":1410,"ii":1411,"Ġlad":1412,"itions":1413,"Ġlight":1414,"Ġul":1415,"Ġorg":1416,"----":1417,"ble":1418,"xt":1419,"Ġhal":1420,"Ġlay":1421,"Ġhum":1422,"Ġbur":1423,"Ġnight":1424,"Ġexpl":1425,"selves":1426,"uct":1427,"Ġuse":1428,"Ġcourse":1429,"Ġworld":1430,"Ġperi":1431,"Ġpatient":1432,"Ġmer":1433,"icult":1434,"Ġstand":1435,"Ġang":1436,"ably":1437,"Ġpresident":1438,"Ġvessel":1439,"Ġdoes":1440,"Ġconstitution":1441,"Ġmr":1442,"Ġstood":1443,"ops":1444,"most":1445,"Ġdol":1446,"ushed":1447,"Ġ17":1448,"Ġespecially":1449,"Ġ|":1450,"Ġfind":1451,"ances":1452,"._--":1453,"itting":1454,"Ġclear":1455,"bur":1456,"Ġunt":1457,"iew":1458,"Ġknown":1459,"Ġanything":1460,"Ġhorse":1461,"Ġcal":1462,"lex":1463,"Ġwomen":1464,"ets":1465,"fully":1466,"Ġcause":1467,"rying":1468,"Ġed":1469,"Ġdisc":1470,"to":1471,"yl":1472,"par":1473,"Ġsle":1474,"Ġrepublic":1475,"Ġseveral":1476,"unt":1477,"Ġvis":1478,"Ġhistory":1479,"Ġ[":1480,"Ġfour":1481,"Ġpo":1482,"Ġ#":1483,"Ġperson":1484,"Ġevidently":1485,"Ġwife":1486,"Ġmind":1487,"Ġste":1488,"Ġstep":1489,"Ġpassed":1490,"Ġgoing":1491,"uck":1492,"az":1493,"Ġbes":1494,"Ġpap":1495,"Ġneed":1496,"ven":1497,"Ġbri":1498,"Ġcamp":1499,"Ġland":1500,"Ġkind":1501,"ize":1502,"Ġgiven":1503,"Ġmiss":1504,"Ġadj":1505,"Ġru":1506,"Ġcompan":1507,"Ġincre":1508,"Ġsmil":1509,"Ġinfection":1510,"Ġfeeling":1511,"ym":1512,"eration":1513,"Ġcoll":1514,"ovna":1515,"aps":1516,"ax":1517,"Ġloc":1518,"Ġcondition":1519,"Ġtuber":1520,"Ġaction":1521,"Ġbre":1522,"Ġthous":1523,"Ġsym":1524,"fact":1525,"Ġexc":1526,"Ġprot":1527,"Ġsound":1528,"ury":1529,"Ġconn":1530,"Ġdel":1531,"Ġsurf":1532,"Ġfed":1533,"Ġgod":1534,"ec":1535,"for":1536,"Ġaw":1537,"hen":1538,"Ġdiv":1539,"anced":1540,"lish":1541,"Ġterm":1542,"Ġfig":1543,"als":1544,"vere":1545,"Ġfoot":1546,"Ġten":1547,"Ġtra":1548,"Ġmovement":1549,"Ġmass":1550,"oney":1551,"alth":1552,"Ġill":1553,"Ġproject":1554,"Ġbrit":1555,"airs":1556,"Ġdifferent":1557,"ature":1558,"Ġport":1559,"Ġgerm":1560,"ching":1561,"Ġwhether":1562,"Ġsouth":1563,"Ġinj":1564,"Ġlabor":1565,"Ġherself":1566,"Ġrapid":1567,"Ġwind":1568,"Ġlater":1569,"illed":1570,"Ġcharacter":1571,"Ġpossible":1572,"ret":1573,"Ġbody":1574,"Ġchang":1575,"Ġappear":1576,"Ġrepe":1577,"Ġwhite":1578,"Ġmorning":1579,"ron":1580,"Ġpop":1581,"Ġsing":1582,"Ġvas":1583,"Ġalone":1584,"ocr":1585,"okhov":1586,"uro":1587,"Ġvir":1588,"Ġenem":1589,"Ġcrowd":1590,"Ġorgan":1591,"edi":1592,"ency":1593,"Ġwoman":1594,"eren":1595,"Ġopen":1596,"Ġrun":1597,"Ġdeath":1598,"Ġmaj":1599,"Ġdev":1600,"form":1601,"Ġfollowed":1602,"Ġdolokhov":1603,"_.":1604,"Ġbal":1605,"amm":1606,"Ġbecom":1607,"Ġmother":1608,"uced":1609,"Ġexpression":1610,"Ġdraw":1611,"Ġmoney":1612,"Ġdirect":1613,"Ġtreatment":1614,"Ġnecessary":1615,"Ġhalf":1616,"oud":1617,"ustri":1618,"Ġuntil":1619,"crib":1620,"Ġmain":1621,"Ġnerve":1622,"Ġheart":1623,"peri":1624,"ices":1625,"Ġhour":1626,"Ġmad":1627,"Ġheav":1628,"aged":1629,"Ġwest":1630,"Ġalmost":1631,"Ġtroops":1632,"Ġreplied":1633,"oid":1634,"Ġthings":1635,"Ġconsider":1636,"Ġbusiness":1637,"),":1638,"inal":1639,"Ġbu":1640,"Ġbed":1641,"app":1642,"Ġpublic":1643,"Ġlym":1644,"Ġeas":1645,"enty":1646,"Ġdisp":1647,"Ġofficers":1648,"Ġlymph":1649,"Ġfib":1650,"ective":1651,"Ġmeet":1652,"Ġnational":1653,"Ġep":1654,"Ġbecame":1655,"ery":1656,"Ġdoub":1657,"Ġlin":1658,"ains":1659,"Ġclose":1660,"Ġarter":1661,"ising":1662,"ulation":1663,"Ġroad":1664,"ploy":1665,"Ġhelp":1666,"Ġdecl":1667,"Ġdeep":1668,"clud":1669,"Ġengland":1670,"Ġfav":1671,"Ġpp":1672,"Ġwithin":1673,"Ġmeas":1674,"Ġtem":1675,"Ġhold":1676,"Ġdoct":1677,"Ġtre":1678,"Ġhome":1679,"Ġequ":1680,"Ġyes":1681,"Ġdifficult":1682,"Ġcommander":1683,"Ġfrequ":1684,"Ġremem":1685,"Ġrecogn":1686,"Ġspread":1687,"Ġ6":1688,"ination":1689,"Ġmid":1690,"Ġmilit":1691,"Ġthing":1692,"Ġthemselves":1693,"Ġobs":1694,"Ġsett":1695,"ister":1696,"Ġnumber":1697,"arm":1698,"Ġdri":1699,"Ġhon":1700,"ung":1701,"Ġsince":1702,"Ġname":1703,"Ġabove":1704,"Ġtaking":1705,"Ġadded":1706,"aim":1707,"uten":1708,"ush":1709,"acy":1710,"Ġparty":1711,"ample":1712,"Ġhistor":1713,"Ġcare":1714,"Ġcold":1715,"Ġparts":1716,"Ġemploy":1717,"Ġcart":1718,"amed":1719,"Ġplan":1720,"Ġsubject":1721,"Ġdro":1722,"Ġla":1723,"Ġquick":1724,"anger":1725,"Ġtissues":1726,"round":1727,"Ġtable":1728,"Ġsen":1729,"Ġsoft":1730,"Ġtalk":1731,"burg":1732,"Ġenemy":1733,"Ġhop":1734,"Ġfield":1735,"Ġanna":1736,"Ġleave":1737,"oci":1738,"Ġamerica":1739,"Ġwat":1740,"ics":1741,"Ġinvol":1742,"Ġcontinued":1743,"riv":1744,"Ġtubercul":1745,"hod":1746,"lf":1747,"Ġeither":1748,"ives":1749,"Ġletter":1750,"Ġboris":1751,"Ġlimb":1752,"Ġheld":1753,"Ġyear":1754,"ards":1755,"Ġbelie":1756,"Ġhund":1757,"Ġever":1758,"sem":1759,"Ġsto":1760,"Ġexample":1761,"ustration":1762,"Ġappe":1763,"Ġball":1764,"Ġfull":1765,"aster":1766,"Ġfall":1767,"Ġreason":1768,"Ġcontr":1769,"Ġnews":1770,"Ġpleas":1771,"lovna":1772,"Ġcried":1773,"ural":1774,"Ġhundred":1775,"ik":1776,"Ġfire":1777,"Ġmean":1778,"Ġfellow":1779,"Ġcarried":1780,"Ġgot":1781,"Ġnorth":1782,"Ġimportant":1783,"Ġwait":1784,"Ġunion":1785,"Ġreceived":1786,"atures":1787,"Ġbest":1788,"ork":1789,"Ġregiment":1790,"Ġsyph":1791,"velop":1792,"Ġsurface":1793,"Ġgent":1794,"Ġreal":1795,"berg":1796,"000":1797,"Ġwall":1798,"illustration":1799,"empt":1800,"Ġcannot":1801,"Ġentered":1802,"Ġeffect":1803,"Ġdemocr":1804,"ka":1805,"Ġcut":1806,"Ġhur":1807,"Ġhors":1808,"Ġles":1809,"Ġused":1810,"ex":1811,"Ġsit":1812,"Ġwal":1813,"Ġglands":1814,"Ġcomple":1815,"Ġsyst":1816,"aughter":1817,"Ġanat":1818,"Ġview":1819,"Ġparticular":1820,"Ġcell":1821,"Ġfing":1822,"Ġitself":1823,"Ġshort":1824,"Ġnext":1825,"Ġprocess":1826,"Ġtown":1827,"Ġgir":1828,"Ġaround":1829,"Ġsaying":1830,"Ġsitting":1831,"Ġprep":1832,"Ġstrong":1833,"Ġciv":1834,"Ġsystem":1835,"bers":1836,"day":1837,"Ġtwenty":1838,"where":1839,"Ġmere":1840,"Ġorig":1841,"Ġassoci":1842,"con":1843,"Ġsn":1844,"ats":1845,"Ġbar":1846,"Ġprof":1847,"Ġgrowth":1848,"Ġav":1849,"olk":1850,"Ġpeace":1851,"iously":1852,"Ġsurround":1853,"Ġpetya":1854,"Ġspir":1855,"Ġevening":1856,"Ġbetter":1857,"Ġgerman":1858,"utenberg":1859,"#--":1860,"Ġthousand":1861,"Ġbritish":1862,"ah":1863,"Ġhair":1864,"Ġimposs":1865,"erence":1866,"Ġhorses":1867,".#--":1868,"Ġtoget":1869,"Ġge":1870,"Ġsucc":1871,"itted":1872,"cles":1873,"Ġpeters":1874,"Ġtogether":1875,"eur":1876,"ob":1877,"uce":1878,"Ġdark":1879,"Ġburn":1880,"ission":1881,"Ġrevolution":1882,"usion":1883,"Ġbones":1884,"dle":1885,"ority":1886,"Ġopin":1887,"Ġearly":1888,"com":1889,"Ġauth":1890,"Ġsix":1891,"Ġgre":1892,"Ġexce":1893,"ake":1894,"Ġplay":1895,"Ġpolitical":1896,"urope":1897,"bed":1898,"ches":1899,"Ġexcept":1900,"Ġbegin":1901,"Ġshouted":1902,"Ġreally":1903,"Ġking":1904,"Ġforms":1905,"ysm":1906,"Ġask":1907,"Ġformer":1908,"Ġhy":1909,"Ġdut":1910,"ĠĠĠĠĠĠ":1911,"Ġrepres":1912,"epend":1913,"Ġbrother":1914,"Ġperiod":1915,"Ġfederal":1916,"fort":1917,"isl":1918,"Ġcross":1919,"Ġpast":1920,"Ġgra":1921,"owed":1922,"Ġforce":1923,"uses":1924,"Ġval":1925,"Ġkept":1926,"gr":1927,"Ġpost":1928,"Ġdue":1929,"omy":1930,"Ġeurope":1931,"resh":1932,"Ġvot":1933,"Ġvessels":1934,"Ġnotic":1935,"Ġmeans":1936,"Ġgentle":1937,"Ġcivil":1938,"orr":1939,"Ġfarm":1940,"Ġimpossible":1941,"Ġmill":1942,"Ġdom":1943,"Ġline":1944,"Ġvi":1945,"riage":1946,"agn":1947,"Ġrose":1948,"cious":1949,"Ġarms":1950,"Ġpetersburg":1951,"Ġut":1952,"Ġmoved":1953,"Ġforward":1954,"Ġsum":1955,"Ġvill":1956,"Ġindepend":1957,"Ġattack":1958,"Ġelect":1959,".'":1960,"Ġbecomes":1961,"Ġgutenberg":1962,"Ġstart":1963,"Ġblack":1964,"Ġrepresent":1965,"lied":1966,"Ġwish":1967,"ude":1968,"Ġstrange":1969,"Ġoccup":1970,"Ġdrawing":1971,"Ġide":1972,"Ġsuccess":1973,"Ġfirm":1974,"Ġregard":1975,"Ġlegisl":1976,"Ġlocal":1977,"Ġje":1978,"Ġvasili":1979,"of":1980,"rang":1981,"ety":1982,"Ġsepar":1983,"ored":1984,"ressed":1985,"Ġaccount":1986,"ges":1987,"antly":1988,"Ġulcer":1989,"Ġvisit":1990,"Ġwindow":1991,"Ġgirl":1992,"Ġdin":1993,"Ġaccord":1994,"Ġconditions":1995,"Ġabscess":1996,"aneous":1997,"ipp":1998,"Ġpen":1999,"Ġdevelop":2000,"oving":2001,"Ġcomplete":2002,"gg":2003,"rom":2004,"Ġfive":2005,"Ġgone":2006,"Ġann":2007,"aph":2008,"Ġtimes":2009,"Ġimmedi":2010,"ric":2011,"ishing":2012,"Ġrise":2013,"rown":2014,"Ġthird":2015,"ring":2016,"ino":2017,"Ġ16":2018,"Ġlonger":2019,"Ġlaws":2020,"Ġrepeated":2021,"gen":2022,"how":2023,"mit":2024,"Ġtri":2025,"Ġpay":2026,"Ġeffort":2027,"Ġsqu":2028,"Ġbag":2029,"Ġrail":2030,"Ġmethod":2031,"ification":2032,"ually":2033,"Ġrequ":2034,"Ġremained":2035,"Ġeveryone":2036,"Ġenglish":2037,"Ġfur":2038,"omp":2039,"aining":2040,"Ġstreng":2041,"ixed":2042,"Ġchildren":2043,"por":2044,"Ġsac":2045,"Ġconvers":2046,"Ġmyself":2047,"Ġer":2048,"ots":2049,"Ġself":2050,"Ġslight":2051,"Ġresults":2052,"Ġready":2053,"Ġanswered":2054,"Ġestab":2055,"yond":2056,"asion":2057,"Ġexperi":2058,"aking":2059,"Ġrode":2060,"Ġformed":2061,"Ġwounded":2062,"Ġservice":2063,"aff":2064,"go":2065,"Ġtried":2066,"Ġsal":2067,"Ġcav":2068,"ash":2069,"Ġbeyond":2070,"Ġaneur":2071,"Ġjoy":2072,"Ġimag":2073,"Ġmilitary":2074,"Ġaneurysm":2075,"inary":2076,"Ġlost":2077,"Ġgall":2078,"Ġanyone":2079,"Ġremar":2080,"Ġdescrib":2081,"Ġelse":2082,"Ġz":2083,"Ġtill":2084,"rible":2085,"Ġunderstood":2086,"Ġdestro":2087,"uration":2088,"Ġstud":2089,"Ġrid":2090,"Ġpract":2091,"Ġwee":2092,"Ġorders":2093,"Ġair":2094,"Ġgang":2095,"Ġreached":2096,"Ġdeb":2097,"Ġdisapp":2098,"iving":2099,"Ġacross":2100,"Ġhuman":2101,"Ġanatole":2102,"cap":2103,"ger":2104,"Ġrather":2105,"Ġhappy":2106,"Ġpressure":2107,"Ġbeside":2108,"Ġobserv":2109,"Ġopinion":2110,"Ġwater":2111,"Ġhus":2112,"oms":2113,"utes":2114,"otion":2115,"Ġacqu":2116,"Ġsoldier":2117,"semb":2118,"aign":2119,"Ġbad":2120,"Ġdanger":2121,"Ġspoke":2122,"ract":2123,"Ġpresence":2124,"Ġopened":2125,"Ġcampaign":2126,"Ġfrequently":2127,"ikh":2128,"Ġster":2129,"Ġvict":2130,"Ġassum":2131,"Ġpow":2132,"ouri":2133,"ically":2134,"Ġrespect":2135,"Ġaffairs":2136,"Ġcourt":2137,"Ġver":2138,"ink":2139,"Ġfif":2140,"Ġfort":2141,"Ġsuper":2142,"Ġvol":2143,"ivid":2144,"Ġwanted":2145,"Ġprevent":2146,"aut":2147,"Ġalex":2148,"Ġhaem":2149,"Ġcoming":2150,"Ġproper":2151,"Ġcontro":2152,"Ġindic":2153,"Ġgrou":2154,"Ġground":2155,"orrh":2156,"avery":2157,"body":2158,"Ġ9":2159,"Ġlower":2160,"Ġnerv":2161,"lying":2162,"Ġissu":2163,"Ġkiss":2164,"Ġexam":2165,"Ġtrade":2166,"Ġscar":2167,"rupt":2168,"Ġhusb":2169,"ns":2170,"Ġty":2171,"Ġmed":2172,"Ġformation":2173,"Ġraised":2174,"Ġfamily":2175,"Ġoperation":2176,"Ġstopped":2177,"haps":2178,"Ġwished":2179,"orrow":2180,"Ġthus":2181,"Ġled":2182,"Ġant":2183,"hern":2184,"ĠĠĠĠĠĠĠĠĠ":2185,"Ġpeas":2186,"rest":2187,"erg":2188,"Ġhill":2189,"Ġturning":2190,"Ġhappened":2191,"ina":2192,"ths":2193,"ibility":2194,"Ġmaking":2195,"Ġforeign":2196,"Ġcolonies":2197,"Ġstanding":2198,"Ġhonor":2199,"Ġspirit":2200,"uted":2201,"Ġstri":2202,"Ġbring":2203,"Ġfollowing":2204,"Ġanswer":2205,"Ġtuberculous":2206,"cum":2207,"van":2208,"Ġwhis":2209,"Ġyork":2210,"Ġneck":2211,"there":2212,"Ġapplied":2213,"Ġsurpr":2214,"Ġaffect":2215,"Ġextrem":2216,"Ġkeep":2217,"Ġquiet":2218,"Ġemb":2219,"ruction":2220,"Ġgeor":2221,"Ġ7":2222,"Ġtou":2223,"aint":2224,"ified":2225,"Ġprison":2226,"Ġ10":2227,"Ġfreed":2228,"Ġaffected":2229,"Ġadjut":2230,"olkons":2231,".--":2232,"by":2233,"Ġsens":2234,"ories":2235,"idge":2236,"Ġanim":2237,"Ġsevere":2238,"Ġquar":2239,"Ġtrue":2240,"Ġreport":2241,"Ġtalking":2242,"Ġtax":2243,"Ġmod":2244,"Ġinqu":2245,"Ġneg":2246,"Ġable":2247,"Ġseeing":2248,"Ġdesp":2249,"Ġpolic":2250,"gin":2251,"Ġswell":2252,"Ġcompl":2253,"Ġevents":2254,"ancing":2255,"Ġslow":2256,"Ġmuscles":2257,"ken":2258,"tered":2259,"Ġ*":2260,"Ġsout":2261,"Ġho":2262,"Ġgun":2263,"olute":2264,"Ġtender":2265,"Ġhusband":2266,"yed":2267,"Ġoh":2268,"Ġboy":2269,"Ġmist":2270,"Ġlow":2271,"Ġgaz":2272,"this":2273,"why":2274,"Ġwon":2275,"Ġbene":2276,"Ġprob":2277,"Ġrapidly":2278,"Ġfail":2279,"Ġlo":2280,"let":2281,"Ġappeared":2282,"Ġassociated":2283,"ead":2284,"Ġmo":2285,"arch":2286,"Ġrad":2287,"iform":2288,"Ġinflu":2289,"Ġsad":2290,"Ġdim":2291,"Ġlaugh":2292,"Ġdead":2293,"Ġjud":2294,"Ġreturned":2295,"inite":2296,"Ġcy":2297,"ingly":2298,"aling":2299,"Ġleast":2300,"Ġenter":2301,"Ġterrible":2302,"12":2303,"Ġtar":2304,"Ġhuss":2305,"itude":2306,"room":2307,"ays":2308,"ump":2309,"Ġjo":2310,"Ġleaders":2311,"Ġsympt":2312,"Ġmiddle":2313,"Ġpav":2314,"arc":2315,"ested":2316,"Ġfeatures":2317,"Ġresp":2318,"ronic":2319,"Ġnoticed":2320,"Ġsouthern":2321,"bit":2322,"ams":2323,"ilis":2324,"Ġweak":2325,"olkonski":2326,"Ġap":2327,"erred":2328,"arp":2329,"Ġeight":2330,"rod":2331,"Ġsoci":2332,"isted":2333,"Ġpurp":2334,"Ġmerely":2335,"ium":2336,"Ġpus":2337,"Ġrare":2338,"though":2339,"ively":2340,"Ġattention":2341,"Ġsilent":2342,"Ġsteps":2343,"Ġexcell":2344,"outh":2345,"Ġtor":2346,"ott":2347,"Ġexcl":2348,"arent":2349,"Ġrussia":2350,"Ġcompany":2351,"ye":2352,"Ġce":2353,"Ġinn":2354,"idence":2355,"Ġwashing":2356,"Ġrub":2357,"Ġprinci":2358,"Ġgiving":2359,"Ġdoubt":2360,"Ġlaid":2361,"my":2362,"rene":2363,"Ġmil":2364,"Ġhear":2365,"Ġtherefore":2366,"Ġcommer":2367,"Ġsoul":2368,"Ġsize":2369,"ctions":2370,"aving":2371,"Ġslavery":2372,"der":2373,"Ġ8":2374,"ander":2375,"ests":2376,"Ġfear":2377,"Ġdoctor":2378,"Ġdinner":2379,"Ġstrength":2380,"ois":2381,"ining":2382,"Ġfa":2383,"Ġforg":2384,"Ġfright":2385,"Ġplaced":2386,"Ġspeaking":2387,"Ġquickly":2388,"Ġsitu":2389,"Ġconversation":2390,",'":2391,"Ġtrying":2392,"arily":2393,"enth":2394,"osing":2395,"Ġprim":2396,"like":2397,"Ġmembr":2398,"Ġcre":2399,"Ġcity":2400,"Ġdaughter":2401,"see":2402,"Ġstreet":2403,"Ġfresh":2404,"Ġmal":2405,"Ġund":2406,"Ġstra":2407,"Ġsole":2408,"umb":2409,"Ġfeet":2410,"Ġ186":2411,"Ġsatis":2412,"Ġvariet":2413,"Ġtumours":2414,"io":2415,"Ġhar":2416,"Ġconcer":2417,"ament":2418,"Ġfell":2419,"raid":2420,"Ġcancer":2421,"Ġremoved":2422,"Ġperhaps":2423,"ips":2424,"Ġusual":2425,"Ġimmediately":2426,"uk":2427,"Ġinclud":2428,"Ġwhose":2429,"Ġinterf":2430,"Ġmeasures":2431,"Ġbelieve":2432,"Ġthick":2433,"Ġbeaut":2434,"Ġforces":2435,"Ġenl":2436,"Ġglanced":2437,"wards":2438,"Ġescap":2439,"Ġgallop":2440,"18":2441,"iver":2442,"pat":2443,"ral":2444,"Ġsol":2445,"Ġfine":2446,"olog":2447,"Ġ15":2448,"Ġcolonial":2449,"Ġlady":2450,"Ġpaper":2451,"Ġremember":2452,"head":2453,"Ġcop":2454,"Ġhig":2455,"itation":2456,"Ġhealth":2457,"uls":2458,"Ġsun":2459,"Ġprogress":2460,"Ġdoing":2461,"Ġaccept":2462,"Ġterrit":2463,"Ġnearly":2464,"Ġadmin":2465,"Ġbright":2466,"Ġsingle":2467,"be":2468,"Ġwrit":2469,"Ġbacter":2470,"Ġbolkonski":2471,"vered":2472,"ability":2473,"Ġlear":2474,"Ġenough":2475,"ohn":2476,"ior":2477,"Ġtears":2478,"Ġsir":2479,"Ġsides":2480,"Ġwood":2481,"Ġuniform":2482,"Ġinde":2483,"ĠĠĠĠĠĠĠĠĠĠĠĠĠĠĠĠĠĠĠĠĠĠĠĠĠĠĠĠĠĠĠĠ":2484,"Ġwounds":2485,"ych":2486,"Ġost":2487,"Ġobject":2488,"Ġoccasion":2489,"ogr":2490,"Ġhardly":2491,"Ġsleep":2492,"Ġsymptoms":2493,"cular":2494,"Ġfat":2495,"ils":2496,"Ġseat":2497,"Ġarri":2498,"Ġinform":2499,"Ġconsiderable":2500,"Ġparticularly":2501,"Ġfreedom":2502,"Ġpriv":2503,"ilt":2504,"ending":2505,"Ġafraid":2506,"Ġattempt":2507,"Ġexpect":2508,"Ġspecial":2509,"ogen":2510,"Ġsecret":2511,"Ġremarked":2512,"Ġsociety":2513,"ert":2514,"Ġlib":2515,"Ġfrance":2516,"Ġexec":2517,"ption":2518,"Ġclosed":2519,"Ġnature":2520,"Ġgran":2521,"Ġglad":2522,"Ġrepublican":2523,"cy":2524,"now":2525,"Ġaim":2526,"Ġloss":2527,"Ġgrew":2528,"ossack":2529,"Ġfavor":2530,"Ġwaiting":2531,"Ġtone":2532,"Ġbit":2533,"Ġcossack":2534,"Ġpath":2535,"Ġneither":2536,"Ġjohn":2537,"Ġreply":2538,"Ġhours":2539,"Ġartery":2540,"Ġsyphilis":2541,"Ġswelling":2542,"come":2543,"fig":2544,"she":2545,"Ġfight":2546,"Ġjoints":2547,"Ġvirgin":2548,"aimed":2549,"Ġadjutant":2550,"ool":2551,"Ġbound":2552,"Ġcand":2553,"Ġmouth":2554,"Ġindustri":2555,"tained":2556,"Ġrights":2557,"ception":2558,"Ġconsidered":2559,"Ġpale":2560,"ging":2561,"Ġmur":2562,"Ġlate":2563,"uture":2564,"ĠĠĠĠĠ":2565,"Ġarea":2566,"Ġsupport":2567,"Ġcapital":2568,"Ġknee":2569,"Ġhaemorrh":2570,"mon":2571,"ror":2572,"Ġwin":2573,"Ġfaces":2574,"Ġfixed":2575,"pper":2576,"Ġcomb":2577,"Ġcoat":2578,"Ġyourself":2579,"Ġhelene":2580,"Ġchanges":2581,"Ġaccording":2582,"Ġwashington":2583,"Ġadminist":2584,"Ġswe":2585,"Ġwide":2586,"icient":2587,"ilar":2588,"Ġtemper":2589,"Ġorigin":2590,"iant":2591,"inical":2592,"reg":2593,"Ġfun":2594,"Ġindivid":2595,"Ġrostovs":2596,"Ġaddress":2597,"Ġmembers":2598,"Ġsmiling":2599,"Ġvillage":2600,"Ġcyst":2601,"Ġpal":2602,"Ġlif":2603,"Ġ13":2604,"une":2605,"Ġsomeone":2606,"aching":2607,"Ġactiv":2608,"hood":2609,"xic":2610,"ster":2611,"Ġsugg":2612,"Ġrelations":2613,"Ġdemand":2614,"Ġconvention":2615,"Ġdecided":2616,"Ġsmiled":2617,"Ġcontrary":2618,"fic":2619,"Ġsch":2620,"Ġcry":2621,"Ġmaster":2622,"Ġbridge":2623,"Ġentire":2624,"blem":2625,"Ġbeginning":2626,"cut":2627,"ee":2628,"hip":2629,"Ġlig":2630,"Ġur":2631,"Ġ11":2632,"aves":2633,"Ġquestions":2634,"Ġlistened":2635,"Ġlesions":2636,"Ġbagration":2637,"side":2638,"Ġbill":2639,"ime":2640,"sequ":2641,"erson":2642,"Ġarrang":2643,"Ġfinally":2644,"Ġemployed":2645,"Ġindividual":2646,"inct":2647,"Ġhast":2648,"ithe":2649,"Ġfem":2650,"aled":2651,"ames":2652,"Ġchur":2653,"Ġarrest":2654,"Ġdiss":2655,"Ġenc":2656,"enced":2657,"Ġfriends":2658,"Ġhope":2659,"Ġmembrane":2660,"uff":2661,"Ġpun":2662,"Ġdrew":2663,"Ġris":2664,"ously":2665,"Ġproblem":2666,"Ġalthough":2667,"ression":2668,"Ġplain":2669,"Ġremain":2670,"Ġobl":2671,"teen":2672,"Ġinterv":2673,"Ġoccurs":2674,"Ġcircum":2675,"Ġgangrene":2676,"Ġcoun":2677,"itiz":2678,"Ġmut":2679,"Ġeye":2680,"alle":2681,"els":2682,"Ġpret":2683,"Ġbreak":2684,"Ġpavlovna":2685,"mer":2686,"ession":2687,"acked":2688,"Ġcovered":2689,"Ġevent":2690,"Ġappoint":2691,"itten":2692,"Ġcommun":2693,"Ġremark":2694,"Ġtakes":2695,"Ġgener":2696,"Ġdistrib":2697,"ilitic":2698,"Ġvarious":2699,"Ġalexander":2700,"lished":2701,"Ġband":2702,"set":2703,"Ġchange":2704,"Ġjack":2705,"Ġdepend":2706,"Ġmuscle":2707,"Ġfibr":2708,"Ġdescribed":2709,"occ":2710,"Ġess":2711,"Ġlive":2712,"rote":2713,"Ġstaff":2714,"oses":2715,"onel":2716,"Ġclot":2717,"Ġshowed":2718,"Ġartic":2719,"Ġinflamm":2720,"Ġindependence":2721,"'ve":2722,"col":2723,"Ġwrote":2724,"Ġble":2725,"Ġpray":2726,"Ġintrod":2727,"Ġaband":2728,"Ġagre":2729,"Ġtrad":2730,"Ġacute":2731,"Ġvoices":2732,"Ġsimilar":2733,"Ġcauses":2734,"--------":2735,"do":2736,"nat":2737,"Ġhot":2738,"lled":2739,"Ġeb":2740,"Ġstay":2741,"acing":2742,"Ġgold":2743,"elle":2744,"Ġrussians":2745,"Ġgrowing":2746,"Ġpopular":2747,"Ġorganism":2748,"Ġpowers":2749,"Ġnerves":2750,"Ġhaemorrhage":2751,"ires":2752,"atch":2753,"Ġcitiz":2754,"Ġlit":2755,"Ġloud":2756,"Ġunable":2757,"Ġnod":2758,"astic":2759,"Ġtrust":2760,"Ġliable":2761,"Ġlips":2762,"Ġsays":2763,"Ġsuppuration":2764,"Ġplease":2765,"Ġdirection":2766,"Ġminutes":2767,"Ġirrit":2768,"Ġfingers":2769,"Ġfurther":2770,"Ġgeorge":2771,"Ġabandon":2772,"hev":2773,"ines":2774,"action":2775,"ples":2776,"Ġsmoke":2777,"Ġmark":2778,"Ġordered":2779,"Ġgovernor":2780,"Ġserious":2781,"Ġdeterm":2782,"Ġsignific":2783,"Ġrepublicans":2784,"Ġterms":2785,"Ġequal":2786,"Ġgroup":2787,"Ġvirginia":2788,"nov":2789,"Ġinev":2790,"Ġsend":2791,"Ġsup":2792,"they":2793,"Ġnatural":2794,"Ġimpro":2795,"izing":2796,"Ġconscious":2797,"Ġopening":2798,"Ġenlar":2799,"Ġinevit":2800,"ale":2801,"bered":2802,"ze":2803,"Ġaustri":2804,"Ġsister":2805,"Ġben":2806,"Ġmoving":2807,"Ġliving":2808,"emia":2809,"agin":2810,"Ġ12":2811,"aug":2812,"Ġglass":2813,"ormal":2814,"Ġgreater":2815,"Ġcarriage":2816,"Ġhappiness":2817,"Ġholding":2818,"Ġstudy":2819,"oiselle":2820,"Ġfrightened":2821,"Ġstraight":2822,"cent":2823,"uel":2824,"Ġbank":2825,"eding":2826,"owing":2827,"Ġkilled":2828,"emoiselle":2829,"Ġmarked":2830,"Ġaccomp":2831,"Ġextens":2832,"Ġaccompan":2833,"treat":2834,"yt":2835,"Ġsure":2836,"thy":2837,"Ġflo":2838,"Ġdeclared":2839,"Ġviol":2840,"Ġidea":2841,"Ġprimary":2842,"pected":2843,"uction":2844,"Ġmis":2845,"ingu":2846,"ows":2847,"pping":2848,"Ġplant":2849,"oste":2850,"Ġstruck":2851,"ugg":2852,"Ġrunning":2853,"Ġtariff":2854,"arcoma":2855,"treatment":2856,"dom":2857,"fied":2858,"ss":2859,"Ġeast":2860,"Ġsharp":2861,"fferson":2862,"Ġrelation":2863,"Ġsimple":2864,"Ġiron":2865,"Ġburs":2866,"Ġincreased":2867,"Ġmademoiselle":2868,"Ġheavy":2869,"Ġpleasure":2870,"Ġprobably":2871,"fect":2872,"ufact":2873,"orn":2874,"Ġlatter":2875,"char":2876,"Ġcolonel":2877,"Ġbroad":2878,"Ġmaid":2879,"Ġoste":2880,"Ġdam":2881,"Ġbell":2882,"ules":2883,"Ġmanufact":2884,"Ġconsists":2885,"Ġdrawn":2886,"ternal":2887,"Ġsettle":2888,"Ġprepared":2889,"Ġauthor":2890,"Ġinfluence":2891,"patych":2892,"che":2893,"Ġchair":2894,"ustry":2895,"Ġclass":2896,"Ġthinking":2897,"Ġextra":2898,"Ġstret":2899,"iction":2900,"Ġsilence":2901,"Ġduty":2902,"Ġproperty":2903,"yal":2904,"Ġage":2905,"Ġsight":2906,"ator":2907,"anch":2908,"Ġlod":2909,"Ġecon":2910,"Ġham":2911,"ager":2912,"Ġalpatych":2913,"Ġmanner":2914,"Ġindustry":2915,"Ġmatters":2916,"Ġprovin":2917,"Ġappearance":2918,"bl":2919,"tr":2920,"Ġmikh":2921,"Ġdry":2922,"stances":2923,"utions":2924,"riev":2925,"Ġroyal":2926,"Ġpassing":2927,"Ġseems":2928,"Ġinstead":2929,"Ġforest":2930,"Ġchanged":2931,"Ġmeaning":2932,"Ġmikhay":2933,"tm":2934,"imate":2935,"Ġneare":2936,"ouses":2937,"Ġmarch":2938,"Ġmarsh":2939,"ysis":2940,"Ġexpressed":2941,"Ġveins":2942,"Ġ191":2943,"Ġlines":2944,"Ġcartil":2945,"Ġslowly":2946,"Ġpurpose":2947,"fe":2948,"hold":2949,"ught":2950,"erate":2951,"ata":2952,"itive":2953,"eness":2954,"enne":2955,"Ġstory":2956,"Ġattended":2957,"Ġrestr":2958,"Ġchiefly":2959,"Ġproduced":2960,"Ġangry":2961,"Ġhurried":2962,"cers":2963,"path":2964,"Ġsher":2965,"Ġfle":2966,"Ġlord":2967,"Ġnar":2968,"Ġexist":2969,"Ġleaving":2970,"Ġcaptain":2971,"Ġsecondary":2972,"Ġobserved":2973,"Ġvictory":2974,"Ġmikhaylovna":2975,"'re":2976,".)":2977,"Ġbouri":2978,"Ġdmit":2979,"Ġanx":2980,"Ġnote":2981,"iful":2982,"apart":2983,"istic":2984,"Ġmeant":2985,"Ġgrad":2986,"Ġintern":2987,"Ġinterrupt":2988,"Ġcapt":2989,"Ġmonths":2990,"ounced":2991,"Ġclearly":2992,"Ġinjury":2993,"Ġmajest":2994,"Ġepithe":2995,"Ġactivity":2996,"Ġbourienne":2997,"iance":2998,"lin":2999,"rel":3000,"chin":3001,"Ġsection":3002,"Ġsovere":3003,"Ġneigh":3004,"Ġemp":3005,"Ġdeform":3006,"Ġsilver":3007,"Ġhistorians":3008,"ogenic":3009,"cutaneous":3010,"iar":3011,"uid":3012,"Ġban":3013,"Ġhat":3014,"Ġpor":3015,"Ġloved":3016,"Ġupper":3017,"Ġdeg":3018,"igs":3019,"Ġ14":3020,"Ġoffice":3021,"Ġearth":3022,"Ġdipl":3023,"Ġcircul":3024,"Ġdressing":3025,"Ġtendon":3026,"Ġpoor":3027,"Ġjefferson":3028,"Ġexcellency":3029,"kn":3030,"Ġsus":3031,"rent":3032,"Ġbir":3033,"urs":3034,"Ġforget":3035,"Ġsheath":3036,"ustom":3037,"Ġmanif":3038,"Ġadop":3039,"ocyt":3040,"Ġapplic":3041,"who":3042,"ney":3043,"Ġconfed":3044,"Ġassist":3045,"Ġcorner":3046,"Ġseries":3047,"Ġphil":3048,"Ġsuffr":3049,"Ġcalm":3050,"Ġdiscuss":3051,"Ġcells":3052,"Ġdestroyed":3053,"Ġpeasants":3054,"Ġneighb":3055,"rum":3056,"Ġbook":3057,"Ġfuture":3058,"uries":3059,"ries":3060,"ptic":3061,"aught":3062,"Ġrostop":3063,"af":3064,"Ġinject":3065,"Ġhero":3066,"ooks":3067,"Ġdischar":3068,"then":3069,"Ġshoulders":3070,"Ġdiseases":3071,"Ġbroken":3072,"Ġdivided":3073,"Ġstern":3074,"Ġpy":3075,"Ġmult":3076,"omic":3077,"Ġspite":3078,"Ġimpl":3079,"Ġblue":3080,"Ġgrand":3081,"Ġgrant":3082,"ization":3083,"Ġexpected":3084,"Ġthoughts":3085,"Ġadvant":3086,"aparte":3087,"Ġrostopchin":3088,"gu":3089,"Ġax":3090,"Ġmater":3091,"estern":3092,"ague":3093,"unk":3094,"Ġimper":3095,"Ġwarm":3096,"Ġresulting":3097,"Ġthirty":3098,"Ġexplain":3099,"Ġportion":3100,"Ġavoid":3101,"Ġkissed":3102,"aft":3103,"dra":3104,"oll":3105,"when":3106,"Ġsour":3107,"Ġwil":3108,"leg":3109,"iding":3110,"right":3111,"osp":3112,"Ġeverybody":3113,"Ġregion":3114,"Ġofficial":3115,"Ġeasy":3116,"Ġextreme":3117,"Ġindeed":3118,"Ġcitizens":3119,"known":3120,"_--":3121,"bo":3122,"morrow":3123,"pro":3124,"rated":3125,"ream":3126,"atives":3127,"Ġbac":3128,"aded":3129,"cend":3130,"Ġasking":3131,"using":3132,"Ġtruth":3133,"Ġperform":3134,"Ġretreat":3135,"Ġabsolute":3136,"Ġelb":3137,"Ġoccurred":3138,"Ġpressed":3139,"Ġrule":3140,"Ġmajority":3141,"Ġestablished":3142,"Ġcontrol":3143,"Ġprisoners":3144,"Ġsort":3145,"Ġinh":3146,"Ġder":3147,"Ġlie":3148,"Ġseven":3149,"Ġvic":3150,"onged":3151,"ences":3152,"Ġproduce":3153,"amma":3154,"Ġarrived":3155,"sy":3156,"Ġpull":3157,"Ġmention":3158,"asm":3159,"irm":3160,"attered":3161,"Ġdistur":3162,"culiar":3163,"Ġpersons":3164,"Ġdepart":3165,"Ġchurch":3166,"ef":3167,"port":3168,"Ġbreat":3169,"ises":3170,"aries":3171,"asis":3172,"Ġlou":3173,"Ġgro":3174,"Ġnotice":3175,"tering":3176,"quest":3177,"Ġunex":3178,"Ġsmo":3179,"Ġlegs":3180,"Ġhandsome":3181,"Ġpresented":3182,"Ġdiagn":3183,"Ġinterests":3184,"....\"":3185,"Ġdetail":3186,"Ġbesides":3187,"Ġremembered":3188,"Ġinquir":3189,"Ġexclaimed":3190,"Ġdiplom":3191,".,":3192,"20":3193,"ivers":3194,"non":3195,"tts":3196,"eng":3197,"Ġfilled":3198,"Ġlying":3199,"ceed":3200,"achuse":3201,"Ġcarol":3202,"Ġdistance":3203,"Ġwritten":3204,"Ġimportance":3205,"Ġmeeting":3206,"Ġvalue":3207,"Ġweeks":3208,"Ġlaughing":3209,"Ġcommerce":3210,"Ġadministration":3211,"achusetts":3212,"Ġtrem":3213,"Ġassemb":3214,"Ġfrank":3215,"umn":3216,"Ġcost":3217,"Ġpeculiar":3218,"Ġstrugg":3219,"Ġaffair":3220,"Ġabsor":3221,"Ġelection":3222,"Ġoccupied":3223,"!...":3224,"isions":3225,"Ġhouses":3226,"Ġfart":3227,"asp":3228,"ulated":3229,"Ġagree":3230,"Ġshoulder":3231,"Ġ189":3232,"Ġgenerals":3233,"Ġmovements":3234,"Ġconvin":3235,"Ġvein":3236,"Ġpolitics":3237,"Ġincrease":3238,"Ġmassachusetts":3239,"Ġfinger":3240,"Ġpolicy":3241,"Ġsuffrage":3242,"Ġought":3243,"Ġsci":3244,"Ġbond":3245,"Ġmount":3246,"road":3247,"utation":3248,"Ġstage":3249,"Ġrushed":3250,"Ġseized":3251,"atever":3252,"Ġreading":3253,"Ġbelow":3254,"Ġleading":3255,"Ġpapers":3256,"Ġeasily":3257,"Ġdrove":3258,"Ġsenate":3259,"Ġterritory":3260,"ficial":3261,".]":3262,"uge":3263,"het":3264,"Ġaid":3265,"Ġwis":3266,"Ġhunt":3267,"Ġriver":3268,"Ġshown":3269,"umm":3270,"Ġamount":3271,"Ġfluid":3272,"Ġsynov":3273,"Ġphys":3274,"Ġtreaty":3275,"Ġwrong":3276,"Ġdevelopment":3277,"Ġbacteria":3278,"Ġbursa":3279,"lock":3280,"atory":3281,"Ġhost":3282,"Ġlived":3283,"ential":3284,"Ġrich":3285,"Ġvan":3286,"Ġexer":3287,"Ġsocial":3288,"aken":3289,"Ġdispl":3290,"Ġplat":3291,"Ġtroub":3292,"Ġinfant":3293,"Ġ20":3294,"Ġ180":3295,"Ġdistingu":3296,"Ġdefinite":3297,"Ġfarmers":3298,"don":3299,"oe":3300,"uous":3301,"Ġwestern":3302,"ashev":3303,"Ġeld":3304,"Ġstat":3305,"usted":3306,"Ġamend":3307,"Ġsubcutaneous":3308,"Ġrecall":3309,"Ġsuffering":3310,"Ġulcers":3311,"Ġsyphilitic":3312,"Ġguns":3313,"'m":3314,"Ġfro":3315,"lected":3316,"acent":3317,"Ġspent":3318,"Ġoutside":3319,"Ġremov":3320,"Ġsurg":3321,"Ġadvanced":3322,"Ġparal":3323,"Ġrupt":3324,"Ġdivision":3325,"Ġbalashev":3326,"Ġdifficulty":3327,"Ġvote":3328,"Ġregarded":3329,"Ġmiles":3330,"Ġorganisms":3331,"10":3332,"ding":3333,"ius":3334,"Ġsolution":3335,"Ġbra":3336,"Ġarch":3337,"Ġenj":3338,"Ġworks":3339,"Ġobv":3340,"Ġshouting":3341,"Ġdestruction":3342,"Ġpersonal":3343,"faction":3344,"Ġwhisp":3345,"Ġapart":3346,"ded":3347,"oly":3348,"Ġwa":3349,"Ġhung":3350,"Ġmich":3351,"Ġnormal":3352,"Ġisland":3353,"olens":3354,"agr":3355,"Ġsave":3356,"Ġspo":3357,"Ġwealth":3358,"Ġago":3359,"odino":3360,"overed":3361,"Ġperm":3362,"Ġscr":3363,"Ġmarya":3364,"Ġsettled":3365,"Ġrailways":3366,"Ġmaterial":3367,"eper":3368,"Ġfate":3369,"Ġthreat":3370,"Ġfract":3371,"Ġdeal":3372,"Ġkar":3373,"Ġmexic":3374,"Ġcannon":3375,"Ġ30":3376,"Ġ32":3377,"Ġinvolved":3378,"Ġsurprise":3379,"Ġcircumstances":3380,"Ġjackson":3381,"Ġmanifest":3382,"fs":3383,"wise":3384,"Ġbod":3385,"iting":3386,"Ġthor":3387,"Ġgri":3388,"Ġconce":3389,"agement":3390,"ape":3391,"Ġspok":3392,"Ġlean":3393,"Ġfever":3394,"ococc":3395,"Ġappears":3396,"Ġapparent":3397,"Ġpassage":3398,"Ġaffection":3399,"Ġletters":3400,"Ġtea":3401,"Ġborodino":3402,"Ġsufficient":3403,"Ġpaid":3404,"Ġmerch":3405,"Ġdelight":3406,"Ġhussars":3407,"Ġfloor":3408,"Ġinterrupted":3409,"Ġwilson":3410,"Ġremoval":3411,"cons":3412,"rist":3413,"uly":3414,"Ġ$":3415,"Ġast":3416,"Ġbull":3417,"Ġcord":3418,"Ġaside":3419,"rily":3420,"Ġchronic":3421,"igration":3422,"Ġinfected":3423,"Ġmarried":3424,"Ġreform":3425,"Ġtalked":3426,"Ġinstant":3427,"Ġdrag":3428,"Ġguards":3429,"Ġhyper":3430,"Ġexperience":3431,"rievna":3432,"Ġdmitrievna":3433,"Ġenjoy":3434,"?'":3435,"Ġharm":3436,"Ġdread":3437,"omin":3438,"ley":3439,"Ġwhatever":3440,"ulations":3441,"redit":3442,"Ġcompar":3443,"which":3444,"Ġsubm":3445,"Ġcertainly":3446,"Ġfigure":3447,"Ġinvolunt":3448,"Ġpyogenic":3449,"Ġlouis":3450,"Ġunexpected":3451,"aemia":3452,"lies":3453,"ray":3454,"hest":3455,"Ġsense":3456,"Ġnations":3457,"Ġbeat":3458,"ational":3459,"Ġintell":3460,"Ġdog":3461,"Ġconnection":3462,"Ġsurrounded":3463,"Ġfarther":3464,"Ġwol":3465,"Ġbare":3466,"Ġtomorrow":3467,"Ġlaug":3468,"alry":3469,"que":3470,"Ġchance":3471,"Ġarth":3472,"Ġjour":3473,"seless":3474,"ortion":3475,"Ġknows":3476,"Ġfrenchman":3477,"Ġcarry":3478,"ĠĠĠĠĠĠĠĠĠĠĠĠĠĠĠĠĠĠĠĠĠĠĠĠ":3479,"Ġends":3480,"Ġshowing":3481,"Ġladies":3482,"Ġlesion":3483,"Ġtype":3484,"Ġtemperature":3485,"Ġsuprem":3486,"Ġcartilage":3487,"Ġmajesty":3488,"olensk":3489,"_;":3490,"Ġbent":3491,"oured":3492,"Ġreaction":3493,"Ġforty":3494,"eth":3495,"Ġrat":3496,"Ġcomfort":3497,"ify":3498,"Ġprol":3499,"Ġleuc":3500,"Ġsmolensk":3501,"Ġordinary":3502,"Ġaddition":3503,"Ġlarger":3504,"Ġcaused":3505,"Ġperioste":3506,"Ġefforts":3507,"Ġexperienced":3508,"ograph":3509,"Ġfibrous":3510,"Ġlaughed":3511,"Ġflex":3512,"Ġthrow":3513,"Ġnav":3514,"Ġven":3515,"Ġsple":3516,"Ġabol":3517,"Ġnose":3518,"clock":3519,"angu":3520,"ucous":3521,"ancy":3522,"Ġregular":3523,"Ġcharm":3524,"rence":3525,"iliar":3526,"Ġbox":3527,"Ġlisten":3528,"Ġconnective":3529,"Ġpopulation":3530,"Ġdirectly":3531,"Ġwalked":3532,"Ġauthority":3533,"Ġgentleman":3534,"Ġweek":3535,"Ġsherlock":3536,"cil":3537,"inent":3538,"Ġberg":3539,"Ġfurn":3540,"Ġfair":3541,"Ġresemb":3542,"Ġflank":3543,"Ġbegun":3544,"Ġcolour":3545,"Ġhappen":3546,"Ġextent":3547,"Ġadvance":3548,"Ġdressed":3549,"hens":3550,"Ġoriginal":3551,"Ġsurrounding":3552,"Ġdimin":3553,"Ġgalloped":3554,"Ġprivate":3555,"Ġoblig":3556,"Ġsovereign":3557,"cise":3558,"iam":3559,"over":3560,"athe":3561,"Ġbott":3562,"Ġcot":3563,"edem":3564,"ache":3565,"Ġsob":3566,"iece":3567,"Ġparties":3568,"Ġglancing":3569,"Ġmarriage":3570,"Ġgrown":3571,"Ġsigns":3572,"Ġranks":3573,"Ġburst":3574,"ylvan":3575,"Ġbuild":3576,"Ġeuropean":3577,"Ġissue":3578,"ukhov":3579,"Ġlearned":3580,"Ġepitheli":3581,"Ġdischarge":3582,"ylvania":3583,"16":3584,"ners":3585,"ply":3586,"Ġoedem":3587,"Ġmotion":3588,"Ġnone":3589,"icated":3590,"Ġeager":3591,"Ġwithdra":3592,"ift":3593,"Ġsake":3594,"Ġloose":3595,"Ġconsist":3596,"Ġconflic":3597,"Ġabsence":3598,"Ġnorther":3599,"Ġchest":3600,"Ġtransf":3601,"Ġcharacteristic":3602,"Ġacquaint":3603,"Ġbeautiful":3604,"Ġcarolina":3605,"Ġwhispered":3606,"ience":3607,"ler":3608,"zukhov":3609,"onst":3610,"Ġtop":3611,"ask":3612,"Ġthrew":3613,"Ġstation":3614,"Ġank":3615,"essed":3616,"--\"":3617,"Ġknowing":3618,"Ġstruct":3619,"Ġspec":3620,"Ġreadily":3621,"Ġclean":3622,"Ġpleasant":3623,"Ġrepresentatives":3624,"Ġcavity":3625,"Ġimagine":3626,"Ġvarieties":3627,"Ġescape":3628,"night":3629,"Ġbatter":3630,"Ġcrit":3631,"Ġdie":3632,"omb":3633,"ented":3634,"oted":3635,"resp":3636,"Ġsof":3637,"aped":3638,"iple":3639,"Ġentr":3640,"iana":3641,"Ġdesire":3642,"Ġsubst":3643,"Ġ43":3644,"Ġ46":3645,"Ġbroke":3646,"Ġpleased":3647,"Ġfinished":3648,"Ġreceive":3649,"Ġopposition":3650,"Ġxv":3651,"iii":3652,"Ġ177":3653,"Ġinjuries":3654,"Ġmeasure":3655,"Ġpractice":3656,"nsylvania":3657,"Ġhills":3658,"Ġtenderness":3659,"Ġcopy":3660,"with":3661,"atous":3662,"ators":3663,"Ġfrow":3664,"Ġmucous":3665,"Ġdan":3666,"Ġhealing":3667,"Ġbezukhov":3668,"Ġones":3669,"Ġstir":3670,"Ġstop":3671,"Ġforth":3672,"raction":3673,"Ġcorpor":3674,"Ġrecord":3675,"Ġchee":3676,"Ġexcited":3677,"Ġsounds":3678,"Ġconnect":3679,"Ġtreated":3680,"Ġsnow":3681,"Ġstarted":3682,"Ġcompletely":3683,"Ġfaith":3684,"Ġessential":3685,"Ġeconomic":3686,"Ġdegree":3687,"Ġinhab":3688,"Ġsynovial":3689,"Ġnorthern":3690,"!'":3691,"mn":3692,"nes":3693,"Ġsarcoma":3694,"Ġcat":3695,"Ġcou":3696,"Ġhom":3697,"ashed":3698,"Ġhearing":3699,"Ġyell":3700,"chief":3701,"Ġhall":3702,"ĠĠĠĠĠĠĠ":3703,"ushing":3704,"Ġshad":3705,"Ġexternal":3706,"Ġdism":3707,"uncle":3708,"Ġlip":3709,"ignant":3710,"Ġmarry":3711,"Ġ36":3712,"itski":3713,"Ġarticular":3714,"Ġbrill":3715,"Ġadjacent":3716,"Ġthousands":3717,"Ġclosely":3718,"Ġdemocracy":3719,"Ġdemocrats":3720,"Ġpennsylvania":3721,"Ġsuperficial":3722,"Ġgazed":3723,"Ġhigher":3724,"Ġcandid":3725,"Ġcirculation":3726,"bing":3727,"onder":3728,"Ġmess":3729,"Ġmamma":3730,"Ġthrown":3731,"Ġbear":3732,"chan":3733,"americ":3734,"--_":3735,"Ġsoil":3736,"osity":3737,"Ġallow":3738,"Ġcommission":3739,"order":3740,"Ġpolice":3741,"Ġgetting":3742,"Ġpursu":3743,"atively":3744,"Ġcentury":3745,"Ġproposed":3746,"cluded":3747,"Ġgreen":3748,"Ġrequired":3749,"Ġelbow":3750,"Ġinfantry":3751,"Ġleucocyt":3752,"loc":3753,"erable":3754,"velt":3755,"Ġconsequ":3756,"Ġdece":3757,"oose":3758,"umph":3759,"igor":3760,"Ġunless":3761,"osevelt":3762,"Ġclaim":3763,"Ġresist":3764,"Ġglance":3765,"Ġcomposed":3766,"Ġslaves":3767,"Ġactive":3768,"Ġ52":3769,"Ġsimply":3770,"Ġminute":3771,"Ġcontinually":3772,"Ġbonaparte":3773,"Ġconstitutional":3774,"Ġvirt":3775,"Ġdomin":3776,"Ġtriumph":3777,"Ġfifty":3778,"Ġinflammation":3779,"Ġbodies":3780,"Ġspoken":3781,"val":3782,"xim":3783,"Ġoss":3784,"Ġcab":3785,"Ġcaught":3786,"lect":3787,"ental":3788,"Ġiod":3789,"Ġiii":3790,"irt":3791,"ula":3792,"Ġship":3793,"Ġcomes":3794,"Ġfiring":3795,"Ġ187":3796,"Ġpassion":3797,"Ġ42":3798,"Ġdistinct":3799,"Ġboots":3800,"Ġdangerous":3801,"Ġsolemn":3802,"Ġindustrial":3803,"Ġappointed":3804,"Ġgenerally":3805,"Ġporch":3806,"Ġsource":3807,"cri":3808,"gl":3809,"hy":3810,"rate":3811,"Ġtall":3812,"Ġsought":3813,"Ġbig":3814,"Ġcast":3815,"Ġfill":3816,"Ġpack":3817,"Ġmagn":3818,"oral":3819,"leep":3820,"Ġgard":3821,"Ġvary":3822,"rif":3823,"Ġchrist":3824,"estic":3825,"onsense":3826,"Ġpossibility":3827,"Ġpointed":3828,"Ġlistening":3829,"Ġeduc":3830,"Ġbelieved":3831,"Ġcavalry":3832,"Ġdespite":3833,"Ġohio":3834,"Ġforgot":3835,"Ġoccasionally":3836,"Ġliber":3837,"Ġsignificance":3838,"Ġdiagnosis":3839,"Ġamendment":3840,"Ġsplend":3841,"Ġaug":3842,"ones":3843,"Ġbold":3844,"Ġcru":3845,"Ġhuge":3846,"Ġtoday":3847,"asing":3848,"asons":3849,"Ġhen":3850,"Ġyield":3851,"Ġvalle":3852,"Ġunf":3853,"Ġunknown":3854,"elitis":3855,"Ġcloud":3856,"Ġ25":3857,"Ġ27":3858,"Ġacts":3859,"Ġ50":3860,"Ġopport":3861,"Ġestate":3862,"Ġenterpr":3863,"Ġnarrow":3864,"Ġgradually":3865,"Ġbacill":3866,"Ġinhabit":3867,"17":3868,"ech":3869,"pir":3870,"Ġkill":3871,"Ġcho":3872,"Ġcover":3873,"Ġplaces":3874,"ibly":3875,"Ġcontact":3876,"Ġoffered":3877,"Ġlooks":3878,"Ġpref":3879,"Ġ26":3880,"Ġrelig":3881,"Ġengaged":3882,"Ġgives":3883,"Ġpurch":3884,"Ġdirected":3885,"Ġservants":3886,"Ġpointing":3887,"Ġxx":3888,"Ġfamiliar":3889,"Ġbreast":3890,"Ġsympath":3891,"Ġgentlemen":3892,"Ġsituation":3893,"Ġaccepted":3894,"Ġentirely":3895,"rs":3896,"Ġwonder":3897,"Ġcredit":3898,"itated":3899,"oration":3900,"arr":3901,"Ġlies":3902,"Ġasleep":3903,"Ġyouth":3904,"ilton":3905,"Ġsho":3906,"Ġallowed":3907,"Ġalarm":3908,"Ġspl":3909,"Ġspring":3910,"Ġfee":3911,"Ġamp":3912,"Ġamid":3913,"Ġworth":3914,"Ġempt":3915,"Ġrepro":3916,"Ġ40":3917,"Ġfoundation":3918,"Ġcorresp":3919,"Ġprovided":3920,"Ġgraft":3921,"Ġrarely":3922,"Ġsplendid":3923,"Ġcorrespond":3924,"19":3925,"ds":3926,"Ġaut":3927,"rect":3928,"atis":3929,"Ġreach":3930,"Ġring":3931,"Ġshock":3932,"Ġwearing":3933,"Ġenorm":3934,"Ġqual":3935,"Ġclinical":3936,"Ġcontract":3937,"Ġperfect":3938,"igned":3939,"Ġ23":3940,"while":3941,"Ġcarrying":3942,"new":3943,"Ġdefe":3944,"Ġnecessity":3945,"Ġmethods":3946,"Ġarticles":3947,"Ġaccompanied":3948,"Ġadvantage":3949,"from":3950,"pap":3951,"Ġtry":3952,"Ġwag":3953,"Ġfal":3954,"Ġpit":3955,"Ġlat":3956,"Ġrising":3957,"Ġconcl":3958,"Ġhabit":3959,"Ġexact":3960,"osite":3961,"ume":3962,"Ġali":3963,"unity":3964,"Ġcoach":3965,"Ġplans":3966,"Ġtwice":3967,"Ġ28":3968,"Ġ49":3969,"Ġjustice":3970,"ledge":3971,"ritis":3972,"Ġpersist":3973,"Ġtendency":3974,"Ġbald":3975,"Ġduties":3976,"omyelitis":3977,"Ġslightly":3978,"Ġestablish":3979,"Ġhussar":3980,"Ġincluding":3981,"Ġcossacks":3982,"Ġpretty":3983,"Ġsofa":3984,"Ġbrilliant":3985,"14":3986,"gra":3987,"ker":3988,"Ġpac":3989,"Ġpos":3990,"Ġdied":3991,"Ġthro":3992,"Ġleng":3993,"Ġheat":3994,"Ġgau":3995,"Ġdegen":3996,"Ġvent":3997,"aches":3998,"oused":3999,"Ġprove":4000,"Ġjer":4001,"Ġjun":4002,"Ġjames":4003,"Ġspot":4004,"Ġroosevelt":4005,"Ġagr":4006,"Ġagitation":4007,"rows":4008,"Ġfool":4009,"Ġcomprom":4010,"Ġslave":4011,"Ġrooms":4012,"Ġspeech":4013,"Ġwrite":4014,"ucky":4015,"Ġrecognized":4016,"Ġcarts":4017,"Ġindicated":4018,"Ġvariety":4019,"coln":4020,"Ġebook":4021,"Ġnearer":4022,"american":4023,"aily":4024,"eared":4025,"gum":4026,"ially":4027,"your":4028,"ern":4029,"itz":4030,"Ġpict":4031,"Ġna":4032,"Ġnail":4033,"omm":4034,"ades":4035,"Ġreve":4036,"uting":4037,"Ġivan":4038,"iled":4039,"Ġshot":4040,"Ġshaft":4041,"oves":4042,"Ġjul":4043,"Ġweight":4044,"Ġgray":4045,"Ġ39":4046,"Ġangrily":4047,"Ġstead":4048,"Ġbecoming":4049,"Ġdrive":4050,"Ġwatson":4051,"Ġtowns":4052,"Ġburning":4053,"Ġmillion":4054,"Ġmillions":4055,"Ġdisappear":4056,"ikhon":4057,"Ġfortun":4058,"Ġanti":4059,"Ġinnoc":4060,"Ġprinciples":4061,"Ġlodge":4062,"gar":4063,"mber":4064,"ule":4065,"Ġtest":4066,"Ġtikhon":4067,"Ġsor":4068,"Ġsick":4069,"Ġbog":4070,"isters":4071,"Ġhut":4072,"Ġhang":4073,"Ġpock":4074,"Ġpushed":4075,"Ġtox":4076,"Ġconception":4077,"Ġsea":4078,"Ġvital":4079,"ovich":4080,"Ġunivers":4081,"racted":4082,"Ġimmen":4083,"Ġperman":4084,"Ġ22":4085,"Ġ185":4086,"Ġgoods":4087,"Ġconduct":4088,"Ġinstru":4089,"pleas":4090,"ship":4091,"Ġpoints":4092,"Ġapproached":4093,"Ġtowards":4094,"Ġkindly":4095,"Ġcompanion":4096,"Ġrespons":4097,"Ġhighest":4098,"Ġcouncil":4099,"Ġintroduced":4100,"Ġextraord":4101,"Ġinternal":4102,"Ġconvinced":4103,"Ġrupture":4104,"Ġimmense":4105,"hib":4106,"nigs":4107,"oom":4108,"ues":4109,"erans":4110,"itable":4111,"Ġdying":4112,"org":4113,"Ġnonsense":4114,"cely":4115,"Ġexch":4116,"Ġshed":4117,"Ġproved":4118,"Ġmechan":4119,"Ġadams":4120,"Ġcontempt":4121,"Ġexposed":4122,"rug":4123,"Ġserfs":4124,"Ġpainful":4125,"Ġsuffer":4126,"Ġopposite":4127,"Ġeffects":4128,"ashion":4129,"Ġsurprised":4130,"Ġconcerned":4131,"Ġadopted":4132,"Ġinhabitants":4133,"?...":4134,"iable":4135,"zen":4136,"Ġic":4137,"Ġts":4138,"Ġfood":4139,"Ġpred":4140,"Ġlands":4141,"Ġlaughter":4142,"icip":4143,"rop":4144,"verse":4145,"Ġsuite":4146,"ounds":4147,"Ġevidence":4148,"elled":4149,"Ġclub":4150,"Ġprepar":4151,"ucing":4152,"Ġaccident":4153,"Ġcheer":4154,"Ġcircle":4155,"Ġpaused":4156,"Ġsecure":4157,"Ġpromised":4158,"Ġproportion":4159,"Ġuseful":4160,"Ġneeded":4161,"Ġlincoln":4162,"Ġdoctr":4163,"Ġdemocratic":4164,"Ġlegislature":4165,"Ġpeasant":4166,"Ġaffections":4167,"Ġquietly":4168,"ological":4169,"Ġgranulation":4170,"Ġsuggest":4171,"Ġschool":4172,"Ġbleeding":4173,"Ġimprove":4174,"Ġbennigs":4175,"Ġcotton":4176,"'d":4177,"fl":4178,"Ġaust":4179,"Ġtheory":4180,"Ġbil":4181,"Ġmort":4182,"Ġdil":4183,"ication":4184,"Ġgate":4185,"urally":4186,"Ġyard":4187,"Ġrum":4188,"Ġdelic":4189,"Ġdeleg":4190,"ifying":4191,"Ġsafe":4192,"aked":4193,"Ġpros":4194,"Ġsperans":4195,"Ġresol":4196,"Ġgland":4197,"Ġscre":4198,"Ġourselves":4199,"Ġlikely":4200,"issipp":4201,"Ġamericans":4202,"attle":4203,"certain":4204,"Ġconstant":4205,"Ġfeelings":4206,"Ġguard":4207,"Ġparis":4208,"Ġlimited":4209,"Ġunderstanding":4210,"Ġoperations":4211,"Ġmajor":4212,"Ġtouched":4213,"Ġinterference":4214,"Ġarrested":4215,"Ġmultiple":4216,"Ġinvoluntarily":4217,"Ġbattery":4218,"Ġbennigsen":4219,"Ġsperanski":4220,"issippi":4221,"ael":4222,"ees":4223,"four":4224,"ny":4225,"wing":4226,"Ġsorrow":4227,"Ġwit":4228,"Ġpot":4229,"Ġpity":4230,"Ġpure":4231,"Ġdull":4232,"Ġlond":4233,"icked":4234,"Ġgumm":4235,"Ġily":4236,"ulf":4237,"Ġvigor":4238,"Ġsore":4239,"Ġjump":4240,"Ġspan":4241,"mented":4242,"Ġamb":4243,"Ġconserv":4244,"Ġflushed":4245,"Ġactions":4246,"Ġthroughout":4247,"Ġpatri":4248,"Ġ190":4249,"Ġmississippi":4250,"Ġbritain":4251,"Ġarteries":4252,"Ġdeeply":4253,"Ġfavour":4254,"Ġfields":4255,"Ġbeneath":4256,"Ġmalignant":4257,"Ġconsciousness":4258,"Ġapplication":4259,"Ġtremb":4260,"Ġgarden":4261,"Ġvalley":4262,"Ġagricult":4263,"Ġsorry":4264,"Ġlondon":4265,"min":4266,"Ġtib":4267,"rehens":4268,"Ġcities":4269,"Ġhosp":4270,"Ġpri":4271,"ldom":4272,"Ġash":4273,"Ġaspect":4274,"Ġii":4275,"Ġforced":4276,"ulate":4277,"Ġseldom":4278,"Ġclo":4279,"Ġblame":4280,"Ġattend":4281,"Ġmarrow":4282,"Ġ29":4283,"Ġfounded":4284,"Ġadvent":4285,"Ġprominent":4286,"Ġequally":4287,"Ġexception":4288,"Ġformerly":4289,"ergy":4290,"Ġbitter":4291,"Ġrisk":4292,"Ġproblems":4293,"Ġremarkable":4294,"gia":4295,"rid":4296,"was":4297,"Ġcult":4298,"Ġmot":4299,"Ġdav":4300,"Ġdign":4301,"Ġlangu":4302,"lling":4303,"Ġstro":4304,"Ġstup":4305,"Ġvac":4306,"osure":4307,"Ġarriv":4308,"Ġspect":4309,"Ġdoll":4310,"eless":4311,"clinical":4312,"Ġobtained":4313,"Ġsupply":4314,"Ġteeth":4315,"Ġinstit":4316,"Ġtelling":4317,"Ġcentral":4318,"Ġcurrent":4319,"Ġmainly":4320,"ushin":4321,"Ġtuberculosis":4322,"Ġburned":4323,"Ġcrossed":4324,"Ġsquad":4325,"Ġsquare":4326,"Ġjoined":4327,"regular":4328,"Ġarranged":4329,"Ġstruggle":4330,"Ġconflict":4331,"Ġliberty":4332,"Ġaugust":4333,"Ġfalse":4334,"Ġpacific":4335,"48":4336,"ma":4337,"under":4338,"Ġtushin":4339,"Ġbrown":4340,"Ġfas":4341,"Ġfund":4342,"Ġpill":4343,"arov":4344,"ote":4345,"vert":4346,"riet":4347,"Ġprocl":4348,"Ġundert":4349,"Ġliked":4350,"coat":4351,"Ġaccess":4352,"Ġ35":4353,"Ġconfirm":4354,"Ġextended":4355,"Ġcorn":4356,"liament":4357,"Ġsurfaces":4358,"Ġbuilt":4359,"Ġdomestic":4360,"Ġseparated":4361,"Ġvisitor":4362,"Ġdebt":4363,"Ġmoist":4364,"Ġaddressing":4365,"Ġmuttered":4366,"Ġhamilton":4367,"Ġhurriedly":4368,"Ġsupreme":4369,"Ġperiosteum":4370,"Ġextraordinary":4371,"hist":4372,"law":4373,"inc":4374,"erated":4375,"Ġpip":4376,"Ġinher":4377,"oring":4378,"iments":4379,"ete":4380,"Ġkur":4381,"Ġexcess":4382,"osen":4383,"Ġclay":4384,"Ġundergo":4385,"Ġcanal":4386,"Ġrepair":4387,"Ġremains":4388,"Ġthank":4389,"Ġwars":4390,"Ġgenius":4391,"Ġobst":4392,"Ġ48":4393,"Ġowners":4394,"Ġextend":4395,"Ġstreets":4396,"Ġ53":4397,"Ġbelong":4398,"Ġirregular":4399,"Ġputting":4400,"Ġswift":4401,"Ġ178":4402,"Ġcompanies":4403,"Ġdelay":4404,"force":4405,"Ġwalk":4406,"Ġfirmly":4407,"Ġtouch":4408,"Ġ*\"":4409,"Ġdisturb":4410,"Ġenormous":4411,"iated":4412,"Ġtur":4413,"inity":4414,"Ġbow":4415,"Ġcure":4416,"Ġmild":4417,"Ġdu":4418,"Ġthy":4419,"Ġnur":4420,"omen":4421,"ama":4422,"olic":4423,"illary":4424,"agg":4425,"Ġargum":4426,"Ġspain":4427,"Ġintention":4428,"gel":4429,"Ġmoreover":4430,"Ġresour":4431,"Ġblow":4432,"Ġafterwards":4433,"Ġsurre":4434,"Ġgreatest":4435,"Ġskull":4436,"Ġrefused":4437,"Ġaddressed":4438,"Ġsilently":4439,"Ġminister":4440,"Ġguests":4441,"Ġparliament":4442,"aiting":4443,"Ġexplan":4444,"Ġcarefully":4445,"Ġwatch":4446,"Ġfallen":4447,"Ġwalls":4448,"Ġgreet":4449,"Ġutter":4450,"Ġindependent":4451,"Ġrailway":4452,"Ġvera":4453,"Ġlifted":4454,"Ġabandoned":4455,"Ġosteomyelitis":4456,"Ġempire":4457,"ustomed":4458,"hetic":4459,"Ġelder":4460,"Ġenterprise":4461,"Ġstupid":4462,"eg":4463,"vitski":4464,"wood":4465,"hel":4466,"erous":4467,"itor":4468,"Ġmat":4469,"Ġnes":4470,"icat":4471,"Ġwhist":4472,"Ġstone":4473,"Ġforb":4474,"amation":4475,"ulse":4476,"illery":4477,"Ġchosen":4478,"ighed":4479,"Ġuncom":4480,"Ġunpleas":4481,"ocked":4482,"Ġensu":4483,"Ġattitude":4484,"Ġ47":4485,"Ġbattal":4486,"Ġmonth":4487,"Ġfacts":4488,"Ġfrontier":4489,"Ġprotect":4490,"Ġdevil":4491,"Ġheaven":4492,"Ġwalking":4493,"Ġgirls":4494,"Ġriding":4495,"Ġexamination":4496,"Ġsensation":4497,"Ġrubles":4498,"Ġinformation":4499,"Ġagreed":4500,"Ġaustrian":4501,"Ġsettlement":4502,"Ġoedema":4503,"Ġcompromise":4504,"Ġjulie":4505,"11":4506,"eas":4507,"field":4508,"hin":4509,"iary":4510,"iph":4511,"loo":4512,"sk":4513,"west":4514,"Ġsway":4515,"Ġbowed":4516,"adel":4517,"Ġonto":4518,"Ġsev":4519,"Ġshare":4520,"Ġshook":4521,"Ġcomr":4522,"Ġalive":4523,"Ġmel":4524,"Ġdisco":4525,"rah":4526,"Ġotherwise":4527,"Ġtimid":4528,"anches":4529,"Ġslough":4530,"Ġpowerful":4531,"Ġinteresting":4532,"ounce":4533,"Ġartillery":4534,"Ġcenter":4535,"Ġmerry":4536,"Ġmasses":4537,"Ġassume":4538,"Ġwhisper":4539,"Ġbeauty":4540,"Ġagreement":4541,"Ġhospital":4542,"Ġcloak":4543,"Ġnurse":4544,"Ġnesvitski":4545,"Ġsam":4546,"ony":4547,"Ġcreat":4548,"Ġfully":4549,"Ġfashion":4550,"Ġnon":4551,"Ġeh":4552,"Ġstout":4553,"Ġiv":4554,"Ġrout":4555,"terday":4556,"iling":4557,"Ġsav":4558,"istol":4559,"ocking":4560,"acters":4561,"Ġimpression":4562,"phia":4563,"Ġknowledge":4564,"Ġ1812":4565,"Ġ37":4566,"Ġsky":4567,"Ġcharge":4568,"Ġcharacters":4569,"Ġtex":4570,"Ġelements":4571,"Ġraising":4572,"Ġedges":4573,"Ġexcit":4574,"Ġmaintain":4575,"Ġcellular":4576,"Ġvisitors":4577,"Ġnegot":4578,"Ġwriting":4579,"Ġfunction":4580,"Ġsuggested":4581,"Ġenlarged":4582,"Ġderived":4583,"Ġsmooth":4584,"Ġjourney":4585,"Ġyellow":4586,"Ġgauze":4587,"history":4588,"**":4589,"kov":4590,"work":4591,"Ġtong":4592,"Ġwet":4593,"Ġpan":4594,"Ġmud":4595,"Ġmach":4596,"ompl":4597,"Ġeat":4598,"Ġgest":4599,"ulating":4600,"ements":4601,"Ġspr":4602,"ibin":4603,"Ġworn":4604,"ishment":4605,"have":4606,"Ġfond":4607,"ension":4608,"Ġ24":4609,"Ġaccompl":4610,"Ġobtain":4611,"teenth":4612,"Ġsubs":4613,"Ġ34":4614,"Ġheads":4615,"Ġconfused":4616,"rosis":4617,"Ġforehead":4618,"Ġreturning":4619,"Ġapproaching":4620,"Ġtendons":4621,"Ġprofound":4622,"Ġhyd":4623,"Ġlegislatures":4624,"Ġpolicies":4625,"Ġcommercial":4626,"Ġsusp":4627,"Ġabsolutely":4628,"Ġdistinguished":4629,"Ġparalysis":4630,"Ġobvious":4631,"Ġmexico":4632,"Ġdreadful":4633,"Ġbilibin":4634,"Ġarrival":4635,"jo":4636,"mar":4637,"pet":4638,"ski":4639,"zing":4640,"Ġaud":4641,"erted":4642,"Ġcicat":4643,"roph":4644,"Ġrul":4645,"Ġsuc":4646,"ope":4647,"Ġabdom":4648,"inded":4649,"Ġque":4650,"Ġgrasp":4651,"Ġdescend":4652,"Ġfollows":4653,"Ġreferred":4654,"Ġrecomm":4655,"Ġadvoc":4656,"Ġoccurrence":4657,"Ġmusk":4658,"Ġfreely":4659,"Ġcrime":4660,"Ġprevious":4661,"Ġsubjects":4662,"Ġgermany":4663,"Ġseparate":4664,"Ġannounced":4665,"Ġgroups":4666,"Ġanimated":4667,"Ġquarters":4668,"Ġgazing":4669,"Ġfighting":4670,"Ġliter":4671,"Ġdetails":4672,"Ġamputation":4673,"Ġinnocent":4674,"13":4675,"bac":4676,"cing":4677,"pre":4678,"Ġwishing":4679,"Ġfast":4680,"Ġded":4681,"Ġwhit":4682,"Ġana":4683,"Ġanci":4684,"illa":4685,"Ġnec":4686,"Ġbranches":4687,"Ġfold":4688,"Ġattain":4689,"ensive":4690,"Ġ38":4691,"Ġ45":4692,"Ġdepri":4693,"Ġfinal":4694,"Ġpressing":4695,"Ġpromise":4696,"cribed":4697,"Ġdriven":4698,"Ġdarkness":4699,"Ġquarter":4700,"Ġdemanded":4701,"Ġmentioned":4702,"Ġthorough":4703,"rifice":4704,"Ġcruel":4705,"Ġopportunity":4706,"Ġsquadron":4707,"hus":4708,"Ġid":4709,"Ġfer":4710,"Ġparent":4711,"Ġinit":4712,"ann":4713,"Ġital":4714,"Ġshape":4715,"Ġkent":4716,"Ġexper":4717,"antic":4718,"igr":4719,"Ġspace":4720,"ressing":4721,"aud":4722,"Ġworse":4723,"Ġworking":4724,"Ġcontaining":4725,"Ġembr":4726,"Ġattacked":4727,"Ġaccustomed":4728,"Ġ183":4729,"Ġrecur":4730,"Ġmusic":4731,"Ġmonarch":4732,"Ġadmit":4733,"Ġnumbers":4734,"Ġtransport":4735,"Ġtempor":4736,"Ġtreas":4737,"Ġyesterday":4738,"Ġlimbs":4739,"fortun":4740,"Ġassumed":4741,"Ġscarcely":4742,"Ġtyp":4743,"ology":4744,"Ġexpecting":4745,"Ġwidely":4746,"Ġfemur":4747,"Ġmarshal":4748,"Ġphiladel":4749,"Ġmichael":4750,"Ġapparently":4751,"Ġdoctrine":4752,"Ġspectac":4753,"Ġphiladelphia":4754,"camp":4755,"ey":4756,"me":4757,"rict":4758,"uit":4759,"isc":4760,"Ġhay":4761,"Ġpuls":4762,"Ġlog":4763,"Ġheight":4764,"entions":4765,"Ġrejo":4766,"Ġstamp":4767,"Ġnotes":4768,"Ġshri":4769,"Ġships":4770,"thir":4771,"umatic":4772,"oston":4773,"Ġhanded":4774,"Ġthromb":4775,"Ġcarb":4776,"Ġentering":4777,"Ġenthus":4778,"Ġactual":4779,"Ġacid":4780,"Ġrelief":4781,"Ġhappens":4782,"Ġreck":4783,"Ġclever":4784,"Ġdefense":4785,"Ġcommanders":4786,"Ġhorror":4787,"Ġadmitted":4788,"noe":4789,"Ġcolle":4790,"Ġprotection":4791,"Ġorganized":4792,"erences":4793,"Ġfibres":4794,"Ġhistorical":4795,"Ġviews":4796,"Ġindustries":4797,"Ġdetermined":4798,"ataev":4799,"Ġthroat":4800,"Ġspanish":4801,"Ġtibia":4802,"Ġashamed":4803,"Ġkuragin":4804,"Ġenthusi":4805,"ients":4806,"iny":4807,"Ġsut":4808,"Ġwid":4809,"Ġtoll":4810,"Ġlest":4811,"Ġreasons":4812,"stand":4813,"Ġstiff":4814,"Ġanter":4815,"Ġexha":4816,"Ġfeature":4817,"iel":4818,"Ġmanaged":4819,"Ġresolute":4820,"Ġpresents":4821,"Ġcolumn":4822,"Ġsupper":4823,"Ġserve":4824,"Ġadvice":4825,"Ġmuscular":4826,"Ġserved":4827,"Ġsuffered":4828,"iety":4829,"Ġcolonists":4830,"Ġwrist":4831,"Ġinterested":4832,"Ġrecognised":4833,"Ġavail":4834,"Ġattacks":4835,"Ġtaxes":4836,"Ġfailed":4837,"Ġceased":4838,"Ġanxious":4839,"Ġfracture":4840,"Ġkarataev":4841,"Ġwolf":4842,"Ġlength":4843,"Ġdegeneration":4844,"gment":4845,"zh":4846,"Ġwild":4847,"Ġboston":4848,"Ġcra":4849,"Ġfulf":4850,"Ġpig":4851,"alous":4852,"Ġstar":4853,"Ġrang":4854,"Ġshut":4855,"quet":4856,"Ġsprang":4857,"Ġfeared":4858,"Ġuncle":4859,"Ġnoble":4860,"Ġcommitt":4861,"Ġindiff":4862,"Ġhandker":4863,"Ġinfective":4864,"Ġarmies":4865,"Ġflour":4866,"Ġ188":4867,"Ġcondem":4868,"Ġcalling":4869,"Ġreview":4870,"Ġcuri":4871,"Ġpropriet":4872,"Ġedge":4873,"Ġtravel":4874,"Ġgermans":4875,"Ġheavily":4876,"ushka":4877,"Ġdomain":4878,"Ġfatal":4879,"Ġcysts":4880,"Ġdistribution":4881,"Ġirritation":4882,"Ġexistence":4883,"Ġplatform":4884,"Ġforgotten":4885,"Ġexcitement":4886,"Ġnegoti":4887,"Ġhandkerchief":4888,"oon":4889,"Ġtight":4890,"Ġsigh":4891,"Ġwine":4892,"Ġhun":4893,"Ġhind":4894,"Ġfit":4895,"Ġdust":4896,"Ġdream":4897,"Ġnice":4898,"Ġreb":4899,"Ġstim":4900,"akes":4901,"Ġcontraction":4902,"Ġtrain":4903,"Ġwilliam":4904,"Ġflow":4905,"Ġhousehold":4906,"Ġinvest":4907,"Ġseriously":4908,"Ġdron":4909,"ilities":4910,"herent":4911,"Ġadmission":4912,"Ġstepped":4913,"Ġincreasing":4914,"Ġtubercle":4915,"Ġbreaking":4916,"Ġpractical":4917,"Ġdebts":4918,"Ġfifteen":4919,"Ġstriking":4920,"Ġjoin":4921,"Ġcreated":4922,"Ġencour":4923,"Ġinevitable":4924,"Ġplanting":4925,"Ġimperial":4926,"Ġsurgical":4927,"Ġintellect":4928,"athered":4929,"Ġcritic":4930,"Ġempty":4931,"Ġpermanent":4932,"Ġpatriot":4933,"Ġlanguage":4934,"Ġtongue":4935,"Ġcuriosity":4936,"dy":4937,"kward":4938,"sp":4939,"inated":4940,"ndered":4941,"Ġbab":4942,"isp":4943,"Ġfil":4944,"Ġpiece":4945,"Ġmine":4946,"Ġinner":4947,"arse":4948,"Ġlum":4949,"omas":4950,"Ġrough":4951,"Ġconve":4952,"aming":4953,"Ġsuperi":4954,"acity":4955,"Ġproceed":4956,"Ġarbit":4957,"Ġgoes":4958,"Ġdidn":4959,"Ġeverywhere":4960,"achment":4961,"erved":4962,"Ġafford":4963,"Ġconfined":4964,"Ġdecision":4965,"Ġcrown":4966,"Ġexplained":4967,"Ġfinding":4968,"Ġvisible":4969,"Ġplayed":4970,"Ġsummer":4971,"Ġlegislation":4972,"Ġprisoner":4973,"ukov":4974,"Ġhealthy":4975,"Ġdeparture":4976,"Ġcomparatively":4977,"Ġprolonged":4978,"Ġgesture":4979,"15":4980,"ipped":4981,"light":4982,"ox":4983,"och":4984,"will":4985,"Ġwed":4986,"erus":4987,"Ġcoo":4988,"Ġcard":4989,"Ġfac":4990,"Ġpage":4991,"Ġmood":4992,"Ġmedi":4993,"Ġlic":4994,"Ġlives":4995,"Ġhes":4996,"Ġgathered":4997,"Ġrate":4998,"Ġframe":4999,"Ġsearch":5000,"Ġva":5001,"Ġoffer":5002,"aved":5003,"Ġnaturally":5004,"Ġsupplies":5005,"Ġcorps":5006,"Ġabsent":5007,"Ġinsisted":5008,"Ġterror":5009,"Ġimmigration":5010,"Ġanger":5011,"Ġawkward":5012,"Ġspreading":5013,"Ġplanters":5014,"Ġdropped":5015,"Ġcontrast":5016,"Ġgrave":5017,"Ġvotes":5018,"Ġdespair":5019,"Ġhollow":5020,"Ġmistaken":5021,"Ġtorn":5022,"Ġfault":5023,"Ġsituated":5024,"Ġinterfere":5025,"Ġgranulations":5026,"Ġclothes":5027,"Ġsheaths":5028,"Ġinjection":5029,"Ġabsorbed":5030,"Ġscience":5031,"Ġphysical":5032,"conscious":5033,"Ġshadow":5034,"Ġkentucky":5035,"!...\"":5036,"cher":5037,"fit":5038,"wor":5039,"Ġod":5040,"Ġwore":5041,"Ġpistol":5042,"any":5043,"anci":5044,"ading":5045,"Ġric":5046,"Ġrules":5047,"Ġconcent":5048,"Ġseptic":5049,"Ġvice":5050,"Ġshame":5051,"iforn":5052,"Ġpruss":5053,"Ġintim":5054,"Ġcontest":5055,"Ġpreced":5056,"Ġgreatly":5057,"Ġskill":5058,"Ġconfusion":5059,"Ġsuppose":5060,"Ġpatients":5061,"Ġears":5062,"Ġestates":5063,"Ġswoll":5064,"Ġapproval":5065,"Ġfamous":5066,"Ġcommonly":5067,"Ġorgans":5068,"Ġruin":5069,"Ġwatched":5070,"Ġexceed":5071,"Ġplaying":5072,"Ġelectronic":5073,"Ġissued":5074,"Ġentrance":5075,"Ġconclusion":5076,"Ġexplanation":5077,"Ġtexas":5078,"Ġswollen":5079,"good":5080,"just":5081,"kh":5082,"tub":5083,"Ġsighed":5084,"Ġwool":5085,"Ġhid":5086,"Ġdig":5087,"Ġnine":5088,"icle":5089,"Ġrese":5090,"rops":5091,"Ġuseless":5092,"Ġstorm":5093,"Ġraw":5094,"Ġconcluded":5095,"ulent":5096,"Ġsept":5097,"Ġdeeper":5098,"Ġrob":5099,"Ġintended":5100,"ieve":5101,"Ġoutl":5102,"Ġquant":5103,"Ġsomewhere":5104,"Ġsurge":5105,"Ġaccum":5106,"ruct":5107,"Ġpossess":5108,"Ġdrink":5109,"Ġcolony":5110,"Ġstandard":5111,"Ġdeclar":5112,"Ġcontrad":5113,"Ġnoticing":5114,"Ġuttered":5115,"Ġideas":5116,"Ġdisappeared":5117,"Ġanimal":5118,"Ġleadership":5119,"Ġsatisfaction":5120,"Ġsweet":5121,"Ġpulled":5122,"Ġtrouble":5123,"Ġunexpectedly":5124,"Ġcharming":5125,"Ġleucocytes":5126,"Ġtsar":5127,"Ġcheerful":5128,"rehensible":5129,"Ġunpleasant":5130,"father":5131,"gement":5132,"oided":5133,"pri":5134,"rays":5135,"Ġbased":5136,"Ġbooks":5137,"Ġcub":5138,"Ġmixed":5139,"Ġbend":5140,"Ġreception":5141,"Ġreaching":5142,"Ġrenew":5143,"stained":5144,"ille":5145,"ember":5146,"quar":5147,"aker":5148,"orted":5149,"Ġenact":5150,"Ġresolution":5151,"clay":5152,"Ġbrain":5153,"Ġattract":5154,"Ġinterior":5155,"Ġcorrect":5156,"Ġserge":5157,"Ġelev":5158,"Ġforever":5159,"Ġelastic":5160,"Ġmoments":5161,"Ġsimon":5162,"Ġmoral":5163,"Ġreven":5164,"Ġcrim":5165,"Ġpropos":5166,"Ġfourth":5167,"Ġlymphatic":5168,"Ġepiph":5169,"Ġhelped":5170,"Ġavoided":5171,"Ġsuccessful":5172,"Ġimmediate":5173,"Ġdestroy":5174,"Ġexcellent":5175,"Ġprinciple":5176,"Ġforgive":5177,"Ġhastily":5178,"Ġextension":5179,"Ġperformed":5180,"Ġlouisiana":5181,"Ġabolition":5182,"Ġacquaintance":5183,"Ġcandidate":5184,"Ġvirtue":5185,"Ġsympathy":5186,"Ġresources":5187,"car":5188,"can":5189,"eers":5190,"ford":5191,"Ġtit":5192,"Ġapr":5193,"Ġcher":5194,"Ġhart":5195,"Ġfix":5196,"utive":5197,"etan":5198,"chair":5199,"Ġsequest":5200,"Ġproof":5201,"Ġrow":5202,"oph":5203,"Ġunconscious":5204,"cia":5205,"Ġtrunk":5206,"Ġpartly":5207,"Ġbranch":5208,"Ġ(_":5209,"Ġovert":5210,"Ġtwel":5211,"Ġconsult":5212,"Ġ33":5213,"Ġ44":5214,"Ġknees":5215,"Ġinstrum":5216,"Ġkeen":5217,"Ġsimpl":5218,"Ġvaries":5219,"Ġmemory":5220,"Ġvex":5221,"Ġreplaced":5222,"Ġpreviously":5223,"Ġmerc":5224,"Ġmissouri":5225,"Ġcollect":5226,"Ġinjured":5227,"Ġze":5228,"Ġbadly":5229,"Ġvolunt":5230,"Ġnervous":5231,"Ġkeeping":5232,"Ġtrusts":5233,"Ġcaptured":5234,"Ġbreath":5235,"Ġleaning":5236,"Ġdelegates":5237,"Ġpipe":5238,"Ġsucceed":5239,"ifornia":5240,"joint":5241,"ni":5242,"Ġtear":5243,"inations":5244,"Ġbought":5245,"Ġnull":5246,"Ġec":5247,"Ġgap":5248,"Ġgame":5249,"Ġrib":5250,"allen":5251,"Ġsections":5252,"Ġvague":5253,"acious":5254,"Ġchoose":5255,"Ġalter":5256,"Ġabroad":5257,"Ġmyst":5258,"Ġevil":5259,"acks":5260,"Ġsmell":5261,"Ġcountries":5262,"Ġscot":5263,"Ġregret":5264,"Ġdesper":5265,"Ġsubsequ":5266,"Ġmakes":5267,"Ġcapable":5268,"Ġcoron":5269,"Ġdemonst":5270,"Ġcausing":5271,"plex":5272,"Ġrevol":5273,"Ġreceiving":5274,"Ġbusy":5275,"Ġappropri":5276,"Ġmrs":5277,"ylosis":5278,"Ġaware":5279,"Ġportions":5280,"Ġcrowded":5281,"Ġbuy":5282,"Ġrecognize":5283,"Ġappeal":5284,"Ġfalling":5285,"Ġcrossing":5286,"Ġreports":5287,"Ġweakness":5288,"Ġarticle":5289,"Ġauthorities":5290,"Ġbanks":5291,"Ġexercise":5292,"Ġmerchants":5293,"Ġaston":5294,"Ġarthritis":5295,"arrass":5296,"Ġpocket":5297,"Ġdelicate":5298,"Ġwitness":5299,"quarters":5300,"\"--":5301,"gor":5302,"ky":5303,"Ġaunt":5304,"reci":5305,"oned":5306,"Ġbase":5307,"Ġpel":5308,"Ġmob":5309,"Ġthumb":5310,"stairs":5311,"Ġign":5312,"ulous":5313,"alled":5314,"ables":5315,"Ġroof":5316,"Ġweb":5317,"Ġwelf":5318,"Ġintimate":5319,"Ġlevel":5320,"Ġunions":5321,"sured":5322,"Ġremove":5323,"Ġforming":5324,"Ġperplex":5325,"Ġattached":5326,"Ġconsent":5327,"Ġscattered":5328,"Ġstrict":5329,"Ġdiffuse":5330,"Ġrecent":5331,"Ġcleared":5332,"evich":5333,"Ġpossession":5334,"Ġborz":5335,"Ġfriendly":5336,"Ġleader":5337,"Ġdraft":5338,"Ġoppon":5339,"Ġhighly":5340,"ckin":5341,"Ġsword":5342,"Ġ179":5343,"Ġsteam":5344,"Ġprotective":5345,"Ġdelib":5346,"Ġawaiting":5347,"Ġspreads":5348,"Ġvien":5349,"Ġrequire":5350,"Ġhumanity":5351,"Ġembol":5352,"Ġembarrass":5353,"Ġgeorgia":5354,"Ġreported":5355,"Ġpunct":5356,"Ġmarket":5357,"Ġenlargement":5358,"Ġaustria":5359,"Ġdeformity":5360,"Ġdiplomatic":5361,"Ġfranklin":5362,"Ġepithelium":5363,"Ġdaniel":5364,"Ġbacillus":5365,"Ġagriculture":5366,"Ġwelfare":5367,"grow":5368,"inate":5369,"Ġoct":5370,"rep":5371,"Ġfought":5372,"Ġmas":5373,"Ġrele":5374,"rot":5375,"otograph":5376,"Ġride":5377,"rig":5378,"Ġproud":5379,"Ġalb":5380,"Ġaroused":5381,"Ġjaw":5382,"Ġweary":5383,"Ġleague":5384,"Ġunlike":5385,"Ġunnat":5386,"Ġdisloc":5387,"ival":5388,"Ġagitated":5389,"Ġremed":5390,"Ġarmed":5391,"Ġacting":5392,"Ġspeed":5393,"Ġways":5394,"yaz":5395,"Ġ59":5396,"Ġconsidering":5397,"Ġsinus":5398,"Ġadmir":5399,"Ġopposed":5400,"Ġshouts":5401,"Ġraise":5402,"Ġinflamed":5403,"factory":5404,"Ġconnected":5405,"Ġnewspap":5406,"Ġvalu":5407,"Ġoccupation":5408,"govern":5409,"Ġacquired":5410,"Ġextremity":5411,"Ġholy":5412,"Ġinformed":5413,"Ġmurat":5414,"Ġwinter":5415,"Ġdissatis":5416,"Ġebooks":5417,"Ġassistance":5418,"Ġbonds":5419,"Ġrecalled":5420,"Ġpermission":5421,"Ġhyperaemia":5422,"Ġtransferred":5423,"Ġankylosis":5424,"cription":5425,"Ġeducation":5426,"Ġreligious":5427,"Ġreproach":5428,"Ġcoachman":5429,"Ġauster":5430,"Ġdignity":5431,"Ġforbid":5432,"hol":5433,"litz":5434,"met":5435,"master":5436,"ober":5437,"rison":5438,"tur":5439,"Ġach":5440,"Ġsan":5441,"Ġsong":5442,"erior":5443,"Ġcustom":5444,"edition":5445,"Ġhipp":5446,"Ġmcc":5447,"Ġtoes":5448,"Ġlose":5449,"Ġloy":5450,"Ġnurs":5451,"icut":5452,"roe":5453,"lym":5454,"urated":5455,"Ġsugar":5456,"Ġshirt":5457,"Ġsaved":5458,"Ġalliance":5459,"Ġalt":5460,"Ġwear":5461,"aryn":5462,"unks":5463,"Ġtran":5464,"Ġoverlying":5465,"Ġthrust":5466,"Ġlegal":5467,"Ġsmaller":5468,"Ġphr":5469,"Ġcrack":5470,"Ġproduct":5471,"Ġlayer":5472,"Ġslee":5473,"Ġtrave":5474,"Ġtrees":5475,"Ġfrequent":5476,"Ġbarclay":5477,"Ġrevolutionary":5478,"Ġwindows":5479,"Ġdescribe":5480,"Ġsatisfied":5481,"Ġsecretary":5482,"Ġurged":5483,"Ġdepends":5484,"Ġinevitability":5485,"Ġstretched":5486,"Ġdisplay":5487,"olyte":5488,"Ġwaited":5489,"Ġresembling":5490,"Ġbuilding":5491,"Ġfascia":5492,"Ġausterlitz":5493,"Ġhippolyte":5494,"iot":5495,"ux":5496,"Ġtrib":5497,"Ġwages":5498,"Ġhide":5499,"Ġphen":5500,"Ġmason":5501,"esh":5502,"Ġtot":5503,"anes":5504,"icles":5505,"Ġgown":5506,"rose":5507,"ilised":5508,"Ġsear":5509,"Ġdeed":5510,"Ġvain":5511,"apse":5512,"Ġalco":5513,"Ġprint":5514,"Ġadult":5515,"Ġenforce":5516,"pless":5517,"Ġcontem":5518,"Ġcommitted":5519,"Ġperfor":5520,"Ġgrain":5521,"Ġfrenchmen":5522,"Ġdistant":5523,"Ġincident":5524,"Ġincomp":5525,"Ġserum":5526,"Ġcontinue":5527,"Ġinstance":5528,"Ġmale":5529,"Ġmember":5530,"Ġshows":5531,"rency":5532,"Ġprovision":5533,"Ġprovisions":5534,"Ġrecovery":5535,"Ġhighness":5536,"Ġcentre":5537,"Ġcurrency":5538,"Ġsleigh":5539,"Ġfigures":5540,"Ġmidst":5541,"Ġrealized":5542,"Ġprofession":5543,"Ġburns":5544,"Ġgrey":5545,"Ġseparation":5546,"Ġdeveloped":5547,"Ġimagination":5548,"Ġexecutive":5549,"Ġligation":5550,"Ġextensive":5551,"Ġnearest":5552,"Ġassistant":5553,"Ġextremely":5554,"Ġfrowning":5555,"Ġconnecticut":5556,"Ġhenry":5557,"Ġpurchase":5558,"Ġjumped":5559,"Ġdeclaration":5560,"Ġvienna":5561,"Ġoctober":5562,"government":5563,"Ġphenomen":5564,"49":5565,"hand":5566,"lers":5567,"tt":5568,"Ġtask":5569,"ites":5570,"Ġpion":5571,"Ġet":5572,"Ġreject":5573,"iderm":5574,"Ġrig":5575,"amber":5576,"allow":5577,"Ġvast":5578,"riages":5579,"Ġshaking":5580,"Ġneur":5581,"Ġchallen":5582,"anting":5583,"umns":5584,"Ġprogr":5585,"Ġuncertain":5586,"Ġadhes":5587,"Ġcoal":5588,"Ġmyster":5589,"Ġagents":5590,"Ġcontents":5591,"Ġblock":5592,"Ġglory":5593,"Ġarmchair":5594,"Ġattent":5595,"Ġexposure":5596,"Ġflight":5597,"Ġscene":5598,"ipher":5599,"Ġdesired":5600,"Ġcolumns":5601,"encies":5602,"lessly":5603,"Ġbattles":5604,"Ġinsp":5605,"Ġfinish":5606,"Ġnumerous":5607,"Ġprompt":5608,"Ġcampf":5609,"Ġsinging":5610,"Ġballs":5611,"Ġballot":5612,"Ġpreparing":5613,"Ġjealous":5614,"Ġulceration":5615,"Ġjoyful":5616,"Ġcontrovers":5617,"Ġexamined":5618,"Ġmodern":5619,"Ġnegro":5620,"Ġradium":5621,"Ġbandage":5622,"Ġviolence":5623,"Ġflew":5624,"Ġvicinity":5625,"Ġassembled":5626,"Ġfrost":5627,"Ġsubstance":5628,"Ġcopyright":5629,"nessee":5630,"Ġautumn":5631,"Ġjunction":5632,"Ġtoxins":5633,"Ġtrembling":5634,"Ġanaest":5635,"Ġancient":5636,"idermis":5637,"25":5638,"bec":5639,"gest":5640,"kind":5641,"Ġident":5642,"Ġvers":5643,"Ġaide":5644,"Ġarose":5645,"Ġox":5646,"Ġbaker":5647,"Ġcere":5648,"Ġcous":5649,"Ġfancy":5650,"Ġpulse":5651,"Ġmir":5652,"Ġmac":5653,"Ġmun":5654,"Ġmatch":5655,"Ġincl":5656,"Ġdate":5657,"Ġtobac":5658,"orable":5659,"Ġretain":5660,"Ġult":5661,"aya":5662,"Ġsem":5663,"Ġselected":5664,"agger":5665,"Ġsaf":5666,"Ġspasm":5667,"Ġunfortun":5668,"Ġenv":5669,"Ġappreci":5670,"ansas":5671,"anged":5672,"eping":5673,"Ġperipher":5674,"Ġcompared":5675,"Ġcompelled":5676,"Ġconsol":5677,"Ġflag":5678,"ailed":5679,"Ġreluct":5680,"Ġconstantly":5681,"ucharov":5682,"Ġengagement":5683,"Ġstream":5684,"Ġpatches":5685,"Ġforearm":5686,"Ġdepos":5687,"Ġdense":5688,"Ġsilk":5689,"Ġcaut":5690,"Ġlimit":5691,"Ġsinuses":5692,"Ġconviction":5693,"Ġorderly":5694,"Ġtends":5695,"Ġsecured":5696,"Ġcalifornia":5697,"Ġfootman":5698,"Ġillness":5699,"Ġvascular":5700,"Ġdispute":5701,"Ġdouble":5702,"Ġdifficulties":5703,"Ġhundreds":5704,"Ġregimental":5705,"Ġstronger":5706,"Ġstarting":5707,"Ġimagined":5708,"Ġpurposes":5709,"Ġprogressive":5710,"Ġprivile":5711,"Ġmanufacture":5712,"Ġprovince":5713,"Ġmerchant":5714,"Ġbullet":5715,"Ġrevealed":5716,"organ":5717,"ucharovo":5718,"cked":5719,"fuel":5720,"gage":5721,"ipt":5722,"kin":5723,"med":5724,"oform":5725,"rant":5726,"rative":5727,"Ġtut":5728,"Ġber":5729,"Ġborder":5730,"Ġcards":5731,"Ġhip":5732,"Ġpub":5733,"Ġpfuel":5734,"Ġming":5735,"inging":5736,"Ġdors":5737,"Ġgain":5738,"ald":5739,"Ġrain":5740,"Ġrates":5741,"Ġconc":5742,"Ġconqu":5743,"Ġneut":5744,"aging":5745,"Ġpron":5746,"Ġwheels":5747,"ateg":5748,"igation":5749,"Ġabund":5750,"Ġdoors":5751,"Ġmanagement":5752,"acement":5753,"Ġworthy":5754,"Ġcontrib":5755,"Ġblushed":5756,"Ġindian":5757,"Ġindians":5758,"Ġimpress":5759,"Ġusing":5760,"Ġhappening":5761,"Ġpeter":5762,"culated":5763,"Ġdonations":5764,"Ġwrink":5765,"Ġchem":5766,"Ġprovide":5767,"Ġapproved":5768,"Ġsecre":5769,"Ġ176":5770,"Ġruined":5771,"Ġtennessee":5772,"Ġrapidity":5773,"Ġrepeating":5774,"Ġeastern":5775,"Ġdriving":5776,"Ġhistoric":5777,"Ġfellows":5778,"Ġnorthwest":5779,"ipping":5780,"Ġbringing":5781,"Ġprincip":5782,"Ġmarkets":5783,"Ġrestrain":5784,"Ġconfederation":5785,"agraph":5786,"Ġgrief":5787,"Ġbeaten":5788,"Ġwithdraw":5789,"Ġcheek":5790,"Ġcheeks":5791,"Ġbogucharovo":5792,"Ġinherited":5793,"igrants":5794,"Ġloyal":5795,"Ġtranqu":5796,"Ġtobacco":5797,"lo":5798,"sarcoma":5799,"tiary":5800,"uary":5801,"vard":5802,"Ġing":5803,"inous":5804,"rees":5805,"Ġbread":5806,"Ġpond":5807,"Ġlot":5808,"Ġlack":5809,"Ġlav":5810,"Ġgather":5811,"ada":5812,"Ġrear":5813,"Ġanal":5814,"Ġangel":5815,"ilies":5816,"Ġchond":5817,"Ġprohib":5818,"ourse":5819,"Ġinduced":5820,"ints":5821,"Ġimpat":5822,"Ġyours":5823,"Ġbegins":5824,"Ġstranger":5825,"Ġ200":5826,"Ġregen":5827,"Ġheadquarters":5828,"Ġdistrict":5829,"Ġpolish":5830,"Ġdifference":5831,"Ġcourts":5832,"Ġpetition":5833,"Ġcontinental":5834,"Ġinstantly":5835,"Ġservant":5836,"Ġguil":5837,"Ġinspect":5838,"Ġcontinuous":5839,"Ġartific":5840,"Ġpoison":5841,"Ġmission":5842,"Ġsenator":5843,"Ġgrowths":5844,"Ġbrothers":5845,"Ġsummon":5846,"Ġinquired":5847,"Ġbenefit":5848,"Ġeighte":5849,"Ġbacterial":5850,"Ġattempts":5851,"Ġloudly":5852,"Ġnodded":5853,".)]":5854,"Ġinternational":5855,"Ġgranted":5856,"Ġmessage":5857,"Ġresistance":5858,"Ġchoice":5859,"Ġdefeat":5860,"Ġfortunes":5861,"Ġdollars":5862,"Ġduke":5863,"Ġcomrades":5864,"Ġnecrosis":5865,"Ġembraced":5866,"Ġbaby":5867,"aited":5868,"fr":5869,"five":5870,"fast":5871,"rim":5872,"six":5873,"ture":5874,"Ġtetan":5875,"Ġah":5876,"only":5877,"Ġbay":5878,"Ġbore":5879,"Ġfet":5880,"Ġpin":5881,"Ġpil":5882,"Ġmag":5883,"Ġdare":5884,"Ġdancing":5885,"lly":5886,"Ġgained":5887,"seen":5888,"Ġstom":5889,"ette":5890,"Ġrace":5891,"Ġrank":5892,"Ġrhod":5893,"aments":5894,"acher":5895,"oop":5896,"Ġprice":5897,"Ġprices":5898,"Ġshell":5899,"Ġfeb":5900,"ieur":5901,"Ġcoast":5902,"Ġenergy":5903,"Ġsomewhat":5904,"Ġblind":5905,"Ġcompet":5906,"Ġseek":5907,"onsieur":5908,"Ġolder":5909,"Ġmustache":5910,"Ġspecially":5911,"Ġpeoples":5912,"Ġincome":5913,"Ġincision":5914,"Ġconfidence":5915,"Ġsupposed":5916,"Ġrelated":5917,"Ġadvancing":5918,"Ġtext":5919,"Ġinstinct":5920,"Ġphili":5921,"Ġmonroe":5922,"Ġproduction":5923,"Ġfamilies":5924,"Ġdolgor":5925,"Ġdiscovered":5926,"Ġbrief":5927,"Ġexcuse":5928,"Ġfederation":5929,"Ġports":5930,"Ġbedroom":5931,"Ġepidermis":5932,"Ġroads":5933,"Ġdoctors":5934,"Ġsenators":5935,"Ġabscesses":5936,"Ġsacrifice":5937,"Ġremarks":5938,"Ġjudge":5939,"Ġ1860":5940,"Ġoblit":5941,"Ġinflammatory":5942,"Ġprovincial":5943,"Ġanxiety":5944,"syph":5945,"ococcus":5946,"Ġthrowing":5947,"Ġcouple":5948,"Ġexactly":5949,"Ġinstructions":5950,"Ġproclamation":5951,"Ġbattalion":5952,"Ġabdominal":5953,"Ġthoroughly":5954,"Ġexhausted":5955,"Ġhunter":5956,"Ġtwelve":5957,"Ġphilipp":5958,"Ġdolgorukov":5959,"cal":5960,"faced":5961,"ls":5962,"lier":5963,"Ġtour":5964,"Ġtail":5965,"Ġapt":5966,"Ġbas":5967,"Ġbath":5968,"Ġdess":5969,"Ġdaily":5970,"Ġease":5971,"lection":5972,"Ġreward":5973,"rother":5974,"sey":5975,"urance":5976,"Ġil":5977,"Ġfrag":5978,"oles":5979,"Ġbutt":5980,"Ġweather":5981,"Ġunus":5982,"Ġuneas":5983,"Ġdisorder":5984,"Ġclav":5985,"Ġunderwood":5986,"Ġemotion":5987,"Ġinfect":5988,"Ġinfinite":5989,"Ġglit":5990,"bert":5991,"Ġscal":5992,"Ġscale":5993,"ensions":5994,"aware":5995,"Ġreference":5996,"Ġinvited":5997,"Ġelected":5998,"Ġdrain":5999,"Ġphotograph":6000,"Ġirres":6001,"Ġparagraph":6002,"Ġseverity":6003,"Ġtransform":6004,"Ġdevoted":6005,"Ġdispos":6006,"Ġ60":6007,"Ġmilitia":6008,"Ġsnuff":6009,"Ġridic":6010,"Ġprevented":6011,"Ġmedull":6012,"Ġjudic":6013,"Ġforests":6014,"Ġcapture":6015,"Ġconfeder":6016,"Ġmanifestations":6017,"Ġbottle":6018,"Ġclouds":6019,"Ġfeeble":6020,"Ġperfectly":6021,"Ġpreparations":6022,"Ġprosper":6023,"Ġcooper":6024,"Ġmedium":6025,"Ġvalet":6026,"Ġadhesions":6027,"bre":6028,"cont":6029,"fib":6030,"fare":6031,"vis":6032,"Ġahead":6033,"Ġcup":6034,"Ġcatch":6035,"itating":6036,"Ġdun":6037,"arth":6038,"arthy":6039,"Ġlosing":6040,"omte":6041,"icose":6042,"Ġgle":6043,"Ġreign":6044,"urity":6045,"Ġstages":6046,"Ġstories":6047,"verted":6048,"amb":6049,"Ġkrem":6050,"Ġchina":6051,"akche":6052,"Ġjune":6053,"Ġwel":6054,"Ġfreem":6055,"such":6056,"Ġcloth":6057,"Ġapply":6058,"cler":6059,"Ġtwit":6060,"Ġcarp":6061,"Ġretired":6062,"Ġfriendship":6063,"Ġinside":6064,"prin":6065,"nothing":6066,"Ġhumerus":6067,"Ġneeds":6068,"apsed":6069,"Ġbalance":6070,"Ġmadison":6071,"Ġcareful":6072,"Ġdrop":6073,"Ġhurry":6074,"Ġprepare":6075,"Ġsurroundings":6076,"Ġvoters":6077,"aneously":6078,"Ġerr":6079,"Ġsterilised":6080,"Ġalexe":6081,"Ġtouching":6082,"Ġmoon":6083,"Ġincluded":6084,"Ġfavorite":6085,"Ġcombined":6086,"Ġcombination":6087,"Ġprayer":6088,"Ġsharply":6089,"Ġdeformans":6090,"Ġphilos":6091,"Ġvicomte":6092,"Ġbreathing":6093,"Ġinquiry":6094,"Ġabsorption":6095,"Ġmounted":6096,"Ġbullets":6097,"Ġdiminished":6098,"Ġstructures":6099,"Ġfrowned":6100,"Ġpositive":6101,"Ġicon":6102,"looking":6103,"Ġparents":6104,"tuber":6105,"Ġseptember":6106,"Ġsurgeon":6107,"Ġalcohol":6108,"Ġprogram":6109,"akcheev":6110,"+--------":6111,"28":6112,"awn":6113,"di":6114,"his":6115,"hur":6116,"lim":6117,"phe":6118,"pres":6119,"sm":6120,"tw":6121,"vas":6122,"ville":6123,"Ġsere":6124,"Ġske":6125,"Ġsons":6126,"Ġcow":6127,"Ġcattle":6128,"Ġmic":6129,"Ġmonsieur":6130,"Ġthigh":6131,"Ġloving":6132,"Ġren":6133,"Ġrender":6134,"ims":6135,"Ġwhip":6136,"veland":6137,"Ġruc":6138,"olent":6139,"Ġseated":6140,"Ġdealing":6141,"Ġvil":6142,"Ġaltered":6143,"Ġarakcheev":6144,"Ġjan":6145,"Ġjose":6146,"Ġrole":6147,"Ġdiscl":6148,"ĠĠĠĠĠĠĠĠĠĠĠĠĠ":6149,"Ġnob":6150,"Ġemph":6151,"Ġliver":6152,"Ġremoving":6153,"Ġgrate":6154,"Ġgrass":6155,"Ġprec":6156,"Ġthanks":6157,"Ġcarriages":6158,"Ġcolor":6159,"Ġ184":6160,"Ġcourage":6161,"Ġrefuse":6162,"ictions":6163,"Ġdefect":6164,"Ġinvasion":6165,"Ġserous":6166,"ifications":6167,"Ġpains":6168,"Ġinsign":6169,"Ġredoub":6170,"Ġrecover":6171,"Ġsentiment":6172,"Ġincreases":6173,"Ġorganization":6174,"Ġfavored":6175,"Ġsincere":6176,"Ġsoftly":6177,"Ġwatching":6178,"Ġmeanwhile":6179,"Ġassociation":6180,"Ġspirits":6181,"Ġpenet":6182,"Ġtrif":6183,"Ġrequest":6184,"Ġeru":6185,"Ġgangl":6186,"Ġrespectfully":6187,"Ġfifth":6188,"Ġquarrel":6189,"Ġradical":6190,"Ġsaddle":6191,"Ġsolid":6192,"Ġterritories":6193,"Ġliberal":6194,"Ġexecution":6195,"Ġmanufactures":6196,"Ġprovinces":6197,"Ġsternly":6198,"Ġwishes":6199,"Ġstatement":6200,"Ġintellig":6201,"Ġbottom":6202,"Ġspecific":6203,"Ġiodoform":6204,"Ġjersey":6205,"Ġhanging":6206,"Ġconservative":6207,"Ġadventure":6208,"Ġexcessive":6209,"Ġdisturbance":6210,"Ġsurrender":6211,"Ġdiscover":6212,"Ġmusket":6213,"Ġexperiment":6214,"standing":6215,"Ġguilty":6216,"Ġstomach":6217,"Ġserene":6218,"Ġrucast":6219,"?...\"":6220,"lord":6221,"look":6222,"mary":6223,"rushka":6224,"Ġtired":6225,"Ġowing":6226,"Ġpou":6227,"Ġpad":6228,"Ġlamp":6229,"Ġnomin":6230,"Ġbeard":6231,"Ġretained":6232,"oting":6233,"Ġisn":6234,"Ġfranc":6235,"Ġshr":6236,"Ġshone":6237,"acic":6238,"Ġexisted":6239,"Ġsaber":6240,"Ġpride":6241,"Ġchanc":6242,"estead":6243,"Ġareas":6244,"Ġwey":6245,"arted":6246,"Ġuns":6247,"Ġknoll":6248,"Ġworst":6249,"Ġcler":6250,"Ġtrap":6251,"Ġwarfare":6252,"Ġsche":6253,"Ġaccur":6254,"Ġletting":6255,"Ġretire":6256,"Ġyounger":6257,"Ġ58":6258,"Ġrestless":6259,"oubted":6260,"Ġreduced":6261,"Ġconven":6262,"Ġchildhood":6263,"Ġfactor":6264,"Ġimmigrants":6265,"Ġoperative":6266,"Ġlightly":6267,"Ġmercy":6268,"Ġdelir":6269,"Ġillust":6270,"Ġchanging":6271,"Ġhopes":6272,"Ġreasoning":6273,"Ġstrongly":6274,"Ġcivilization":6275,"Ġrepresented":6276,"Ġlocalised":6277,"Ġannounce":6278,"ricial":6279,"inois":6280,"Ġpowder":6281,"Ġverte":6282,"Ġfortune":6283,"Ġaffecting":6284,"Ġsensibility":6285,"Ġsatisfactory":6286,"Ġcommunication":6287,"Ġdistributed":6288,"Ġassembly":6289,"Ġsurgery":6290,"Ġsobs":6291,"Ġhomestead":6292,"Ġsteadily":6293,"Ġvitality":6294,"Ġresponsibility":6295,"Ġliterary":6296,"Ġspectacles":6297,"Ġenthusiasm":6298,"Ġintellectual":6299,"Ġsuperior":6300,"Ġsequestrum":6301,"arynx":6302,"Ġincomprehensible":6303,"Ġcousin":6304,"Ġneutral":6305,"Ġalexeevich":6306,"Ġjoseph":6307,"Ġinsignific":6308,"god":6309,"iation":6310,"ioma":6311,"kaya":6312,"minded":6313,"roma":6314,"Ġ...":6315,"Ġtied":6316,"Ġtension":6317,"Ġaet":6318,"Ġoak":6319,"Ġbul":6320,"Ġbind":6321,"Ġbasis":6322,"isk":6323,"Ġfires":6324,"Ġpace":6325,"Ġpause":6326,"Ġpair":6327,"Ġpacked":6328,"Ġdar":6329,"Ġdance":6330,"ancial":6331,"Ġheal":6332,"iced":6333,"stit":6334,"step":6335,"Ġanne":6336,"chial":6337,"herkov":6338,"ulitis":6339,"rill":6340,"Ġshining":6341,"ppy":6342,"ago":6343,"ums":6344,"Ġunha":6345,"Ġamaz":6346,"Ġknife":6347,"these":6348,"Ġworked":6349,"Ġanywhere":6350,"Ġremaining":6351,"Ġbru":6352,"arev":6353,"Ġfled":6354,"Ġwarrant":6355,"ervical":6356,"Ġsurv":6357,"Ġbetray":6358,"Ġconfess":6359,"Ġsuppur":6360,"Ġreflected":6361,"Ġrestored":6362,"psh":6363,"Ġcheck":6364,"Ġapproach":6365,"Ġneedle":6366,"Ġcollected":6367,"Ġillinois":6368,"Ġdirections":6369,"Ġmadame":6370,"Ġsenseless":6371,"semble":6372,"general":6373,"Ġzherkov":6374,"Ġanimals":6375,"Ġcele":6376,"Ġexecuted":6377,"Ġpalm":6378,"Ġeyeb":6379,"Ġadopt":6380,"Ġneighbor":6381,"Ġhunts":6382,"Ġnaval":6383,"Ġacquaintances":6384,"Ġstructure":6385,"Ġclaims":6386,"Ġcovering":6387,"Ġpersistent":6388,"Ġestablishment":6389,"Ġnaev":6390,"Ġvigorous":6391,"Ġdavout":6392,"Ġcriticism":6393,"Ġsergeant":6394,"Ġrigid":6395,"Ġtetanus":6396,"syphilitic":6397,"Ġjanuary":6398,"aul":6399,"bits":6400,"called":6401,"lor":6402,"lov":6403,"ris":6404,"ran":6405,"rical":6406,"rating":6407,"yn":6408,"yle":6409,"Ġtree":6410,"Ġtriv":6411,"Ġoil":6412,"Ġwra":6413,"Ġwip":6414,"ateral":6415,"atched":6416,"Ġcervical":6417,"Ġfly":6418,"Ġfoc":6419,"Ġpicked":6420,"Ġdre":6421,"anim":6422,"ashing":6423,"Ġnin":6424,"Ġnour":6425,"Ġger":6426,"vember":6427,"Ġstick":6428,"etic":6429,"iring":6430,"Ġrhe":6431,"Ġviii":6432,"Ġaltern":6433,"Ġjuly":6434,"Ġrolled":6435,"ivered":6436,"Ġintra":6437,"Ġabn":6438,"Ġmane":6439,"Ġgover":6440,"Ġcoats":6441,"Ġnovember":6442,"theless":6443,"Ġclos":6444,"Ġcommiss":6445,"Ġnative":6446,"Ġnewly":6447,"Ġinfilt":6448,"Ġattrib":6449,"Ġmarg":6450,"Ġactually":6451,"ruary":6452,"Ġended":6453,"Ġcharles":6454,"Ġcapacity":6455,"Ġcleveland":6456,"Ġnevertheless":6457,"Ġdrunk":6458,"Ġbelonged":6459,"Ġsigned":6460,"Ġtube":6461,"Ġdoesn":6462,"Ġcalc":6463,"Ġsteward":6464,"factor":6465,"Ġprotest":6466,"Ġtraumatic":6467,"Ġenemies":6468,"Ġmaintained":6469,"Ġdoubts":6470,"Ġhistorian":6471,"Ġcareer":6472,"Ġcellulitis":6473,"Ġfederalists":6474,"Ġelectric":6475,"Ġrepresentative":6476,"aphyl":6477,"Ġpayment":6478,"Ġbaggage":6479,"Ġsalt":6480,"Ġobservation":6481,"Ġgrounds":6482,"Ġstrike":6483,"Ġmistake":6484,"Ġfailure":6485,"Ġpushing":6486,"Ġharness":6487,"Ġsupported":6488,"Ġligature":6489,"Ġplainly":6490,"Ġintervals":6491,"Ġappointment":6492,"Ġstayed":6493,"Ġdetermine":6494,"Ġsignificant":6495,"Ġequality":6496,"Ġmanufacturing":6497,"Ġbirth":6498,"Ġneighbour":6499,"Ġadvantages":6500,"Ġexerc":6501,"donald":6502,"Ġwaist":6503,"Ġleaned":6504,"Ġdelighted":6505,"Ġvenous":6506,"Ġeagerly":6507,"Ġdecember":6508,"Ġilyin":6509,"Ġaccomplished":6510,"Ġcommittee":6511,"Ġprussia":6512,"Ġquantity":6513,"Ġrevenue":6514,"Ġproposal":6515,"Ġtitle":6516,"Ġmystery":6517,"Ġperipheral":6518,"Ġartificial":6519,"Ġfebruary":6520,"Ġweyrother":6521,"Ġtrivial":6522,"57":6523,"aise":6524,"every":6525,"ham":6526,"houn":6527,"pation":6528,"rade":6529,"Ġta":6530,"inf":6531,"Ġwants":6532,"Ġpaces":6533,"Ġmap":6534,"Ġmental":6535,"Ġinaug":6536,"Ġdir":6537,"Ġthou":6538,"Ġlac":6539,"Ġgar":6540,"Ġgaily":6541,"alf":6542,"ether":6543,"Ġrange":6544,"Ġhabits":6545,"Ġseas":6546,"Ġvivid":6547,"Ġshy":6548,"Ġshrug":6549,"Ġkid":6550,"three":6551,"emic":6552,"Ġchamber":6553,"umed":6554,"umerable":6555,"Ġwheat":6556,"Ġdish":6557,"Ġadvert":6558,"Ġcoff":6559,"Ġnoise":6560,"odore":6561,"Ġglo":6562,"Ġgloom":6563,"Ġcompression":6564,"Ġconsisted":6565,"Ġflat":6566,"Ġregions":6567,"Ġentertain":6568,"Ġmaryland":6569,"Ġsetting":6570,"Ġ54":6571,"Ġborne":6572,"upus":6573,"Ġtertiary":6574,"Ġbattlefield":6575,"Ġboard":6576,"Ġangle":6577,"Ġsingular":6578,"Ġnamely":6579,"Ġhoped":6580,"Ġopinions":6581,"Ġgrace":6582,"Ġmills":6583,"Ġvillages":6584,"Ġaccounts":6585,"Ġtrial":6586,"Ġjoyfully":6587,"Ġissues":6588,"Ġkissing":6589,"Ġantise":6590,"Ġadjutants":6591,"Ġcease":6592,"Ġinnumerable":6593,"Ġundoubted":6594,"Ġconcerning":6595,"Ġlearn":6596,"Ġindef":6597,"ertion":6598,"Ġmurm":6599,"Ġencoun":6600,"Ġinterview":6601,"natured":6602,"Ġnodules":6603,"Ġsending":6604,"Ġmaids":6605,"Ġbursae":6606,"Ġobviously":6607,"Ġthreatened":6608,"Ġdogs":6609,"Ġratification":6610,"Ġnavy":6611,"Ġepithelioma":6612,"Ġwithdrawn":6613,"Ġossifying":6614,"Ġshoes":6615,"Ġgrafting":6616,"Ġwagons":6617,"Ġswiftly":6618,"Ġarguments":6619,"Ġsuspic":6620,"Ġcicatricial":6621,"Ġtreasury":6622,"Ġpulsation":6623,"thirds":6624,"Ġlestrade":6625,"Ġwedding":6626,"Ġlicense":6627,"Ġlymphatics":6628,"ckinley":6629,"Ġunnatural":6630,"Ġlavrushka":6631,"hurrah":6632,"Ġrucastle":6633,"\";":6634,"24":6635,"30":6636,"60":6637,"bra":6638,"house":6639,"iasis":6640,"sing":6641,"Ġtast":6642,"hem":6643,"Ġsuture":6644,"ishes":6645,"Ġfolk":6646,"Ġpick":6647,"Ġderm":6648,"Ġdrug":6649,"ari":6650,"anin":6651,"aska":6652,"Ġlun":6653,"Ġnamed":6654,"omical":6655,"icity":6656,"Ġgon":6657,"Ġbew":6658,"aden":6659,"Ġrect":6660,"ids":6661,"Ġonset":6662,"Ġstock":6663,"Ġili":6664,"alles":6665,"usions":6666,"Ġshop":6667,"Ġkuz":6668,"Ġexud":6669,"thank":6670,"Ġsail":6671,"Ġspaces":6672,"ounded":6673,"Ġleaves":6674,"Ġenvelop":6675,"keeper":6676,"assad":6677,"fty":6678,"Ġprecious":6679,"Ġwarning":6680,"Ġscrew":6681,"Ġoffices":6682,"Ġgoodness":6683,"Ġdefined":6684,"Ġpersu":6685,"Ġcontinent":6686,"even":6687,"Ġ57":6688,"Ġelement":6689,"Ġserving":6690,"Ġservices":6691,"Ġfreehold":6692,"Ġconstitutions":6693,"Ġanswering":6694,"Ġdiam":6695,"Ġworkers":6696,"Ġdetachment":6697,"Ġpersonally":6698,"Ġpapa":6699,"Ġcollar":6700,"Ġfootstep":6701,"Ġtrace":6702,"Ġdisposition":6703,"Ġsettlers":6704,"Ġemployees":6705,"Ġrealize":6706,"Ġcutaneous":6707,"Ġelections":6708,"Ġdebate":6709,"Ġspiritual":6710,"Ġcandle":6711,"Ġswept":6712,"occup":6713,"Ġdamaged":6714,"Ġbells":6715,"Ġstretching":6716,"Ġaxis":6717,"board":6718,"Ġarchive":6719,"Ġspoon":6720,"Ġobligations":6721,"Ġdistinctly":6722,"Ġalike":6723,"Ġscreamed":6724,"Ġambassad":6725,"Ġculture":6726,"Ġmachine":6727,"Ġmasters":6728,"Ġmccarthy":6729,"Ġphenomena":6730,"Ġmysterious":6731,"Ġsafety":6732,"Ġdessalles":6733,"tubercul":6734,"Ġdarling":6735,"Ġfocus":6736,"Ġdirty":6737,"59":6738,"aus":6739,"aired":6740,"dered":6741,"hl":6742,"iro":6743,"know":6744,"nest":6745,"oked":6746,"pit":6747,"range":6748,"ww":6749,"zed":6750,"Ġaven":6751,"inking":6752,"Ġbund":6753,"isement":6754,"Ġhounds":6755,"enger":6756,"Ġfired":6757,"Ġpaced":6758,"Ġmart":6759,"Ġmckinley":6760,"Ġdou":6761,"Ġtoe":6762,"icate":6763,"ads":6764,"Ġwhigs":6765,"ota":6766,"Ġassured":6767,"Ġstoop":6768,"Ġrick":6769,"Ġhare":6770,"olov":6771,"aping":6772,"istocr":6773,"Ġjoke":6774,"Ġweap":6775,"Ġintense":6776,"Ġleather":6777,"Ġunite":6778,"ieved":6779,"Ġmankind":6780,"Ġwhenever":6781,"ĠĠĠĠĠĠĠĠĠĠ":6782,"Ġcoin":6783,"Ġnovel":6784,"key":6785,"cession":6786,"Ġapplying":6787,"Ġcontains":6788,"Ġoffended":6789,"aven":6790,"clot":6791,"angers":6792,"Ġimposed":6793,"Ġattracted":6794,"Ġflor":6795,"Ġregiments":6796,"text":6797,"Ġdesign":6798,"Ġacted":6799,"neum":6800,"Ġacres":6801,"issue":6802,"Ġincon":6803,"Ġsupple":6804,"Ġcorrid":6805,"Ġreconst":6806,"Ġrestoration":6807,"Ġconsideration":6808,"Ġcale":6809,"Ġvaricose":6810,"Ġcircles":6811,"Ġproducing":6812,"Ġbony":6813,"Ġburden":6814,"burgh":6815,"Ġprotests":6816,"Ġportra":6817,"retched":6818,"Ġdevised":6819,"Ġarterial":6820,"Ġobserve":6821,"Ġinvolve":6822,"Ġballroom":6823,"Ġgrav":6824,"grat":6825,"Ġpaying":6826,"Ġdisappoint":6827,"Ġassumes":6828,"Ġmedic":6829,"Ġgalloping":6830,"Ġwooden":6831,"Ġcounter":6832,"Ġbreakfast":6833,"after":6834,"Ġdisturbed":6835,"Ġhunting":6836,"Ġmexican":6837,"Ġankle":6838,"Ġdismount":6839,"Ġboldly":6840,"Ġpreferred":6841,"Ġsteady":6842,"Ġuniversal":6843,"Ġexchange":6844,"Ġexceptional":6845,"Ġconfirmed":6846,"Ġtimidly":6847,"Ġcollege":6848,"Ġanteroom":6849,"Ġindifferent":6850,"lymph":6851,"Ġunfortunate":6852,"Ġfrancis":6853,"Ġeyebrows":6854,"Ġgloomy":6855,"aid":6856,"bon":6857,"more":6858,"sl":6859,"ued":6860,"uation":6861,"var":6862,"Ġtaft":6863,"Ġase":6864,"Ġsank":6865,"Ġwing":6866,"iture":6867,"enka":6868,"Ġfier":6869,"Ġflying":6870,"Ġpuff":6871,"Ġdared":6872,"orious":6873,"Ġlock":6874,"Ġnut":6875,"Ġhem":6876,"leton":6877,"Ġgay":6878,"Ġgently":6879,"Ġbearing":6880,"Ġrent":6881,"Ġreaches":6882,"otid":6883,"sec":6884,"urd":6885,"Ġrom":6886,"Ġrust":6887,"Ġrush":6888,"Ġcongrat":6889,"Ġhaven":6890,"Ġshade":6891,"Ġintest":6892,"ffic":6893,"ĠĠĠĠĠĠĠĠĠĠĠĠ":6894,"Ġnois":6895,"Ġnobody":6896,"ocks":6897,"Ġoutcome":6898,"Ġplump":6899,"ostosis":6900,"Ġclosing":6901,"Ġformal":6902,"irect":6903,"Ġconsci":6904,"Ġpreserve":6905,"Ġseeking":6906,"Ġscand":6907,"Ġstrateg":6908,"ipel":6909,"Ġoccl":6910,"necess":6911,"Ġsupplied":6912,"Ġextending":6913,"Ġrefr":6914,"Ġdefend":6915,"Ġemperors":6916,"uzz":6917,"Ġcommands":6918,"Ġrounded":6919,"Ġinsult":6920,"Ġveh":6921,"noon":6922,"Ġrecoll":6923,"Ġtransm":6924,"Ġcalhoun":6925,"Ġslept":6926,"Ġawaited":6927,"Ġdivine":6928,"Ġrecognizing":6929,"Ġprocesses":6930,"Ġperiods":6931,"fortune":6932,"Ġfarms":6933,"Ġsuperv":6934,"orrhoe":6935,"Ġexamining":6936,"Ġtormented":6937,"Ġmurder":6938,"regon":6939,"Ġlifting":6940,"Ġfemoral":6941,"Ġstaying":6942,"trad":6943,"Ġmarshall":6944,"Ġbird":6945,"Ġaxilla":6946,"Ġdepartment":6947,"Ġgroin":6948,"Ġvanished":6949,"Ġthreatening":6950,"Ġenjoyed":6951,"Ġmotionless":6952,"Ġhomes":6953,"Ġleucocytosis":6954,"cript":6955,"Ġalien":6956,"Ġmechanical":6957,"Ġmelanch":6958,"Ġdeprived":6959,"ructive":6960,"Ġepiphys":6961,"Ġinstrument":6962,"growth":6963,"Ġrejected":6964,"Ġregeneration":6965,"Ġsummoned":6966,"Ġcelebr":6967,"Ġshrugged":6968,"Ġindefinite":6969,"tuberculous":6970,"Ġcorridor":6971,"21":6972,"bro":6973,"back":6974,"dr":6975,"equ":6976,"gent":6977,"pus":6978,"sen":6979,"tle":6980,"wy":6981,"yasha":6982,"Ġerm":6983,"Ġoregon":6984,"Ġsang":6985,"Ġwise":6986,"erget":6987,"erring":6988,"atus":6989,"atosis":6990,"itary":6991,"Ġpie":6992,"Ġduel":6993,"icable":6994,"icking":6995,"ications":6996,"lets":6997,"Ġgates":6998,"Ġrendered":6999,"stream":7000,"othe":7001,"olved":7002,"Ġsuit":7003,"rified":7004,"Ġchose":7005,"abs":7006,"Ġspend":7007,"Ġspine":7008,"Ġspinal":7009,"oundrel":7010,"open":7011,"Ġdozen":7012,"Ġdisci":7013,"Ġcoinc":7014,"Ġenerget":7015,"Ġclut":7016,"Ġpartner":7017,"Ġcanals":7018,"Ġemanci":7019,"fts":7020,"Ġinflic":7021,"Ġcompressed":7022,"Ġexpedition":7023,"Ġbegged":7024,"Ġscars":7025,"Ġstrain":7026,"orders":7027,"Ġdesigned":7028,"Ġmetal":7029,"Ġconfident":7030,"ogether":7031,"ysipel":7032,"Ġpossessed":7033,"shaped":7034,"Ġboot":7035,"Ġtrot":7036,"Ġdetached":7037,"gnosis":7038,"Ġdressings":7039,"Ġlads":7040,"Ġcrowds":7041,"apping":7042,"Ġlymphang":7043,"Ġfibros":7044,"Ġdeclaring":7045,"Ġfrequency":7046,"Ġdrift":7047,"Ġhurt":7048,"conf":7049,"Ġdestroying":7050,"Ġindication":7051,"Ġsensitive":7052,"Ġtaxation":7053,"Ġjudges":7054,"Ġrespond":7055,"Ġinclude":7056,"Ġthickened":7057,"headed":7058,"Ġuniforms":7059,"ogram":7060,"Ġchurches":7061,"Ġtrades":7062,"Ġinjected":7063,"guard":7064,"Ġdistinguish":7065,"Ġdefinitely":7066,"Ġmaterials":7067,"Ġfractures":7068,"Ġtopics":7069,"Ġxvi":7070,"Ġcorporation":7071,"Ġossification":7072,"Ġpacking":7073,"Ġivanovich":7074,"Ġdisappearance":7075,"Ġresolved":7076,"Ġgumma":7077,"Ġinstitutions":7078,"Ġargument":7079,"Ġstiffness":7080,"Ġavailable":7081,"Ġfulfill":7082,"Ġbending":7083,"Ġenacted":7084,"Ġmercury":7085,"Ġsucceeded":7086,"Ġscotch":7087,"Ġborzois":7088,"Ġdissatisfied":7089,"Ġphrase":7090,"Ġsearching":7091,"Ġchemical":7092,"Ġglittering":7093,"two":7094,"Ġskeleton":7095,"Ġunhappy":7096,"Ġcloser":7097,"Ġmargins":7098,"Ġreconstruction":7099,"boy":7100,"eav":7101,"iate":7102,"kes":7103,"mas":7104,"may":7105,"oons":7106,"post":7107,"ties":7108,"tissue":7109,"whe":7110,"were":7111,"Ġton":7112,"Ġtide":7113,"Ġau":7114,"Ġotrad":7115,"Ġwand":7116,"ato":7117,"Ġbure":7118,"Ġpup":7119,"Ġmont":7120,"Ġincess":7121,"Ġeve":7122,"Ġbeast":7123,"str":7124,"state":7125,"lyanin":7126,"Ġstit":7127,"Ġyards":7128,"Ġsell":7129,"usal":7130,"Ġsund":7131,"Ġvii":7132,"rier":7133,"Ġkal":7134,"Ġexhib":7135,"ersed":7136,"Ġneuro":7137,"Ġchin":7138,"abama":7139,"Ġsheep":7140,"Ġadherent":7141,"unning":7142,"sule":7143,"Ġclient":7144,"Ġtrack":7145,"Ġtrunks":7146,"Ġsmart":7147,"Ġafric":7148,"clav":7149,"Ġbrid":7150,"anging":7151,"phant":7152,"Ġexpense":7153,"uces":7154,"Ġgeneration":7155,"Ġstatesmen":7156,"ructed":7157,"Ġendeav":7158,"Ġdiseased":7159,"Ġcaps":7160,"Ġcapsule":7161,"Ġgovernments":7162,"Ġabsurd":7163,"Ġeffusion":7164,"Ġearlier":7165,"Ġbelief":7166,"Ġelson":7167,"Ġfatherland":7168,"Ġsimult":7169,"Ġministers":7170,"iliation":7171,"Ġreturns":7172,"Ġcris":7173,"Ġdivers":7174,"Ġsooner":7175,"Ġproviding":7176,"Ġoperating":7177,"Ġpresidential":7178,"Ġrecognition":7179,"Ġcutting":7180,"Ġridden":7181,"Ġaffects":7182,"Ġlowered":7183,"Ġjudgment":7184,"Ġpavl":7185,"Ġlearning":7186,"Ġpalace":7187,"Ġbills":7188,"Ġarrangement":7189,"Ġeventually":7190,"Ġbleed":7191,"natasha":7192,"Ġmisfortune":7193,"Ġconfederate":7194,"box":7195,"Ġinquiringly":7196,"Ġdiplomacy":7197,"Ġtroubles":7198,"Ġislands":7199,"Ġconceal":7200,"ococci":7201,"Ġdragged":7202,"Ġsubstit":7203,"Ġpursued":7204,"Ġvarying":7205,"Ġreligion":7206,"Ġelderly":7207,"Ġitalian":7208,"Ġthrombosis":7209,"Ġnegotiations":7210,"Ġnullification":7211,"Ġdislocation":7212,"Ġvaluable":7213,"Ġaltogether":7214,"Ġtotal":7215,"Ġpioneers":7216,"Ġcontroversy":7217,"Ġpilgr":7218,"Ġirresist":7219,"clerosis":7220,"president":7221,"Ġredoubt":7222,"Ġwrapped":7223,"Ġportrait":7224,"necessary":7225,"ysipelas":7226,"Ġotradnoe":7227,"29":7228,"cop":7229,"count":7230,"dent":7231,"did":7232,"dear":7233,"fo":7234,"low":7235,"liness":7236,"mus":7237,"pse":7238,"ras":7239,"rary":7240,"wel":7241,"za":7242,"Ġvel":7243,"Ġtones":7244,"Ġaort":7245,"Ġsite":7246,"ref":7247,"reated":7248,"Ġbrows":7249,"isans":7250,"Ġpoured":7251,"Ġmigration":7252,"Ġluck":7253,"Ġgross":7254,"Ġgoose":7255,"Ġresemble":7256,"utino":7257,"Ġrays":7258,"cha":7259,"chn":7260,"ova":7261,"Ġalle":7262,"umat":7263,"atell":7264,"Ġarrange":7265,"Ġaristocr":7266,"Ġspong":7267,"Ġspark":7268,"Ġ100":7269,"Ġdocum":7270,"Ġcoag":7271,"Ġreserve":7272,"Ġbrand":7273,"Ġbrisk":7274,"Ġovercome":7275,"Ġwilling":7276,"Ġafternoon":7277,"Ġgrat":7278,"Ġfluct":7279,"Ġscoundrel":7280,"Ġmarrying":7281,"atted":7282,"Ġowner":7283,"Ġincom":7284,"Ġcharter":7285,"Ġrecovered":7286,"Ġeffective":7287,"Ġesaul":7288,"Ġdepressed":7289,"Ġdenounced":7290,"Ġpurit":7291,"Ġpainted":7292,"Ġphal":7293,"Ġconvoy":7294,"Ġdecide":7295,"Ġsecuring":7296,"Ġpool":7297,"Ġexcision":7298,"Ġsounded":7299,"Ġdelaware":7300,"Ġstopping":7301,"Ġhyp":7302,"Ġannoy":7303,"ricted":7304,"Ġpractically":7305,"Ġcontrolled":7306,"Ġ***":7307,"Ġrubbed":7308,"Ġsituations":7309,"Ġconcern":7310,"Ġcombinations":7311,"Ġindividuals":7312,"Ġinterval":7313,"Ġlouder":7314,"Ġinevitably":7315,"Ġofficials":7316,"Ġfeverish":7317,"Ġsufficiently":7318,"Ġflexed":7319,"Ġobliged":7320,"Ġstationed":7321,"Ġdominion":7322,"Ġpassionate":7323,"Ġresponsible":7324,"Ġimprovement":7325,"Ġilya":7326,"Ġpriest":7327,"Ġtypes":7328,"Ġexceedingly":7329,"Ġrenewed":7330,"Ġapril":7331,"Ġdesperate":7332,"Ġappropriate":7333,"Ġattentively":7334,"Ġmingled":7335,"Ġprincipal":7336,"Ġrhode":7337,"Ġunusual":7338,"Ġdispositions":7339,"Ġvilna":7340,"Ġganglion":7341,"Ġconvenient":7342,"Ġmelancholy":7343,"Ġermolov":7344,"Ġcrisis":7345,"//":7346,"35":7347,"eight":7348,"mr":7349,"nal":7350,"oard":7351,"Ġtact":7352,"Ġther":7353,"Ġoath":7354,"Ġwax":7355,"Ġbry":7356,"isive":7357,"Ġcas":7358,"Ġped":7359,"Ġpall":7360,"Ġpuck":7361,"Ġmit":7362,"Ġdor":7363,"Ġduct":7364,"Ġthomas":7365,"Ġlung":7366,"Ġnames":7367,"ica":7368,"leans":7369,"Ġgroom":7370,"imm":7371,"ida":7372,"otic":7373,"second":7374,"Ġuhl":7375,"Ġstars":7376,"Ġstairs":7377,"Ġisol":7378,"Ġanth":7379,"Ġhaw":7380,"Ġorleans":7381,"Ġsemen":7382,"Ġseizing":7383,"ainted":7384,"Ġsuitable":7385,"rix":7386,"Ġsores":7387,"Ġbutton":7388,"emark":7389,"apt":7390,"Ġchamp":7391,"anted":7392,"Ġwheel":7393,"Ġproced":7394,"Ġproxim":7395,"nty":7396,"Ġsphere":7397,"Ġabst":7398,"Ġuncon":7399,"Ġdisag":7400,"Ġthereby":7401,"unction":7402,"aceous":7403,"Ġmyel":7404,"Ġench":7405,"Ġclin":7406,"Ġclim":7407,"Ġclergy":7408,"Ġcontent":7409,"Ġbless":7410,"Ġblushing":7411,"Ġattained":7412,"ucle":7413,"ancies":7414,"Ġaccused":7415,"Ġdeserted":7416,"Ġsubmit":7417,"Ġgovernors":7418,"Ġpolite":7419,"Ġconference":7420,"Ġengine":7421,"Ġadvis":7422,"eves":7423,"Ġlasted":7424,"Ġfeels":7425,"Ġexpressing":7426,"Ġcommanding":7427,"Ġpossibly":7428,"Ġdemands":7429,"Ġleads":7430,"Ġvarix":7431,"Ġhelpless":7432,"Ġmemories":7433,"Ġnecessarily":7434,"Ġthirteen":7435,"Ġraptur":7436,"Ġcollective":7437,"Ġfootmen":7438,"Ġvirus":7439,"Ġdevotion":7440,"Ġholder":7441,"Ġmilitiam":7442,"Ġhopeless":7443,"Ġsixth":7444,"Ġsixteen":7445,"Ġdining":7446,"genital":7447,"Ġerysipelas":7448,"Ġpreventing":7449,"Ġanimation":7450,"Ġmoderate":7451,"Ġbenefactor":7452,"Ġradi":7453,"Ġtarutino":7454,"Ġexclus":7455,"Ġsleeping":7456,"Ġpathological":7457,"Ġessence":7458,"Ġglasses":7459,"Ġauthorized":7460,"Ġforgetting":7461,"Ġdiscussion":7462,"Ġimperfect":7463,"Ġgroan":7464,"Ġbrave":7465,"Ġwealthy":7466,"Ġbacilli":7467,"Ġringing":7468,"Ġpictures":7469,"Ġuniversity":7470,"Ġpreparation":7471,"Ġprospect":7472,"Ġuncommon":7473,"Ġswaying":7474,"Ġdescended":7475,"Ġrecommended":7476,"Ġconcentrated":7477,"Ġzeal":7478,"Ġnewspapers":7479,"Ġchallenge":7480,"Ġcampfires":7481,"because":7482,"Ġceremon":7483,"Ġnobility":7484,"Ġfootsteps":7485,"Ġdiscipl":7486,"://":7487,"ae":7488,"ares":7489,"covered":7490,"dan":7491,"eem":7492,"koy":7493,"lest":7494,"lite":7495,"lial":7496,"rud":7497,"Ġol":7498,"Ġsill":7499,"onaparte":7500,"Ġbree":7501,"Ġcries":7502,"Ġhoo":7503,"Ġfacing":7504,"Ġpya":7505,"Ġdamp":7506,"Ġgout":7507,"Ġgoss":7508,"imately":7509,"iration":7510,"aminated":7511,"Ġseab":7512,"Ġseize":7513,"Ġselect":7514,"Ġshins":7515,"acute":7516,"Ġhers":7517,"Ġexcluded":7518,"Ġsaving":7519,"Ġchann":7520,"ante":7521,"Ġrosy":7522,"Ġintently":7523,"Ġunnecessary":7524,"iveness":7525,"Ġamuse":7526,"perhaps":7527,"sub":7528,"Ġtimok":7529,"ubets":7530,"Ġcommence":7531,"Ġoverth":7532,"haired":7533,"Ġcomplex":7534,"Ġexpans":7535,"Ġflung":7536,"Ġslipped":7537,"Ġlikewise":7538,"Ġregulation":7539,"Ġacknow":7540,"Ġstrept":7541,"Ġrefund":7542,"Ġrefusal":7543,"Ġrecently":7544,"Ġtelyanin":7545,"Ġgrows":7546,"Ġmaxim":7547,"Ġdepth":7548,"Ġkey":7549,"Ġmighty":7550,"Ġminor":7551,"aughters":7552,"Ġpaul":7553,"bral":7554,"------":7555,"Ġsleeves":7556,"Ġsteel":7557,"Ġappearances":7558,"Ġhearts":7559,"oids":7560,"Ġconsiderations":7561,"Ġsubjected":7562,"Ġdrops":7563,"Ġwaters":7564,"Ġstores":7565,"Ġreality":7566,"Ġsixty":7567,"bedded":7568,"Ġposterior":7569,"Ġlegislative":7570,"Ġassumption":7571,"Ġfortnight":7572,"Ġmedial":7573,"Ġhoarse":7574,"Ġtort":7575,"umbling":7576,"Ġescaped":7577,"Ġescapes":7578,"ivering":7579,"Ġlift":7580,"Ġhaste":7581,"Ġrisen":7582,"Ġjacket":7583,"Ġdependent":7584,"Ġintroduction":7585,"Ġviolent":7586,"Ġclasses":7587,"Ġsovereig":7588,"Ġdiscussed":7589,"Ġaxillary":7590,"Ġhostile":7591,"Ġarthur":7592,"Ġprolif":7593,"Ġconnections":7594,"Ġfilling":7595,"Ġlateral":7596,"Ġventured":7597,"Ġ1850":7598,"Ġcultiv":7599,"Ġrecommend":7600,"Ġtemporary":7601,"Ġtypical":7602,"Ġcondemned":7603,"Ġrebell":7604,"Ġcuba":7605,"Ġpelvis":7606,"Ġopponents":7607,"Ġdeliber":7608,"Ġprivileges":7609,"Ġimpatient":7610,"Ġinspector":7611,"Ġconfederacy":7612,"Ġphilosop":7613,"Ġchancre":7614,"Ġdelirium":7615,"Ġinsignificant":7616,"Ġannex":7617,"Ġmaneu":7618,"Ġambassador":7619,"phantiasis":7620,"liteal":7621,"Ġseaboard":7622,"Ġtimokhin":7623,"27":7624,"43":7625,"65":7626,"born":7627,"cast":7628,"ek":7629,"fed":7630,"give":7631,"had":7632,"pass":7633,"tell":7634,"turo":7635,"uated":7636,"ucted":7637,"Ġice":7638,"Ġwart":7639,"Ġwave":7640,"Ġwaved":7641,"onov":7642,"Ġcad":7643,"Ġcig":7644,"Ġcunning":7645,"itect":7646,"Ġpour":7647,"Ġpneum":7648,"Ġdaughters":7649,"Ġtooth":7650,"orov":7651,"Ġlan":7652,"Ġnik":7653,"Ġheels":7654,"Ġey":7655,"otted":7656,"Ġascend":7657,"Ġstated":7658,"Ġatl":7659,"Ġfruit":7660,"Ġdeaf":7661,"Ġkl":7662,"Ġkit":7663,"Ġexists":7664,"emp":7665,"Ġchain":7666,"Ġchairs":7667,"Ġsheet":7668,"Ġshevard":7669,"Ġjur":7670,"Ġjap":7671,"Ġjest":7672,"Ġrot":7673,"articular":7674,"Ġmelt":7675,"unct":7676,"Ġgoal":7677,"Ġknight":7678,"Ġcoarse":7679,"Ġouter":7680,"Ġaggra":7681,"Ġoffensive":7682,"Ġtrous":7683,"iceps":7684,"Ġblocked":7685,"Ġinduration":7686,"Ġindurated":7687,"Ġwillars":7688,"Ġpermit":7689,"Ġgloves":7690,"Ġpreoccup":7691,"Ġmarching":7692,"Ġours":7693,"Ġobey":7694,"Ġpassions":7695,"Ġrostova":7696,"Ġmakar":7697,"Ġcalls":7698,"Ġclearing":7699,"Ġlawy":7700,"Ġhoriz":7701,"Ġdenied":7702,"Ġborrow":7703,"Ġpurulent":7704,"liver":7705,"Ġfinancial":7706,"Ġlargely":7707,"Ġlovely":7708,"Ġconventions":7709,"Ġchildish":7710,"Ġdestined":7711,"Ġcurious":7712,"Ġdiscont":7713,"Ġkinds":7714,"eches":7715,"Ġawful":7716,"Ġpopul":7717,"Ġfibro":7718,"Ġtempt":7719,"Ġdriver":7720,"Ġhonest":7721,"Ġemployers":7722,"Ġanatomy":7723,"Ġprofits":7724,"Ġdutch":7725,"Ġelectors":7726,"Ġ168":7727,"Ġcavities":7728,"Ġvolume":7729,"Ġindicate":7730,"Ġseverely":7731,"Ġcomplicated":7732,"Ġcomplications":7733,"Ġfailing":7734,"Ġlofty":7735,"Ġmoan":7736,"Ġmilk":7737,"Ġ1865":7738,"ulsion":7739,"Ġbrightly":7740,"Ġattempted":7741,"Ġurine":7742,"Ġarrangements":7743,"Ġhastened":7744,"Ġpunish":7745,"Ġtrademark":7746,"Ġbanking":7747,"Ġdegrees":7748,"Ġpulling":7749,"Ġeldest":7750,"Ġstatus":7751,"Ġarchitect":7752,"Ġhungry":7753,"Ġadditional":7754,"Ġfurnish":7755,"Ġentrusted":7756,"Ġconsequently":7757,"glas":7758,"Ġhence":7759,"Ġprefer":7760,"Ġalarmed":7761,"Ġnaive":7762,"Ġnails":7763,"Ġicons":7764,"Ġvacc":7765,"Ġownership":7766,"Ġcarbolic":7767,"Ġpigment":7768,"Ġhidden":7769,"Ġcriminal":7770,"Ġunconsciously":7771,"Ġsimplicity":7772,"Ġcoronet":7773,"Ġignor":7774,"Ġperplexity":7775,"Ġachieve":7776,"Ġcontempor":7777,"ttp":7778,"Ġultimately":7779,"Ġphilippines":7780,"Ġdunyasha":7781,"Ġkremlin":7782,"Ġabnormal":7783,"Ġcaleche":7784,"Ġsimultaneously":7785,"Ġpavlogr":7786,"umatism":7787,"Ġmilitiamen":7788,"Ġshinshin":7789,"Ġrebellion":7790,"turov":7791,"Ġshevardino":7792,"Ġaggrav":7793,"Ġwillarski":7794,",--":7795,"40":7796,"burn":7797,"baceous":7798,"mamma":7799,"rich":7800,"uously":7801,"rected":7802,"erative":7803,"Ġbands":7804,"Ġbowing":7805,"Ġcook":7806,"Ġhither":7807,"Ġhttp":7808,"itone":7809,"ena":7810,"Ġfatt":7811,"Ġfaint":7812,"Ġpink":7813,"Ġmile":7814,"esc":7815,"Ġthread":7816,"icago":7817,"Ġrein":7818,"still":7819,"Ġrag":7820,"chronic":7821,"Ġsequ":7822,"rific":7823,"Ġexagger":7824,"quite":7825,"Ġchill":7826,"Ġchicago":7827,"Ġaloud":7828,"Ġarise":7829,"Ġarsen":7830,"Ġspont":7831,"Ġmead":7832,"Ġupset":7833,"iev":7834,"Ġdisint":7835,"unn":7836,"unken":7837,"ode":7838,"Ġparticip":7839,"Ġresc":7840,"Ġcanada":7841,"Ġemer":7842,"Ġreplying":7843,"Ġreputation":7844,"Ġindul":7845,"Ġgracious":7846,"Ġglim":7847,"Ġflood":7848,"enses":7849,"Ġmargin":7850,"Ġmetast":7851,"Ġincap":7852,"Ġcharged":7853,"encing":7854,"Ġrecon":7855,"Ġadvised":7856,"Ġperspir":7857,"Ġteach":7858,"Ġefficient":7859,"Ġrested":7860,"Ġrestore":7861,"Ġrestricted":7862,"Ġdrubets":7863,"Ġdrunken":7864,"Ġpurse":7865,"Ġpurple":7866,"Ġservitude":7867,"please":7868,"Ġguar":7869,"Ġirrig":7870,"Ġconstitutes":7871,"Ġfactories":7872,"Ġdecor":7873,"Ġseconds":7874,"Ġxi":7875,"Ġxiv":7876,"Ġxii":7877,"Ġhighroad":7878,"Ġdestructive":7879,"Ġpolitic":7880,"Ġhalted":7881,"Ġvisited":7882,"Ġfourteen":7883,"Ġstepping":7884,"Ġsymmet":7885,"Ġmassage":7886,"Ġpopliteal":7887,"Ġwestward":7888,"Ġbuff":7889,"Ġobsc":7890,"Ġsoftened":7891,"Ġreasonable":7892,"Ġpeaceful":7893,"comm":7894,"Ġfederalist":7895,"Ġ169":7896,"Ġindicating":7897,"Ġstrip":7898,"Ġgaze":7899,"Ġloaded":7900,"Ġarrive":7901,"Ġcandles":7902,"Ġcystic":7903,"Ġcircums":7904,"Ġdamages":7905,"Ġempress":7906,"Ġcalmly":7907,"Ġneighbors":7908,"Ġsources":7909,"_--_":7910,"Ġagreeable":7911,"Ġsupremacy":7912,"Ġfurnished":7913,"Ġstirred":7914,"Ġcorporal":7915,"Ġcandidates":7916,"Ġconsequence":7917,"Ġiodine":7918,"Ġkilling":7919,"Ġwonderful":7920,"Ġgrafts":7921,"Ġdefeated":7922,"Ġpicture":7923,"Ġexchanged":7924,"Ġgummatous":7925,"Ġfavourable":7926,"Ġpillow":7927,"Ġextends":7928,"Ġwhistle":7929,"Ġswayed":7930,"Ġcreature":7931,"Ġadvocates":7932,"Ġsutures":7933,"Ġrows":7934,"Ġsubsequent":7935,"Ġastonishment":7936,"Ġwebster":7937,"Ġrelease":7938,"Ġprofessional":7939,"Ġabundant":7940,"Ġsnuffbox":7941,"Ġjudicial":7942,"Ġundoubtedly":7943,"Ġgonorrhoe":7944,"Ġpieces":7945,"Ġuhlans":7946,"Ġsovereignty":7947,"23":7948,"bor":7949,"fif":7950,"has":7951,"iograph":7952,"lig":7953,"nut":7954,"sac":7955,"some":7956,"Ġtense":7957,"Ġaver":7958,"inter":7959,"inery":7960,"Ġos":7961,"Ġsar":7962,"rection":7963,"Ġwake":7964,"isation":7965,"Ġcrying":7966,"itors":7967,"Ġpust":7968,"Ġmav":7969,"oul":7970,"Ġdoses":7971,"Ġdawn":7972,"orial":7973,"Ġlise":7974,"Ġlane":7975,"Ġlake":7976,"Ġlupus":7977,"Ġnas":7978,"Ġnom":7979,"leb":7980,"Ġgig":7981,"Ġgiant":7982,"Ġgriev":7983,"stre":7984,"Ġstable":7985,"Ġix":7986,"Ġrhet":7987,"Ġconquest":7988,"Ġsustained":7989,"Ġvous":7990,"Ġvest":7991,"rigu":7992,"Ġkir":7993,"acc":7994,"osion":7995,"Ġnephe":7996,"umber":7997,"isting":7998,"Ġspare":7999,"Ġroll":8000,"Ġwept":8001,"Ġupstairs":8002,"Ġintrigu":8003,"Ġlee":8004,"Ġunre":8005,"Ġdokh":8006,"Ġprinted":8007,"Ġdisse":8008,"Ġmanage":8009,"Ġamused":8010,"Ġplacing":8011,"pled":8012,"inder":8013,"Ġclair":8014,"Ġcontain":8015,"Ġwouldn":8016,"Ġsmith":8017,"Ġliqu":8018,"Ġliability":8019,"Ġperpet":8020,"Ġgrim":8021,"Ġcompens":8022,"Ġpretext":8023,"Ġflap":8024,"Ġflowed":8025,"Ġflesh":8026,"Ġscott":8027,"atherine":8028,"Ġdescription":8029,"Ġpassive":8030,"Ġski":8031,"Ġinterp":8032,"Ġendure":8033,"Ġbackward":8034,"Ġresulted":8035,"ceptible":8036,"Ġhorrible":8037,"Ġborn":8038,"Ġguess":8039,"Ġcrushed":8040,"Ġsignal":8041,"Ġlabore":8042,"Ġbushes":8043,"Ġdresses":8044,"uga":8045,"Ġ1900":8046,"Ġapproxim":8047,"Ġcurtain":8048,"Ġcommonest":8049,"Ġfourteenth":8050,"Ġminds":8051,"Ġmissed":8052,"Ġmissing":8053,"Ġcollection":8054,"Ġlocked":8055,"Ġawak":8056,"Ġruns":8057,"Ġdisputes":8058,"Ġmeetings":8059,"Ġequip":8060,"utenant":8061,"Ġshortly":8062,"Ġfarmer":8063,"Ġideal":8064,"Ġdisappro":8065,"Ġvols":8066,"Ġextremities":8067,"Ġ102":8068,"Ġnegative":8069,"Ġmistress":8070,"Ġprobable":8071,"Ġthickening":8072,"Ġsunk":8073,"Ġwriters":8074,"Ġboundary":8075,"Ġactivities":8076,"----------------":8077,"Ġabandoning":8078,"Ġplantations":8079,"Ġfleet":8080,"Ġepithelial":8081,"Ġmountains":8082,"Ġ1805":8083,"Ġdragoons":8084,"Ġsubmitted":8085,"Ġperiosteal":8086,"Ġcabin":8087,"Ġwagon":8088,"Ġimprovements":8089,"Ġtrembled":8090,"Ġfunds":8091,"Ġgreeted":8092,"Ġwhistling":8093,"Ġmachinery":8094,"Ġlumen":8095,"Ġarbitration":8096,"worthy":8097,"Ġecst":8098,"Ġproducts":8099,"Ġnegroes":8100,"Ġmacdonald":8101,"Ġfetch":8102,"Ġdrainage":8103,"Ġfreemason":8104,"diagn":8105,"Ġninete":8106,"Ġantiseptic":8107,"Ġencounter":8108,"Ġinconven":8109,"Ġgravity":8110,"slavery":8111,"Ġaseptic":8112,"Ġkaluga":8113,"Ġaorta":8114,"Ġrhetor":8115,"Ġnephew":8116,"Ġdokhturov":8117,"diff":8118,"eh":8119,"eyed":8120,"fold":8121,"gut":8122,"har":8123,"hum":8124,"ique":8125,"lishing":8126,"net":8127,"troph":8128,"wait":8129,"Ġtipt":8130,"inomy":8131,"Ġthee":8132,"onomic":8133,"Ġbust":8134,"isure":8135,"Ġcri":8136,"Ġcyl":8137,"Ġcouri":8138,"Ġhos":8139,"Ġhint":8140,"Ġfist":8141,"Ġfaster":8142,"Ġpas":8143,"Ġpacing":8144,"Ġpounds":8145,"Ġduc":8146,"Ġdanced":8147,"asim":8148,"Ġnet":8149,"Ġeternal":8150,"import":8151,"othing":8152,"seous":8153,"Ġstall":8154,"Ġstair":8155,"Ġstocking":8156,"verty":8157,"Ġrab":8158,"ulence":8159,"Ġsees":8160,"aine":8161,"Ġvyaz":8162,"ichna":8163,"Ġshaw":8164,"Ġshots":8165,"Ġkings":8166,"Ġkansas":8167,"Ġsale":8168,"Ġchim":8169,"Ġallied":8170,"aks":8171,"ument":8172,"Ġjury":8173,"Ġrobert":8174,"Ġweep":8175,"ardon":8176,"Ġintr":8177,",\"*":8178,"Ġleisure":8179,"Ġabd":8180,"Ġabrupt":8181,"Ġthereof":8182,"cci":8183,"Ġcopper":8184,"supp":8185,"ittered":8186,"Ġembedded":8187,"Ġblisters":8188,"Ġindex":8189,"angled":8190,"Ġovercoat":8191,"haw":8192,"Ġglances":8193,"Ġcompare":8194,"Ġimpair":8195,"Ġimprison":8196,"Ġimpaired":8197,"Ġdownstairs":8198,"Ġthrone":8199,"Ġdesert":8200,"Ġsubstances":8201,"Ġturns":8202,"Ġdistress":8203,"Ġpoland":8204,"Ġconstruction":8205,"Ġinval":8206,"Ġresting":8207,"Ġpainfully":8208,"def":8209,"Ġsentence":8210,"Ġ1920":8211,"Ġquestioning":8212,"Ġlaying":8213,"Ġexplo":8214,"Ġslender":8215,"Ġpoverty":8216,"economic":8217,"Ġprojects":8218,"Ġbuonaparte":8219,"Ġeasier":8220,"Ġmidnight":8221,"Ġcoldly":8222,"Ġkingdom":8223,"Ġrepresentation":8224,"Ġoccupations":8225,"ippers":8226,"romatosis":8227,"Ġ163":8228,"Ġjoyous":8229,"Ġzone":8230,"Ġlover":8231,"Ġrubber":8232,"umbled":8233,"Ġsolitary":8234,"Ġcopies":8235,"Ġlosses":8236,"Ġdistribute":8237,"Ġclothing":8238,"Ġprayed":8239,"Ġbench":8240,"aginous":8241,"Ġirony":8242,"Ġhampsh":8243,"Ġmarshals":8244,"Ġexisting":8245,"Ġsuspected":8246,"Ġheroic":8247,"Ġdiplomat":8248,"Ġsciatic":8249,"Ġdealt":8250,"Ġconcealed":8251,"Ġcomparison":8252,"Ġinvoluntary":8253,"Ġratified":8254,"Ġfurniture":8255,"Ġresembles":8256,"cisely":8257,"Ġoedematous":8258,"Ġcorporations":8259,"Ġrecorded":8260,"Ġlipoma":8261,"Ġcorresponding":8262,"Ġschools":8263,"Ġresolutions":8264,"Ġstroke":8265,"Ġinherit":8266,"Ġbattalions":8267,"Ġsevent":8268,"Ġroute":8269,"Ġitaly":8270,"Ġreckoned":8271,"Ġanterior":8272,"Ġindifference":8273,"Ġconveyed":8274,"Ġoutline":8275,"Ġcontradict":8276,"Ġvexation":8277,"niquet":8278,"Ġsubsequently":8279,"Ġrevolt":8280,"Ġadults":8281,"franch":8282,"Ġscalp":8283,"Ġmedullary":8284,"prince":8285,"Ġgerasim":8286,"Ġiliac":8287,"Ġenvelope":8288,"Ġavenue":8289,"Ġmedicine":8290,"Ġdismounted":8291,"Ġenergetic":8292,"Ġgossip":8293,"Ġjuris":8294,"Ġexaggerated":8295,"Ġhampshire":8296,".).":8297,"50":8298,"58":8299,"dled":8300,"ez":8301,"ground":8302,"iative":8303,"line":8304,"leness":8305,"mosp":8306,"oqu":8307,"point":8308,"rous":8309,"rations":8310,"Ġ.":8311,"Ġtent":8312,"inburgh":8313,"Ġtheater":8314,"Ġtheodore":8315,"Ġsand":8316,"Ġsant":8317,"Ġsallow":8318,"rese":8319,"rench":8320,"Ġbos":8321,"Ġcens":8322,"Ġcatherine":8323,"Ġpitt":8324,"Ġpark":8325,"Ġmack":8326,"ese":8327,"inges":8328,"ingling":8329,"Ġdak":8330,"Ġdried":8331,"Ġduration":8332,"Ġlux":8333,"Ġni":8334,"Ġnaked":8335,"icit":8336,"Ġgren":8337,"Ġbeaus":8338,"Ġreact":8339,"idable":8340,"Ġwaste":8341,"Ġstagg":8342,"Ġstaphyl":8343,"ghter":8344,"irable":8345,"irish":8346,"Ġatmosp":8347,"Ġcongenital":8348,"Ġsecession":8349,"Ġshared":8350,"ems":8351,"estab":8352,"akers":8353,"umes":8354,"Ġalabama":8355,"Ġspin":8356,"Ġroar":8357,"opl":8358,"Ġfeather":8359,"Ġdose":8360,"ours":8361,"Ġagent":8362,"aunt":8363,"Ġpartial":8364,"Ġreserv":8365,"Ġreminded":8366,"Ġindia":8367,"Ġinduce":8368,"Ġindiana":8369,"Ġindirect":8370,"Ġovergrowth":8371,"arest":8372,"Ġformidable":8373,"Ġperf":8374,"Ġnewcom":8375,"Ġglob":8376,"Ġfox":8377,"Ġimpet":8378,"Ġexport":8379,"Ġflatter":8380,"Ġturner":8381,"ribly":8382,"Ġdistin":8383,"Ġdistal":8384,"Ġincor":8385,"Ġconferred":8386,"hesia":8387,"Ġrelax":8388,"Ġrelieved":8389,"Ġendless":8390,"Ġconducted":8391,"Ġreflect":8392,"Ġrecru":8393,"Ġdefin":8394,"Ġlargest":8395,"Ġcommanded":8396,"Ġplex":8397,"Ġdepended":8398,"Ġdepression":8399,"Ġdrank":8400,"Ġoccurring":8401,"Ġminim":8402,"plete":8403,"Ġinsens":8404,"Ġirish":8405,"Ġconstitute":8406,"Ġfinance":8407,"Ġmonop":8408,"itsyn":8409,"Ġanswers":8410,"shot":8411,"Ġspeaker":8412,"Ġpropose":8413,"Ġexplaining":8414,"Ġcalam":8415,"Ġdiscon":8416,"Ġpoll":8417,"Ġprotested":8418,"Ġdifferently":8419,"Ġcharacterised":8420,"Ġrepeat":8421,"Ġdecline":8422,"Ġdeclare":8423,"clude":8424,"Ġmeasured":8425,"Ġfalls":8426,"Ġcompleted":8427,"fortable":8428,"Ġattacking":8429,"Ġsuccessfully":8430,"Ġslightest":8431,"Ġsaline":8432,"Ġmodest":8433,"Ġmozh":8434,"aysk":8435,"Ġrubbing":8436,"Ġharsh":8437,"amental":8438,"Ġoriginate":8439,"Ġfunny":8440,"Ġligaments":8441,"Ġ116":8442,"Ġdamage":8443,"Ġnarrative":8444,"Ġdeformities":8445,"Ġinjections":8446,"Ġimplicated":8447,"Ġlieutenant":8448,"questions":8449,"Ġ1890":8450,"Ġwisdom":8451,"Ġdisplacement":8452,"Ġplaton":8453,"Ġhunger":8454,"ococcal":8455,"Ġabolished":8456,"Ġfairly":8457,"Ġsobbing":8458,"Ġconsisting":8459,"Ġ1776":8460,"Ġbezukhova":8461,"Ġrecords":8462,"Ġmessenger":8463,"Ġmagnanim":8464,"Ġcontracture":8465,"grace":8466,"Ġpositions":8467,"Ġbogdan":8468,"Ġsufferings":8469,"Ġpredomin":8470,"icipal":8471,"fourth":8472,"Ġbelonging":8473,"Ġuncomfortable":8474,"Ġensues":8475,"Ġdiscovery":8476,"Ġsamuel":8477,"Ġsavage":8478,"Ġcruelty":8479,"Ġinitial":8480,"Ġinvestigation":8481,"Ġrobber":8482,"Ġaccumulation":8483,"Ġremedy":8484,"Ġsleeve":8485,"Ġdeposit":8486,"Ġconquer":8487,"Ġtourniquet":8488,"Ġilagin":8489,"Ġwelcom":8490,"Ġclerk":8491,"Ġscheme":8492,"stitution":8493,"Ġsuppurative":8494,"Ġnaevus":8495,"Ġgoverness":8496,"Ġadvertisement":8497,"irocha":8498,"Ġdouglas":8499,"Ġconscience":8500,"Ġinflicted":8501,"Ġprocedure":8502,"Ġdiscipline":8503,"leston":8504,"Ġcadet":8505,"Ġmavra":8506,"diagnosis":8507,"research":8508,"Ġbeausset":8509,"Ġmozhaysk":8510,"26":8511,"47":8512,"book":8513,"egr":8514,"lad":8515,"nicholas":8516,"put":8517,"pread":8518,"rors":8519,"ses":8520,"uish":8521,"uits":8522,"vation":8523,"wom":8524,"year":8525,"zy":8526,"Ġtap":8527,"Ġtons":8528,"hearted":8529,"inating":8530,"Ġwides":8531,"atoma":8532,"Ġcust":8533,"Ġcrops":8534,"itimate":8535,"Ġfence":8536,"Ġmour":8537,"Ġmoves":8538,"Ġdrow":8539,"orse":8540,"ana":8541,"Ġlined":8542,"Ġlaz":8543,"oming":8544,"icted":8545,"Ġegg":8546,"Ġgly":8547,"Ġbee":8548,"Ġbees":8549,"iday":8550,"Ġwhir":8551,"sev":8552,"ura":8553,"Ġstared":8554,"Ġstake":8555,"Ġrivers":8556,"Ġroused":8557,"Ġriot":8558,"chagin":8559,"ols":8560,"Ġorient":8561,"hers":8562,"Ġsuction":8563,"Ġkras":8564,"Ġneural":8565,"ema":8566,"Ġchines":8567,"abor":8568,"Ġargu":8569,"Ġroot":8570,"Ġunw":8571,"ivity":8572,"Ġamusing":8573,"theria":8574,"ĠĠĠĠĠĠĠĠĠĠĠ":8575,"Ġknocked":8576,"Ġcool":8577,"asts":8578,"asty":8579,"Ġenable":8580,"Ġaggress":8581,"suff":8582,"odka":8583,"Ġtrick":8584,"ubation":8585,"Ġblister":8586,"Ġinfants":8587,"Ġfog":8588,"Ġimpressed":8589,"Ġimpending":8590,"Ġprem":8591,"Ġexpand":8592,"Ġmarched":8593,"Ġslip":8594,"Ġsurve":8595,"Ġ21":8596,"Ġentreat":8597,"Ġthinks":8598,"Ġinterpre":8599,"Ġrelative":8600,"Ġassurance":8601,"Ġcharleston":8602,"Ġconstr":8603,"Ġpatience":8604,"Ġteacher":8605,"Ġinstances":8606,"Ġdrum":8607,"Ġelapsed":8608,"Ġinsur":8609,"Ġcontinues":8610,"Ġirre":8611,"Ġchildlike":8612,"Ġfactory":8613,"Ġfactors":8614,"Ġcheap":8615,"Ġboil":8616,"Ġdiph":8617,"ouncing":8618,"Ġbehalf":8619,"Ġdecisive":8620,"Ġtroph":8621,"Ġcountrymen":8622,"Ġdetected":8623,"Ġartisans":8624,"Ġestim":8625,"Ġcircular":8626,"Ġlesser":8627,"Ġcurly":8628,"Ġtransl":8629,"braska":8630,"Ġdiscrim":8631,"Ġsmilingly":8632,"Ġlocated":8633,"Ġsympat":8634,"Ġterminal":8635,"Ġporto":8636,"Ġopenly":8637,"Ġlining":8638,"Ġtreason":8639,"Ġemployment":8640,"Ġdroop":8641,"Ġhoping":8642,"Ġrealm":8643,"Ġhurrying":8644,"Ġhurrah":8645,"Ġprepuce":8646,"Ġbarrier":8647,"Ġprofit":8648,"Ġprofuse":8649,"reshchagin":8650,"Ġindependently":8651,"Ġstrangely":8652,"Ġoccupy":8653,"Ġregarding":8654,"Ġaccordingly":8655,"Ġrailroad":8656,"Ġenglishman":8657,"Ġstrengthe":8658,"Ġelsewhere":8659,"Ġmedian":8660,"Ġanticip":8661,"Ġradiant":8662,"Ġweaker":8663,"Ġapolog":8664,"Ġmembranes":8665,"Ġoccasional":8666,"Ġaims":8667,"Ġligament":8668,"Ġrises":8669,"Ġremarkably":8670,"Ġfibroma":8671,"Ġtrading":8672,"Ġcitizen":8673,"Ġimproved":8674,"Ġsettlements":8675,"Ġextravas":8676,"Ġstretcher":8677,"Ġflee":8678,"Ġmajestic":8679,"Ġhatred":8680,"Ġporter":8681,"Ġapplicable":8682,"Ġretreating":8683,"Ġelbows":8684,"consin":8685,"Ġchristmas":8686,"Ġcorrespondence":8687,"Ġqualities":8688,"Ġsuggestion":8689,"Ġdilated":8690,"Ġvigorously":8691,"minichna":8692,"Ġundertaking":8693,"Ġdelayed":8694,"Ġsurrendered":8695,"Ġgreeting":8696,"Ġcomrade":8697,"Ġcreating":8698,"Ġpanama":8699,"Ġhydrops":8700,"Ġfolded":8701,"Ġproprietary":8702,"Ġrico":8703,"Ġalbum":8704,"Ġmunicipal":8705,"Ġeighteen":8706,"Ġinfections":8707,"Ġprosperity":8708,"Ġdisclaim":8709,"Ġgrateful":8710,"Ġhuntsman":8711,"Ġrheumatism":8712,"Ġinfiltration":8713,"Ġattributed":8714,"Ġvividly":8715,"Ġdishon":8716,"Ġcoffee":8717,"Ġbewild":8718,"Ġkuzminichna":8719,"Ġweapon":8720,"Ġintestine":8721,"Ġepiphysial":8722,"Ġafrica":8723,"Ġvelve":8724,"Ġbryan":8725,"Ġsemenov":8726,"Ġmyeloma":8727,"Ġclinically":8728,"Ġhoofs":8729,"Ġpyaemia":8730,"Ġannexation":8731,"Ġkitc":8732,"Ġtiptoe":8733,"Ġcourier":8734,"Ġhosmer":8735,"Ġsevente":8736,"Ġwidespread":8737,"Ġchinese":8738,"bar":8739,"da":8740,"iest":8741,"iological":8742,"iology":8743,"khov":8744,"nar":8745,"vich":8746,"vorov":8747,"war":8748,"zogen":8749,"zuel":8750,"Ġtips":8751,"Ġwire":8752,"Ġwretched":8753,"Ġbier":8754,"eded":8755,"Ġhate":8756,"Ġhud":8757,"Ġhiding":8758,"Ġfile":8759,"Ġfug":8760,"Ġfitted":8761,"Ġfrown":8762,"Ġpole":8763,"especially":8764,"Ġinoc":8765,"Ġinex":8766,"Ġdashed":8767,"Ġtol":8768,"Ġtoss":8769,"orad":8770,"Ġlent":8771,"Ġlarynx":8772,"omed":8773,"Ġeating":8774,"Ġgas":8775,"rog":8776,"Ġwashed":8777,"Ġstain":8778,"Ġstub":8779,"irts":8780,"Ġante":8781,"Ġrice":8782,"Ġrye":8783,"Ġryaz":8784,"Ġatroph":8785,"Ġcong":8786,"oli":8787,"olen":8788,"Ġorange":8789,"Ġsex":8790,"Ġsebaceous":8791,"usse":8792,"Ġvene":8793,"Ġvodka":8794,"those":8795,"Ġalleg":8796,"igan":8797,"Ġsport":8798,"Ġroyl":8799,"Ġunch":8800,"ressible":8801,"Ġwhence":8802,"Ġenum":8803,"Ġplate":8804,"place":8805,"Ġintoxic":8806,"Ġoffering":8807,"Ġtraces":8808,"Ġrepar":8809,"Ġblunt":8810,"Ġnowhere":8811,"Ġcompact":8812,"Ġimpuls":8813,"izes":8814,"Ġflames":8815,"Ġprescribed":8816,"Ġlonged":8817,"Ġscap":8818,"Ġ210":8819,"Ġaccent":8820,"Ġcarotid":8821,"Ġopens":8822,"Ġopium":8823,"Ġactinomy":8824,"Ġsubtle":8825,"neys":8826,"Ġwherever":8827,"Ġassure":8828,"Ġfollowers":8829,"Ġcorrupt":8830,"Ġcorpus":8831,"Ġreflection":8832,"Ġrecourse":8833,"Ġtele":8834,"Ġesc":8835,"Ġ55":8836,"Ġearnest":8837,"liest":8838,"Ġguide":8839,"ieth":8840,"Ġmorose":8841,"Ġlime":8842,"Ġcrush":8843,"Ġbohem":8844,"Ġproduces":8845,"Ġquestioned":8846,"Ġmerit":8847,"Ġstandards":8848,"Ġfinds":8849,"Ġedinburgh":8850,"Ġdiscol":8851,"Ġneedles":8852,"Ġawake":8853,"Ġappearing":8854,"Ġrepeal":8855,"cribe":8856,"Ġanatomical":8857,"Ġprofess":8858,"Ġrepresenting":8859,"Ġrepeatedly":8860,"Ġsacred":8861,"Ġstudies":8862,"Ġ99":8863,"Ġexamples":8864,"Ġtyph":8865,"Ġradial":8866,"Ġinfluences":8867,"Ġdimly":8868,"Ġstraw":8869,"Ġharv":8870,"Ġharrison":8871,"Ġremembering":8872,"Ġfavorable":8873,"Ġoriginates":8874,"Ġdissent":8875,"Ġmuttering":8876,"Ġintroduce":8877,"Ġgolden":8878,"Ġeconomy":8879,"Ġrestrictions":8880,"Ġgradual":8881,"Ġbirch":8882,"Ġapplications":8883,"Ġheroes":8884,"Ġsorts":8885,"Ġassemblies":8886,"asped":8887,"Ġ1896":8888,"Ġhostility":8889,"Ġparalys":8890,"Ġaffectionate":8891,"Ġcords":8892,"Ġreformers":8893,"Ġwolzogen":8894,"ĠĠĠĠĠĠĠĠĠĠĠĠĠĠĠĠĠĠĠĠĠĠĠĠĠĠ":8895,"Ġflexor":8896,"Ġdismay":8897,"Ġpursuit":8898,"Ġpassionately":8899,"Ġsolemnly":8900,"Ġfoolish":8901,"Ġmotor":8902,"Ġsloughs":8903,"Ġroutine":8904,"Ġaudible":8905,"Ġqueen":8906,"Ġwhitlow":8907,"Ġheights":8908,"Ġthrombus":8909,"Ġencouraged":8910,"Ġframework":8911,"Ġattractive":8912,"Ġopponent":8913,"Ġembolism":8914,"Ġpromptly":8915,"Ġanaesthetic":8916,"Ġspasms":8917,"Ġreluctantly":8918,"Ġcompetition":8919,"Ġbuttock":8920,"Ġtransformed":8921,"Ġerupt":8922,"Ġtaste":8923,"Ġbundles":8924,"Ġrickets":8925,"Ġocclud":8926,"Ġrecollection":8927,"Ġcelebrated":8928,"Ġalleged":8929,"Ġlungs":8930,"Ġdeliberately":8931,"Ġatlantic":8932,"Ġknights":8933,"Ġpreoccupied":8934,"Ġhitherto":8935,"Ġcircumscribed":8936,"Ġgigantic":8937,"Ġskiagr":8938,"Ġcripp":8939,"Ġatmosphere":8940,"stitutional":8941,"Ġvenezuel":8942,");":8943,"case":8944,"cks":8945,"del":8946,"eed":8947,"ext":8948,"fir":8949,"got":8950,"iations":8951,"mo":8952,"mut":8953,"mont":8954,"national":8955,"oz":8956,"sis":8957,"ta":8958,"tis":8959,"time":8960,"uke":8961,"ygen":8962,"Ġ-":8963,"Ġties":8964,"Ġtenth":8965,"inine":8966,"Ġsul":8967,"Ġsarc":8968,"Ġward":8969,"Ġwitt":8970,"onse":8971,"Ġcough":8972,"Ġcath":8973,"Ġcrop":8974,"Ġhug":8975,"Ġfut":8976,"Ġmuse":8977,"inger":8978,"Ġdaring":8979,"anx":8980,"Ġthresh":8981,"Ġlone":8982,"Ġlately":8983,"Ġhend":8984,"icks":8985,"Ġgal":8986,"Ġgree":8987,"veled":8988,"owa":8989,"Ġstump":8990,"Ġras":8991,"ereur":8992,"Ġconject":8993,"Ġcongest":8994,"amph":8995,"Ġseason":8996,"Ġvor":8997,"ichord":8998,"Ġshops":8999,"acle":9000,"emen":9001,"ovar":9002,"Ġallies":9003,"Ġspurs":9004,"Ġspirocha":9005,"Ġrolling":9006,"artered":9007,"ounding":9008,"Ġdisli":9009,"Ġmanhood":9010,"Ġaden":9011,"unities":9012,"Ġens":9013,"inders":9014,"Ġclaimed":9015,"Ġtrained":9016,"Ġparted":9017,"Ġcommons":9018,"Ġbliss":9019,"Ġhandle":9020,"Ġperce":9021,"Ġglow":9022,"Ġscream":9023,"Ġdownwards":9024,"issa":9025,"Ġgreatness":9026,"Ġdesires":9027,"Ġpasses":9028,"Ġordin":9029,"Ġaffirm":9030,"Ġspecul":9031,"never":9032,"ĠĠĠĠĠĠĠĠĠĠĠĠĠĠĠĠĠĠĠĠ":9033,"Ġcapillary":9034,"Ġfoundations":9035,"Ġadding":9036,"Ġdefended":9037,"Ġdepths":9038,"Ġdrinking":9039,"Ġdrissa":9040,"Ġeloqu":9041,"Ġgets":9042,"Ġcaus":9043,"Ġinserted":9044,"Ġterribly":9045,"inson":9046,"Ġtreating":9047,"Ġlimits":9048,"renched":9049,"short":9050,"Ġadmitting":9051,"Ġchecked":9052,"Ġcrushing":9053,"sonya":9054,"pray":9055,"Ġprovidence":9056,"Ġxiii":9057,"Ġsentin":9058,"Ġ199":9059,"Ġdestiny":9060,"Ġraev":9061,"Ġtranspl":9062,"Ġpromoted":9063,"Ġlayers":9064,"Ġnights":9065,"Ġmerrily":9066,"Ġpoly":9067,"azed":9068,"Ġtraffic":9069,"Ġmadam":9070,"Ġnationalism":9071,"Ġlinen":9072,"Ġtemple":9073,".#--_":9074,"Ġbrotherhood":9075,"Ġposts":9076,"Ġvoted":9077,"Ġ160":9078,"Ġ167":9079,"Ġsquee":9080,"Ġerosion":9081,"Ġacquainted":9082,"Ġrespects":9083,"Ġrespectful":9084,"Ġexamine":9085,"Ġmedical":9086,"Ġcomplain":9087,"Ġrespected":9088,"Ġrespiration":9089,"Ġsatisf":9090,"Ġwoods":9091,"Ġjohnson":9092,"Ġfunctions":9093,"Ġpalp":9094,"Ġintervention":9095,"Ġgenerations":9096,"Ġaccompany":9097,"Ġ1917":9098,"Ġcirculating":9099,"Ġavoiding":9100,"project":9101,"synov":9102,"Ġwisconsin":9103,"Ġmichaud":9104,"Ġpermitted":9105,"Ġ325":9106,"Ġjacksonian":9107,"Ġgrie":9108,"Ġdelightful":9109,"Ġdragging":9110,"Ġcomfortable":9111,"Ġcreditors":9112,"Ġhabitual":9113,"Ġivanovna":9114,"Ġrumors":9115,"Ġpotato":9116,"Ġagricultural":9117,"Ġattendance":9118,"Ġinstitution":9119,"Ġensue":9120,"Ġhydro":9121,"Ġaudience":9122,"Ġmuskets":9123,"Ġtreasure":9124,"Ġshrie":9125,"Ġtightly":9126,"Ġpatriotic":9127,"worth":9128,"Ġvolunteers":9129,"Ġtearing":9130,"Ġwitnessed":9131,"Ġembarrassed":9132,"Ġnursery":9133,"Ġanaesthesia":9134,"Ġverses":9135,"Ġappreciated":9136,"Ġtranquill":9137,"Ġeighteenth":9138,"Ġclavichord":9139,"break":9140,"Ġmicro":9141,"Ġvertebra":9142,"Ġadoption":9143,"Ġwaistcoat":9144,"Ġrectum":9145,"Ġexudate":9146,"Ġsailors":9147,"otheli":9148,"Ġemancipation":9149,"Ġirresistible":9150,"Ġolmut":9151,"Ġhorizon":9152,"Ġguarant":9153,"Ġirrigation":9154,"Ġlaborers":9155,"Ġnineteenth":9156,"Ġshawl":9157,"Ġwelcomed":9158,"Ġkrasnoe":9159,"Ġdiphtheria":9160,"Ġryazan":9161,"Ġscapula":9162,"Ġolmutz":9163,".),":9164,"38":9165,"bish":9166,"des":9167,"gue":9168,"iac":9169,"long":9170,"off":9171,"pow":9172,"ser":9173,"tic":9174,"tim":9175,"take":9176,"wed":9177,"Ġtaught":9178,"Ġoint":9179,"Ġsire":9180,"rez":9181,"reoid":9182,"Ġbat":9183,"Ġbrow":9184,"Ġbaz":9185,"Ġcro":9186,"Ġhit":9187,"Ġhated":9188,"Ġfert":9189,"Ġfoul":9190,"Ġpose":9191,"Ġpite":9192,"Ġpuzz":9193,"Ġpamph":9194,"Ġdanc":9195,"orter":9196,"anth":9197,"asions":9198,"Ġloves":9199,"Ġniece":9200,"Ġheed":9201,"Ġheel":9202,"omatous":9203,"icating":9204,"Ġbeating":9205,"Ġbears":9206,"adv":9207,"Ġreins":9208,"ropath":9209,"ston":9210,"idency":9211,"uria":9212,"urious":9213,"Ġstuff":9214,"Ġriv":9215,"Ġrage":9216,"Ġrug":9217,"Ġrude":9218,"Ġconj":9219,"amin":9220,"ila":9221,"allel":9222,"Ġseats":9223,"Ġdeem":9224,"Ġsust":9225,"Ġsuvorov":9226,"Ġvom":9227,"Ġvested":9228,"rikhov":9229,"Ġshud":9230,"Ġshipping":9231,"Ġexal":9232,"Ġneat":9233,"agocyt":9234,"ifted":9235,"Ġsap":9236,"Ġchoo":9237,"about":9238,"Ġshel":9239,"istry":9240,"Ġjol":9241,"Ġmeek":9242,"Ġupwards":9243,"Ġintens":9244,"Ġabbe":9245,"Ġfears":9246,"Ġunhe":9247,"Ġdisple":9248,"Ġdisgrace":9249,"Ġmanners":9250,"Ġamiable":9251,"ocation":9252,"Ġencl":9253,"Ġplenty":9254,"Ġworm":9255,"Ġtrains":9256,"Ġresumed":9257,"Ġemerg":9258,"Ġrepuls":9259,"Ġbluish":9260,"Ġindolent":9261,"anges":9262,"Ġtwisted":9263,"Ġperish":9264,"Ġperished":9265,"Ġgrants":9266,"Ġfoe":9267,"Ġfores":9268,"Ġimpulse":9269,"Ġpregn":9270,"Ġexpenses":9271,"ucked":9272,"Ġgenu":9273,"achments":9274,"ormally":9275,"Ġslope":9276,"ordered":9277,"Ġcarpet":9278,"Ġthoughtful":9279,"Ġentry":9280,"Ġskilled":9281,"Ġjustify":9282,"Ġinterc":9283,"Ġinterm":9284,"Ġinterstate":9285,"Ġincised":9286,"Ġrelate":9287,"Ġhappily":9288,"Ġconstructed":9289,"Ġdefending":9290,"Ġeffected":9291,"Ġvoid":9292,"Ġeleven":9293,"Ġforeseen":9294,"Ġdram":9295,"Ġdrastic":9296,"Ġmines":9297,"Ġphase":9298,"Ġguessed":9299,"Ġinsid":9300,"Ġmemorable":9301,"Ġwrath":9302,"Ġfinishing":9303,"Ġsinking":9304,"Ġreduction":9305,"should":9306,"shine":9307,"Ġcrimes":9308,"Ġdecree":9309,"Ġtroy":9310,"Ġreplacement":9311,"Ġlessons":9312,"Ġcenters":9313,"Ġsecurity":9314,"Ġlights":9315,"Ġhumili":9316,"Ġburke":9317,"Ġcalcul":9318,"Ġedition":9319,"Ġeditor":9320,"Ġstepfather":9321,"venous":9322,"Ġlandown":9323,"Ġcollateral":9324,"Ġbreach":9325,"Ġprotected":9326,"Ġdelivered":9327,"Ġtenure":9328,"Ġprojecting":9329,"Ġdispatch":9330,"Ġinvolves":9331,"Ġviewed":9332,"Ġcellar":9333,"Ġposted":9334,"Ġstrengthen":9335,"affin":9336,"Ġobserving":9337,"Ġcampaigns":9338,"Ġproperly":9339,"Ġscarlet":9340,"Ġforeigners":9341,"Ġhonorable":9342,"Ġ70":9343,"Ġ103":9344,"Ġmodified":9345,"Ġswellings":9346,"Ġjudging":9347,"Ġsymptom":9348,"Ġresponse":9349,"Ġeighty":9350,"Ġmilorad":9351,"Ġ1861":9352,"Ġsunshine":9353,"Ġdissolution":9354,"Ġpunished":9355,"Ġpunishment":9356,"Ġcommunity":9357,"Ġbandaged":9358,"Ġcartilaginous":9359,"Ġsherman":9360,"Ġwarmly":9361,"Ġinquiring":9362,"Ġinquiries":9363,"Ġfrankly":9364,"Ġphysically":9365,"Ġdisplaced":9366,"Ġrecalling":9367,"Ġmichigan":9368,"Ġspoils":9369,"Ġscrut":9370,"Ġscraped":9371,"Ġkarag":9372,"Ġthoracic":9373,"Ġenjoyment":9374,"Ġharmful":9375,"Ġdismiss":9376,"Ġyielding":9377,"Ġsplints":9378,"Ġqualifications":9379,"Ġfortunate":9380,"Ġmechanics":9381,"Ġaspects":9382,"Ġfasc":9383,"Ġsamovar":9384,"Ġmonarchy":9385,"Ġtemporarily":9386,"Ġlogical":9387,"Ġfulfilled":9388,"Ġflourishing":9389,"Ġstimul":9390,"Ġpatriotism":9391,"Ġconvey":9392,"Ġafforded":9393,"Ġvexed":9394,"Ġdemonstrated":9395,"Ġrequirements":9396,"Ġnewspaper":9397,"Ġenforcement":9398,"Ġcontempl":9399,"Ġblockade":9400,"Ġoxygen":9401,"Ġinclined":9402,"Ġmanufacturers":9403,"Ġpronounced":9404,"Ġwrinkled":9405,"Ġtranquil":9406,"Ġchondroma":9407,"Ġcooperation":9408,"+--------------":9409,"Ġmusketry":9410,"Ġnominated":9411,"Ġannouncement":9412,"Ġcommissions":9413,"Ġkidney":9414,"Ġsuspicion":9415,"Ġvehicles":9416,"Ġtransmitted":9417,"Ġbureau":9418,"Ġspongy":9419,"Ġdocument":9420,"Ġphalanx":9421,"Ġisolated":9422,"Ġrapturous":9423,"Ġexclusively":9424,"Ġbreeches":9425,"Ġgouty":9426,"Ġoverthrow":9427,"Ġmaximum":9428,"Ġmaneuvers":9429,"empereur":9430,"Ġjapan":9431,"Ġtrousers":9432,"Ġfatty":9433,"sacrifice":9434,"Ġnasal":9435,"lebitis":9436,"Ġequipment":9437,"Ġinconvenience":9438,"Ġ.|":9439,"Ġbosom":9440,"Ġniemen":9441,"Ġdefinition":9442,"Ġroylott":9443,"first":9444,"Ġhendrikhov":9445,"Ġcongestion":9446,"Ġraevski":9447,"Ġhendrikhovna":9448,"#,":9449,"_).":9450,"bu":9451,"bes":9452,"doc":9453,"eer":9454,"gang":9455,"gutenberg":9456,"je":9457,"kansas":9458,"mot":9459,"mich":9460,"ped":9461,"satis":9462,"vy":9463,"would":9464,"yr":9465,"yright":9466,"Ġtale":9467,"Ġtiny":9468,"requ":9469,"Ġwond":9470,"Ġwoke":9471,"atching":9472,"Ġbud":9473,"Ġbism":9474,"Ġcort":9475,"Ġhive":9476,"itud":9477,"Ġfom":9478,"Ġfish":9479,"Ġpul":9480,"Ġpush":9481,"Ġpardon":9482,"Ġment":9483,"Ġmos":9484,"Ġmole":9485,"Ġinsuff":9486,"Ġdow":9487,"Ġdus":9488,"Ġdens":9489,"Ġtow":9490,"arian":9491,"Ġlob":9492,"Ġlively":9493,"lections":9494,"Ġgains":9495,"Ġbef":9496,"alk":9497,"adi":9498,"stead":9499,"idation":9500,"oters":9501,"Ġure":9502,"Ġwasted":9503,"urred":9504,"Ġston":9505,"Ġstuck":9506,"Ġforc":9507,"eties":9508,"Ġrushing":9509,"Ġorbit":9510,"Ġshrew":9511,"Ġsharing":9512,"Ġker":9513,"osl":9514,"thal":9515,"aga":9516,"Ġchase":9517,"umption":9518,"abled":9519,"Ġproves":9520,".\"*":9521,"Ġjug":9522,"Ġjones":9523,"Ġintact":9524,"Ġintentions":9525,"Ġabuses":9526,"Ġdisg":9527,"Ġdisability":9528,"Ġdisinf":9529,"Ġmanager":9530,"rax":9531,"Ġoutpost":9532,"Ġpled":9533,"Ġplun":9534,"Ġaged":9535,"ibank":9536,"!\"*":9537,"Ġclock":9538,"Ġappar":9539,"Ġappend":9540,"Ġcontained":9541,"Ġcontracted":9542,"Ġanybody":9543,"Ġcounted":9544,"Ġsomebody":9545,"Ġblocking":9546,"Ġbrad":9547,"Ġbrushed":9548,"Ġtwent":9549,"Ġfoll":9550,"Ġexpend":9551,"Ġflowing":9552,"Ġpresidency":9553,"Ġscrot":9554,"Ġslipping":9555,"white":9556,"Ġsyn":9557,"Ġsubd":9558,"Ġ416":9559,"Ġgoverned":9560,"Ġdistorted":9561,"Ġsupposing":9562,"Ġreliable":9563,"Ġrelieve":9564,"Ġrelapse":9565,"Ġcourty":9566,"Ġreadiness":9567,"ontov":9568,"Ġdefective":9569,"Ġinvari":9570,"Ġeffic":9571,"Ġelim":9572,"Ġtells":9573,"Ġcares":9574,"Ġguer":9575,"Ġinsist":9576,"Ġcontinuing":9577,"Ġcontinuity":9578,"Ġtreaties":9579,"Ġparade":9580,"Ġreduce":9581,"isms":9582,"Ġvereshchagin":9583,"Ġopposing":9584,"Ġ1912":9585,"Ġapprove":9586,"ternally":9587,"Ġulnar":9588,"Ġburd":9589,"Ġburied":9590,"Ġdiscom":9591,"Ġbrig":9592,"Ġlandlord":9593,"Ġcompanions":9594,"Ġexcised":9595,"Ġdivisions":9596,"Ġtrail":9597,"Ġtraitor":9598,"Ġwindibank":9599,"Ġcharacterist":9600,"Ġbalaga":9601,"Ġ66":9602,"Ġlaun":9603,"coming":9604,"Ġsums":9605,"Ġelectoral":9606,"Ġfirmness":9607,"Ġjew":9608,"Ġannual":9609,"Ġsacrific":9610,"Ġconversations":9611,"Ġestablishing":9612,"Ġsales":9613,"Ġcourtiers":9614,"Ġ79":9615,"Ġinquire":9616,"Ġcomplaint":9617,"Ġfails":9618,"Ġinfluenced":9619,"Ġjoking":9620,"Ġinterfered":9621,"Ġwrites":9622,"Ġsleepy":9623,"Ġmurd":9624,"Ġmutual":9625,"Ġgenerous":9626,"Ġhotel":9627,"Ġdetermination":9628,"blue":9629,"Ġ1914":9630,"Ġfleches":9631,"Ġanxiously":9632,"Ġneighboring":9633,"Ġbachel":9634,"Ġhostess":9635,"Ġ1809":9636,"Ġbrachial":9637,"Ġsubmission":9638,"Ġcatgut":9639,"hyd":9640,"Ġchristian":9641,"Ġeducated":9642,"Ġyouthful":9643,"Ġpermanently":9644,"Ġinstruct":9645,"Ġaccidentally":9646,"Ġmortal":9647,"Ġpurely":9648,"Ġturkey":9649,"Ġthyreoid":9650,"Ġutterly":9651,"Ġseventy":9652,"Ġpanic":9653,"Ġaccomplish":9654,"Ġruler":9655,"Ġabdomen":9656,"Ġtransportation":9657,"Ġresolutely":9658,"Ġcommittees":9659,"Ġencourage":9660,"Ġhesitation":9661,"Ġcontradiction":9662,"Ġelevated":9663,"Ġepiphysis":9664,"ophil":9665,"Ġpunctured":9666,"Ġforbidden":9667,"Ġforbidding":9668,"Ġtraveling":9669,"Ġvainly":9670,"Ġetc":9671,"Ġmirror":9672,"Ġdorsum":9673,"Ġimpressions":9674,"Ġgathering":9675,"sixth":9676,"Ġbayon":9677,"Ġfragments":9678,"Ġclavicle":9679,"small":9680,"Ġsincerely":9681,"Ġintelligent":9682,"Ġbruised":9683,"Ġdermoids":9684,"Ġcongratulate":9685,"Ġrefrain":9686,"Ġsupervision":9687,"Ġresponded":9688,"Ġincessantly":9689,"clavian":9690,"Ġpilgrims":9691,"copyright":9692,"muscular":9693,"references":9694,"Ġgratitude":9695,"Ġpuritans":9696,"Ġpuckered":9697,"Ġdisagree":9698,"Ġexpansion":9699,"federal":9700,"Ġnikol":9701,"Ġpavlograd":9702,"Ġunreason":9703,"Ġfreemasonry":9704,"Ġvyazma":9705,"Ġplexus":9706,"Ġminimum":9707,"Ġsympathetic":9708,"Ġthreshold":9709,"Ġdisliked":9710,"Ġvertebrae":9711,"Ġguarantee":9712,"Ġchoosing":9713,"Ġmiloradovich":9714,"Ġmentally":9715,"Ġinvariably":9716,".*":9717,"37":9718,"41":9719,"61":9720,"85":9721,"ban":9722,"bet":9723,"cope":9724,"dles":9725,"gone":9726,"iress":9727,"jamin":9728,"kers":9729,"mal":9730,"nia":9731,"oi":9732,"oir":9733,"po":9734,"pent":9735,"pier":9736,"uating":9737,"vol":9738,"ware":9739,"whel":9740,"Ġtun":9741,"Ġtread":9742,"Ġtables":9743,"Ġtheat":9744,"Ġtheories":9745,"Ġom":9746,"Ġowe":9747,"Ġsed":9748,"rey":9749,"really":9750,"Ġwaking":9751,"Ġbass":9752,"Ġbuck":9753,"isible":9754,"Ġcam":9755,"itate":9756,"Ġfis":9757,"Ġfury":9758,"Ġfung":9759,"Ġpag":9760,"Ġmou":9761,"Ġmix":9762,"Ġdict":9763,"Ġdined":9764,"arter":9765,"arosl":9766,"Ġlas":9767,"Ġlotion":9768,"Ġnov":9769,"Ġgut":9770,"Ġgosp":9771,"Ġbehave":9772,"Ġbeaming":9773,"rolled":9774,"oton":9775,"Ġwash":9776,"Ġasks":9777,"Ġstained":9778,"Ġstolen":9779,"Ġratt":9780,"Ġramb":9781,"Ġate":9782,"erer":9783,"Ġconverted":9784,"Ġfriction":9785,"amous":9786,"ulates":9787,"usive":9788,"Ġdeliver":9789,"oore":9790,"eman":9791,"ifle":9792,"Ġpra":9793,"apontov":9794,"Ġallowing":9795,"Ġprosec":9796,"ighted":9797,"Ġalm":9798,"Ġweeping":9799,"Ġlend":9800,"Ġunity":9801,"Ġunsu":9802,"Ġdissem":9803,"Ġdisorgan":9804,"race":9805,"Ġplaster":9806,"elling":9807,"ellow":9808,"Ġclue":9809,"asses":9810,"Ġunderlying":9811,"uble":9812,"Ġremote":9813,"Ġbron":9814,"Ġbride":9815,"Ġindies":9816,"angle":9817,"Ġoverwhel":9818,"Ġafterward":9819,"Ġgrab":9820,"Ġcomput":9821,"Ġcomply":9822,"Ġprelim":9823,"Ġconspir":9824,"Ġflower":9825,"Ġthanked":9826,"Ġgenital":9827,"Ġscent":9828,"Ġsciss":9829,"Ġscared":9830,"Ġmarks":9831,"Ġregulations":9832,"Ġentit":9833,"Ġsubord":9834,"Ġprincesses":9835,"Ġjustified":9836,"Ġrelating":9837,"Ġendotheli":9838,"Ġrefere":9839,"Ġinvading":9840,"Ġinvisible":9841,"Ġpatron":9842,"ceptions":9843,"Ġadvise":9844,"Ġelephantiasis":9845,"Ġplea":9846,"Ġhorn":9847,"Ġbeloved":9848,"Ġcaution":9849,"Ġsuffers":9850,"inski":9851,"Ġparaffin":9852,"Ġredd":9853,"Ġredness":9854,"Ġconvuls":9855,"Ġboast":9856,"Ġdiab":9857,"Ġdiaph":9858,"Ġdecre":9859,"Ġfrontiers":9860,"atically":9861,"Ġreplace":9862,"Ġlabors":9863,"Ġharder":9864,"Ġ1918":9865,"Ġswall":9866,"Ġpromotion":9867,"Ġpromote":9868,"Ġhalt":9869,"yler":9870,"Ġpoetic":9871,"Ġlanding":9872,"Ġfedor":9873,"Ġawoke":9874,"Ġillum":9875,"Ġilleg":9876,"Ġdevice":9877,"Ġhalfway":9878,"Ġobser":9879,"Ġhonour":9880,"Ġhonored":9881,"Ġquicker":9882,"Ġsenior":9883,"Ġgentry":9884,"Ġbarg":9885,"obs":9886,"Ġvalves":9887,"Ġcivilian":9888,"Ġsumm":9889,"Ġsuccession":9890,"Ġregardless":9891,"Ġpenn":9892,"Ġacquire":9893,"Ġvictim":9894,"Ġvictories":9895,"Ġ95":9896,"Ġlowering":9897,"Ġstrikes":9898,"Ġneglected":9899,"Ġbeneficial":9900,"Ġsadly":9901,"Ġjoining":9902,"Ġdoubtful":9903,"Ġsolely":9904,"Ġinterfering":9905,"Ġsolved":9906,"Ġobjections":9907,"Ġexecute":9908,"Ġaimed":9909,"Ġsweat":9910,"Ġschon":9911,"Ġcounsel":9912,"Ġdistributing":9913,"Ġdependence":9914,"Ġtraditions":9915,"Ġsimilarly":9916,"Ġirritated":9917,"Ġaustrians":9918,"Ġsurely":9919,"inguinal":9920,"Ġtariffs":9921,"bler":9922,"Ġstruggling":9923,"Ġmountain":9924,"Ġamendments":9925,"Ġhypertroph":9926,"Ġsubmar":9927,"Ġdiminish":9928,"athem":9929,"Ġbuildings":9930,"Ġconsistence":9931,"Ġtransfer":9932,"Ġcritical":9933,"Ġxviii":9934,"Ġfaithful":9935,"Ġshadows":9936,"Ġquality":9937,"Ġ395":9938,"Ġpockets":9939,"Ġaustral":9940,"Ġdilat":9941,"Ġ481":9942,"Ġwhispering":9943,"Ġmuddy":9944,"Ġrulers":9945,"Ġdeprive":9946,"Ġidle":9947,"Ġferapontov":9948,"Ġinitiative":9949,"third":9950,"Ġreckon":9951,"Ġtraveler":9952,"Ġodour":9953,"Ġpreceded":9954,"Ġabolitionists":9955,"Ġinstruments":9956,"Ġribbon":9957,"Ġalteration":9958,"Ġastonished":9959,"Ġembarrassment":9960,"Ġcustomary":9961,"Ġsleepless":9962,"handed":9963,"Ġneuroma":9964,"Ġneuritis":9965,"Ġinspired":9966,"Ġsemi":9967,"Ġridicule":9968,"Ġdefects":9969,"Ġeruption":9970,"Ġillustrated":9971,"Ġlacerated":9972,"Ġscandal":9973,"Ġlymphangitis":9974,"confident":9975,"Ġsunday":9976,"foot":9977,"Ġbriskly":9978,"Ġhawa":9979,"Ġcommencement":9980,"Ġacknowled":9981,"Ġaggravated":9982,"Ġintrigues":9983,"Ġcompensation":9984,"Ġimpairment":9985,"Ġdistinction":9986,"Ġkitchen":9987,"Ġreparative":9988,"Ġtyphoid":9989,"Ġparalysed":9990,"Ġtranquillity":9991,"Ġdispleased":9992,"Ġgenuine":9993,"Ġfoment":9994,"Ġinsufficient":9995,"Ġstoner":9996,"Ġshrewd":9997,"Ġtwentieth":9998,"Ġscrotum":9999,"Ġcourtyard":10000,"pierre":10001,"Ġscissors":10002,"',":10003,",*":10004,"bons":10005,"bled":10006,"cosis":10007,"gy":10008,"hill":10009,"ien":10010,"jac":10011,"mult":10012,"nitsyn":10013,"oining":10014,"press":10015,"ridge":10016,"tra":10017,"tish":10018,"Ġinguinal":10019,"Ġtick":10020,"hend":10021,"inj":10022,"inas":10023,"inov":10024,"Ġoo":10025,"Ġoun":10026,"Ġsclerosis":10027,"Ġwicked":10028,"ona":10029,"onic":10030,"atitis":10031,"Ġbol":10032,"Ġbast":10033,"Ġbisc":10034,"Ġbiceps":10035,"Ġcance":10036,"Ġhather":10037,"Ġhole":10038,"itic":10039,"enburg":10040,"Ġfan":10041,"Ġpages":10042,"Ġmov":10043,"Ġmant":10044,"Ġmond":10045,"Ġmathem":10046,"Ġdies":10047,"Ġdact":10048,"Ġdwell":10049,"Ġtom":10050,"Ġtore":10051,"anotic":10052,"Ġthri":10053,"Ġluc":10054,"Ġlament":10055,"Ġloses":10056,"Ġheir":10057,"Ġheiress":10058,"omot":10059,"Ġech":10060,"Ġga":10061,"entially":10062,"adays":10063,"rol":10064,"roid":10065,"ste":10066,"Ġwhig":10067,"otomy":10068,"ceeding":10069,"Ġ\"'":10070,"cts":10071,"urysm":10072,"Ġasyl":10073,"Ġstaring":10074,"Ġstyle":10075,"Ġiowa":10076,"etes":10077,"Ġanis":10078,"Ġseed":10079,"Ġsegment":10080,"Ġvind":10081,"Ġshar":10082,"Ġkiev":10083,"Ġexit":10084,"Ġexertion":10085,"Ġexternally":10086,"Ġneville":10087,"agon":10088,"Ġpraise":10089,"Ġchances":10090,"antation":10091,"akov":10092,"abes":10093,"abilities":10094,"Ġprognosis":10095,"Ġarkansas":10096,"Ġjay":10097,"Ġupward":10098,"onezh":10099,"Ġfearing":10100,"Ġdisfig":10101,"Ġknock":10102,"astoid":10103,"Ġagencies":10104,"ibbe":10105,"Ġevils":10106,"Ġquit":10107,"Ġquivering":10108,"elf":10109,"elt":10110,"Ġclung":10111,"Ġtruly":10112,"Ġresent":10113,"early":10114,"Ġbrick":10115,"arer":10116,"haem":10117,"fting":10118,"Ġinferior":10119,"Ġfolly":10120,"Ġcompound":10121,"Ġimpass":10122,"Ġbegging":10123,"Ġwarned":10124,"ervation":10125,"Ġscen":10126,"Ġscan":10127,"Ġdownward":10128,"Ġstraining":10129,"wealth":10130,"Ġregist":10131,"Ġcaribbe":10132,"Ġbetrot":10133,"atting":10134,"Ġsubclavian":10135,"ĠĠĠĠĠĠĠĠĠĠĠĠĠĠĠĠĠĠĠĠĠĠ":10136,"Ġincisions":10137,"Ġretreated":10138,"Ġassigned":10139,"Ġcharges":10140,"Ġrefusing":10141,"Ġreferring":10142,"Ġinvent":10143,"Ġinvade":10144,"Ġinvested":10145,"Ġinvitation":10146,"Ġinvaded":10147,"Ġinviting":10148,"Ġpathetic":10149,"Ġteaching":10150,"Ġtalent":10151,"Ġfathers":10152,"Ġpurity":10153,"Ġmineral":10154,"Ġcaust":10155,"Ġphagocyt":10156,"Ġinsane":10157,"aneus":10158,"aneurysm":10159,"toned":10160,"Ġparallel":10161,"Ġlimitation":10162,"Ġveter":10163,"Ġdiverse":10164,"Ġsecondly":10165,"Ġoppressed":10166,"Ġreplies":10167,"Ġswed":10168,"Ġtransverse":10169,"Ġpromin":10170,"Ġhumor":10171,"Ġ174":10172,"Ġcalculated":10173,"ylitis":10174,"Ġadjust":10175,"Ġsmiles":10176,"Ġsymb":10177,"Ġexcise":10178,"Ġexciting":10179,"Ġawait":10180,"Ġvirulence":10181,"Ġcrowding":10182,"edience":10183,"Ġbaltim":10184,"perioste":10185,"Ġheavier":10186,"Ġconsiderably":10187,"Ġdispatched":10188,"Ġdispersed":10189,"Ġarterio":10190,"Ġhelping":10191,"Ġtemples":10192,"Ġtrench":10193,"Ġhonors":10194,"Ġcareless":10195,"Ġplanter":10196,"Ġdropping":10197,"Ġinvolving":10198,"Ġgeese":10199,"Ġauthors":10200,"Ġfarming":10201,"Ġutmost":10202,"Ġutah":10203,"Ġuttering":10204,"Ġforwards":10205,".'\"":10206,"Ġstartled":10207,"Ġpenal":10208,"romas":10209,"Ġerror":10210,"Ġdisappears":10211,"Ġfifteenth":10212,"Ġindicates":10213,"Ġ90":10214,"Ġ93":10215,"Ġsurprising":10216,"Ġmode":10217,"Ġpoliceman":10218,"Ġcomplains":10219,"Ġboys":10220,"Ġdeadly":10221,"Ġsocieties":10222,"Ġ80":10223,"Ġsolve":10224,"Ġsolitude":10225,"Ġ154":10226,"Ġterritorial":10227,"Ġobjects":10228,"Ġarriving":10229,"Ġattempting":10230,"Ġexpectation":10231,"Ġadministered":10232,"regard":10233,"Ġ114":10234,"Ġarranging":10235,"Ġfemale":10236,"Ġencaps":10237,"Ġpretended":10238,"Ġtraders":10239,"Ġtradition":10240,"Ġbenjamin":10241,"Ġaccompanying":10242,"Ġmisery":10243,"Ġplantation":10244,"trust":10245,"trunk":10246,"Ġmeaningless":10247,"Ġsectional":10248,"Ġdischarged":10249,"Ġgranting":10250,"Ġ1898":10251,"Ġvanity":10252,"Ġ1807":10253,"Ġruptured":10254,"Ġarchd":10255,"Ġspoiled":10256,"Ġperme":10257,"Ġjournal":10258,"Ġflexion":10259,"Ġsovereigns":10260,"Ġxvii":10261,"Ġstirring":10262,"Ġcatching":10263,"Ġconsequences":10264,"Ġdominions":10265,"Ġopportunities":10266,"Ġsplint":10267,"Ġadvantageous":10268,"Ġdavis":10269,"Ġdignified":10270,"Ġfundamental":10271,"aggy":10272,"Ġseventh":10273,"Ġhospitals":10274,"Ġobtaining":10275,"Ġfastened":10276,"Ġexhaust":10277,"Ġproprietor":10278,"Ġproceedings":10279,"Ġarbitrary":10280,"Ġpreceding":10281,"Ġregretted":10282,"Ġcoroner":10283,"Ġroofs":10284,"Ġborzoi":10285,"Ġdrafted":10286,"Ġembolus":10287,"Ġjaws":10288,"Ġremedies":10289,"Ġdissatisfaction":10290,"Ġmasonic":10291,"Ġinspection":10292,"Ġcampfire":10293,"Ġjealousy":10294,"Ġconsolation":10295,"Ġpublished":10296,"Ġsecrecy":10297,"Ġwithdrawal":10298,"Ġprohibition":10299,"Ġpoisoning":10300,"Ġbaths":10301,"Ġuneasily":10302,"Ġmoonlight":10303,"Ġpenetrating":10304,"Ġvertebral":10305,"Ġbinding":10306,"Ġsurvive":10307,"lovski":10308,"Ġdreamed":10309,"Ġelectricity":10310,"Ġtavern":10311,"Ġmurmured":10312,"Ġlunch":10313,"adenoma":10314,"Ġflorida":10315,"Ġsupplemented":10316,"Ġnutr":10317,"Ġstrategic":10318,"broken":10319,"Ġexhibit":10320,"Ġbrandy":10321,"Ġincomplete":10322,"Ġannoyance":10323,"Ġanthrax":10324,"Ġenchanting":10325,"Ġimperfectly":10326,"Ġphilosophy":10327,"onovnitsyn":10328,"Ġeyel":10329,"Ġcontemporaries":10330,"Ġspontaneous":10331,"Ġmeadow":10332,"Ġemerged":10333,"Ġglimpse":10334,"Ġdrubetskoy":10335,"fifth":10336,"Ġaverage":10337,"Ġcabinet":10338,"important":10339,"Ġstalls":10340,"umentary":10341,"Ġinvalid":10342,"defined":10343,"Ġincorpor":10344,"Ġneuralgia":10345,"Ġstrengthened":10346,"Ġvelvet":10347,"Ġinoculation":10348,"Ġatrophy":10349,"Ġescort":10350,"Ġmuseum":10351,"Ġvoronezh":10352,"Ġointment":10353,"Ġvomiting":10354,"documentary":10355,"Ġbismuth":10356,"Ġguerrill":10357,"Ġbachelor":10358,"Ġramballe":10359,"Ġreferend":10360,"Ġhatherley":10361,"Ġdactylitis":10362,"Ġcaribbean":10363,"Ġbetrothed":10364,"22":10365,"63":10366,"69":10367,"89":10368,"away":10369,"ault":10370,"bid":10371,"calle":10372,"die":10373,"diction":10374,"gon":10375,"iency":10376,"ming":10377,"mun":10378,"mler":10379,"ril":10380,"xia":10381,"Ġtint":10382,"Ġtens":10383,"Ġaided":10384,"Ġaides":10385,"Ġok":10386,"Ġsly":10387,"Ġsid":10388,"Ġsedition":10389,"Ġwage":10390,"Ġwaving":10391,"erity":10392,"atzen":10393,"Ġboss":10394,"Ġborders":10395,"isite":10396,"Ġcau":10397,"edient":10398,"iter":10399,"Ġfaced":10400,"Ġfoci":10401,"Ġpave":10402,"Ġink":10403,"Ġdiet":10404,"Ġdug":10405,"Ġtoxic":10406,"asy":10407,"Ġheap":10408,"Ġelic":10409,"Ġerect":10410,"Ġberez":10411,"ado":10412,"Ġrever":10413,"Ġrewards":10414,"rov":10415,"roit":10416,"lysis":10417,"idated":10418,"urrent":10419,"Ġstands":10420,"Ġstocks":10421,"Ġrh":10422,"Ġram":10423,"Ġrud":10424,"Ġrhy":10425,"Ġrattle":10426,"Ġrival":10427,"chond":10428,"Ġnoted":10429,"olit":10430,"Ġorlov":10431,"Ġvangu":10432,"Ġkoz":10433,"Ġkonovnitsyn":10434,"acarp":10435,"Ġsoothing":10436,"Ġsoda":10437,"illaries":10438,"thier":10439,"ifting":10440,"Ġpratzen":10441,"Ġprote":10442,"Ġard":10443,"Ġarts":10444,"Ġaren":10445,"Ġrock":10446,"Ġrodent":10447,"Ġ1000":10448,"Ġunp":10449,"Ġdisper":10450,"Ġdisgu":10451,"Ġdisregard":10452,"Ġmanual":10453,"Ġami":10454,"Ġadoles":10455,"union":10456,"Ġknot":10457,"ptics":10458,"Ġoutbur":10459,"indeed":10460,"Ġevolution":10461,"elly":10462,"Ġmorel":10463,"Ġoffense":10464,"Ġtruce":10465,"Ġtracks":10466,"Ġcounty":10467,"Ġreprod":10468,"ube":10469,"Ġcommit":10470,"Ġblessed":10471,"Ġnatal":10472,"Ġperitone":10473,"Ġinfrequ":10474,"udal":10475,"Ġimposing":10476,"ignation":10477,"phal":10478,"Ġflattered":10479,"Ġflashed":10480,"coats":10481,"Ġwarri":10482,"Ġscore":10483,"ermann":10484,"Ġcolored":10485,"Ġpassages":10486,"Ġmetacarp":10487,"Ġowned":10488,"Ġskirt":10489,"Ġincred":10490,"Ġincubation":10491,"Ġconfl":10492,"Ġsuppressed":10493,"Ġrelaps":10494,"Ġending":10495,"Ġbackwards":10496,"denisov":10497,"Ġpetty":10498,"Ġserf":10499,"Ġlawful":10500,"Ġtales":10501,"Ġeleg":10502,"Ġearliest":10503,"psy":10504,"psis":10505,"Ġmining":10506,"Ġminers":10507,"Ġguest":10508,"Ġguided":10509,"ieties":10510,"Ġcolonization":10511,"Ġwrung":10512,"Ġrevision":10513,"Ġveto":10514,"Ġcaseation":10515,"Ġbehaved":10516,"Ġdecisions":10517,"atics":10518,"Ġxix":10519,"Ġswinging":10520,"Ġthirst":10521,"Ġpoliteness":10522,"Ġcurved":10523,"Ġmerged":10524,"Ġ175":10525,"Ġcalf":10526,"Ġeditions":10527,"Ġadjoining":10528,"axis":10529,"Ġsouthwest":10530,"retion":10531,"ammed":10532,"Ġepoch":10533,"Ġdeclined":10534,"Ġrecognise":10535,"Ġhistories":10536,"Ġbarn":10537,"comp":10538,"Ġplays":10539,"grand":10540,"Ġsuccessor":10541,"Ġsuccessive":10542,"Ġsalic":10543,"Ġstudied":10544,"Ġrespective":10545,"inkled":10546,"Ġsuperint":10547,"Ġembrace":10548,"Ġ73":10549,"Ġneglect":10550,"Ġneglig":10551,"Ġdespised":10552,"Ġcomplained":10553,"Ġcompliance":10554,"Ġholl":10555,"Ġtenderly":10556,"Ġlowest":10557,"Ġdimmler":10558,"Ġtorment":10559,"Ġsouls":10560,"Ġcreate":10561,"Ġmales":10562,"Ġ1862":10563,"Ġescaping":10564,"ĠĠĠĠĠĠĠĠĠĠĠĠĠĠĠĠĠĠĠĠĠĠĠĠĠĠĠĠĠĠĠĠĠ":10565,"Ġfeminine":10566,"Ġdissolved":10567,"Ġbreaks":10568,"Ġessentially":10569,"Ġsignificantly":10570,"Ġ129":10571,"Ġbroadshe":10572,"chester":10573,"trunks":10574,"Ġ1913":10575,"Ġmeantime":10576,"Ġsuspect":10577,"Ġsternum":10578,"Ġvicious":10579,"Ġcarolinas":10580,"Ġsynovitis":10581,"Ġtroubled":10582,"Ġfrozen":10583,"Ġmanifesto":10584,"Ġenjoying":10585,"Ġsubmiss":10586,"Ġspecim":10587,"Ġbatteries":10588,"Ġ465":10589,"Ġdanube":10590,"Ġoneself":10591,"local":10592,"Ġyields":10593,"Ġxxv":10594,"Ġamput":10595,"Ġemptied":10596,"Ġpitch":10597,"Ġlatest":10598,"grafting":10599,"Ġventure":10600,"Ġjunctions":10601,"Ġtoxaemia":10602,"Ġcontemptuously":10603,"Ġaccidental":10604,"Ġadventures":10605,"Ġmotive":10606,"Ġdollar":10607,"Ġproclaimed":10608,"Ġundergoes":10609,"Ġforbade":10610,"Ġensued":10611,"looked":10612,"Ġsprings":10613,"Ġprofoundly":10614,"Ġgrasped":10615,"Ġadvocated":10616,"bacill":10617,"Ġancients":10618,"Ġquartermaster":10619,"Ġrecurrence":10620,"Ġcarbon":10621,"Ġenthusiastic":10622,"Ġwider":10623,"Ġtolly":10624,"Ġcraw":10625,"Ġpigmented":10626,"Ġcondemn":10627,"Ġsighing":10628,"Ġproceeded":10629,"Ġhesitated":10630,"Ġintimacy":10631,"Ġcollecting":10632,"Ġvoluntary":10633,"Ġalterations":10634,"Ġdisplayed":10635,"Ġtribute":10636,"Ġuncertainty":10637,"Ġattentive":10638,"Ġtutor":10639,"Ġdorsal":10640,"Ġwrinkles":10641,"Ġingen":10642,"Ġprohibited":10643,"Ġobliterated":10644,"Ġfragment":10645,"Ġridiculous":10646,"arthritis":10647,"Ġtwitching":10648,"Ġaccurately":10649,"Ġwiped":10650,"Ġwiping":10651,"Ġneighbourhood":10652,"Ġexercised":10653,"Ġdiamond":10654,"piti":10655,"Ġstooped":10656,"Ġrustle":10657,"Ġnoiseless":10658,"Ġpupil":10659,"Ġbridges":10660,"Ġdiversity":10661,"Ġfluctuation":10662,"secondary":10663,"Ġblessing":10664,"Ġradiogram":10665,"Ġceremony":10666,"Ġlantern":10667,"Ġignorance":10668,"escence":10669,"Ġsequel":10670,"Ġosseous":10671,"Ġperpetual":10672,"Ġinterpret":10673,"Ġcylinders":10674,"Ġfistula":10675,"Ġstockings":10676,"Ġabruptly":10677,"Ġjurisdiction":10678,"Ġdakota":10679,"Ġnewcomer":10680,"Ġcalamity":10681,"woman":10682,"Ġdrummer":10683,"Ġtrophic":10684,"Ġdrooping":10685,"Ġallegiance":10686,"Ġsulph":10687,"Ġfertile":10688,"Ġpreliminary":10689,"Ġgenitals":10690,"Ġdilatation":10691,"multiple":10692,"pressure":10693,"Ġmovable":10694,"Ġmonday":10695,"Ġbaltimore":10696,"Ġreferendum":10697,"callender":10698,"Ġpavement":10699,"Ġberezina":10700,"Ġvanguard":10701,"Ġkozlovski":10702,"Ġdisperse":10703,"Ġoutburst":10704,"-+":10705,"ais":10706,"bat":10707,"cr":10708,"cot":10709,"cart":10710,"cong":10711,"din":10712,"down":10713,"iating":10714,"jud":10715,"making":10716,"nor":10717,"pic":10718,"vo":10719,"writ":10720,"waiting":10721,"Ġtested":10722,"Ġtils":10723,"Ġtattered":10724,"Ġtapping":10725,"Ġtingling":10726,"hered":10727,"Ġari":10728,"ince":10729,"inals":10730,"Ġsisters":10731,"rehend":10732,"Ġwy":10733,"Ġwives":10734,"Ġwaves":10735,"onial":10736,"isition":10737,"Ġhoney":10738,"Ġfame":10739,"Ġpok":10740,"Ġmol":10741,"Ġmand":10742,"Ġmalle":10743,"inge":10744,"Ġinse":10745,"Ġinco":10746,"Ġdata":10747,"Ġduly":10748,"Ġthrill":10749,"Ġlur":10750,"Ġlaminated":10751,"Ġhealed":10752,"ombe":10753,"Ġgy":10754,"Ġgor":10755,"Ġbelt":10756,"Ġreass":10757,"stra":10758,"imper":10759,"cet":10760,"cell":10761,"ldt":10762,"aying":10763,"Ġire":10764,"Ġrav":10765,"chi":10766,"Ġnotion":10767,"Ġhaz":10768,"Ġfringes":10769,"oloch":10770,"allic":10771,"Ġseiz":10772,"Ġselling":10773,"Ġvag":10774,"Ġvoy":10775,"Ġshak":10776,"Ġshaped":10777,"Ġkoloch":10778,"aciously":10779,"Ġexostosis":10780,"thm":10781,"Ġnebraska":10782,"oven":10783,"ections":10784,"ousing":10785,"Ġalert":10786,"Ġarouse":10787,"Ġarising":10788,"Ġjes":10789,"Ġabuse":10790,"Ġfeudal":10791,"Ġunint":10792,"Ġunseen":10793,"Ġuneven":10794,"Ġunbroken":10795,"Ġdisast":10796,"Ġdisaster":10797,"Ġammun":10798,"Ġadler":10799,"ĠĠĠĠĠĠĠĠĠĠĠĠĠĠ":10800,"ĠĠĠĠĠĠĠĠĠĠĠĠĠĠĠ":10801,"Ġmyx":10802,"Ġoutst":10803,"ountered":10804,"Ġages":10805,"Ġfreight":10806,"Ġevoked":10807,"Ġworried":10808,"Ġquilt":10809,"Ġquivered":10810,"oding":10811,"Ġclam":10812,"Ġclause":10813,"Ġclash":10814,"Ġapportion":10815,"Ġoffend":10816,"cip":10817,"Ġtraining":10818,"ageya":10819,"Ġresident":10820,"Ġcounting":10821,"earing":10822,"Ġlique":10823,"Ġblank":10824,"Ġblows":10825,"Ġbrush":10826,"Ġindec":10827,"Ġperse":10828,"Ġshouldn":10829,"Ġglittered":10830,"udge":10831,"udence":10832,"Ġimpart":10833,"Ġimpract":10834,"Ġattending":10835,"Ġexpose":10836,"Ġexpensive":10837,"Ġflut":10838,"Ġpreserved":10839,"ensed":10840,"Ġmenace":10841,"orsed":10842,"wey":10843,"Ġregards":10844,"Ġregulate":10845,"Ġthrong":10846,"Ġcaries":10847,"naim":10848,"Ġoccasions":10849,"Ġenters":10850,"Ġdesirable":10851,"Ġcolumb":10852,"Ġsubl":10853,"Ġ318":10854,"ails":10855,"ailing":10856,"vingly":10857,"Ġheadache":10858,"Ġjustification":10859,"rugg":10860,"ĠĠĠĠĠĠĠĠĠĠĠĠĠĠĠĠĠĠĠĠĠĠĠĠĠ":10861,"Ġinches":10862,"icken":10863,"Ġcapillaries":10864,"oscombe":10865,"Ġcorners":10866,"Ġrefuge":10867,"Ġreflections":10868,"Ġtechn":10869,"Ġesp":10870,"Ġ56":10871,"Ġlasting":10872,"Ġforemost":10873,"Ġnapoleonic":10874,"Ġhorrified":10875,"Ġboracic":10876,"Ġpaine":10877,"Ġpainless":10878,"Ġvariable":10879,"Ġmorris":10880,"Ġterrified":10881,"Ġdoorway":10882,"Ġsinister":10883,"ships":10884,"Ġpresenting":10885,"Ġboiling":10886,"Ġfewer":10887,"Ġveil":10888,"Ġveget":10889,"Ġdiary":10890,"Ġreceives":10891,"Ġreceipt":10892,"Ġworkmen":10893,"Ġswarm":10894,"Ġcommonwealth":10895,"Ġoperate":10896,"Ġproposition":10897,"Ġprevailed":10898,"Ġlighted":10899,"Ġburg":10900,"Ġangioma":10901,"Ġuntr":10902,"Ġpersonage":10903,"Ġbrighter":10904,"Ġadjusted":10905,"forced":10906,"Ġwinding":10907,"Ġvirulent":10908,"Ġorganiz":10909,"Ġdevices":10910,"Ġmaine":10911,"Ġdisposed":10912,"Ġtreacher":10913,"Ġ63":10914,"Ġsettling":10915,"Ġplanning":10916,"Ġbarbar":10917,"Ġgeograph":10918,"Ġuterus":10919,"Ġsummary":10920,"Ġvillain":10921,"Ġaccordance":10922,"Ġpenis":10923,"Ġdescribing":10924,"Ġvictor":10925,"Ġvictorious":10926,"Ġpowdered":10927,"Ġhaematoma":10928,"Ġhaemophil":10929,"Ġindications":10930,"Ġantagon":10931,"Ġ77":10932,"Ġmodel":10933,"Ġsadness":10934,"Ġforgiveness":10935,"Ġcreation":10936,"Ġconcerns":10937,"Ġincludes":10938,"Ġthickness":10939,"Ġ153":10940,"Ġwriter":10941,"Ġwinning":10942,"Ġsweeping":10943,"Ġpalate":10944,"Ġ136":10945,"Ġschoss":10946,"Ġurging":10947,"Ġencountered":10948,"Ġfibrin":10949,"Ġnodular":10950,"Ġtrusted":10951,"Ġbanker":10952,"Ġextensor":10953,"Ġviolation":10954,"Ġplanted":10955,"Ġironically":10956,"Ġosteoma":10957,"Ġauthorizing":10958,"trans":10959,"Ġdiscussions":10960,"Ġmulti":10961,"prognosis":10962,"Ġperformance":10963,"Ġderive":10964,"Ġnoticeable":10965,"Ġsmoking":10966,"Ġcostume":10967,"Ġconvince":10968,"Ġfluids":10969,"Ġscraping":10970,"Ġ328":10971,"Ġmanifestation":10972,"Ġconceive":10973,"ĠĠĠĠĠĠĠĠĠĠĠĠĠĠĠĠĠĠĠĠĠĠĠĠĠĠĠĠĠ":10974,"Ġnavigation":10975,"Ġboxes":10976,"Ġobligation":10977,"Ġbursting":10978,"without":10979,"Ġcommissioners":10980,"Ġdeceived":10981,"Ġ523":10982,"Ġtriumphant":10983,"Ġ1870":10984,"glaf":10985,"Ġmagnific":10986,"Ġeducational":10987,"Ġ269":10988,"Ġsplit":10989,"Ġreproached":10990,"Ġventil":10991,"Ġpictured":10992,"Ġhanged":10993,"Ġinstructed":10994,"Ġcontemptuous":10995,"Ġtsarev":10996,"Ġsafeguard":10997,"Ġundertake":10998,"Ġpipes":10999,"Ġ1787":11000,"Ġresource":11001,"skin":11002,"Ġsprain":11003,"Ġqueer":11004,"Ġdescending":11005,"Ġliterature":11006,"Ġrecurrent":11007,"Ġspectacle":11008,"Ġcraft":11009,"Ġshutters":11010,"Ġflourished":11011,"Ġproprietors":11012,"Ġdusty":11013,"oxide":11014,"Ġhesitating":11015,"Ġskillful":11016,"Ġdigital":11017,"Ġelevation":11018,"Ġfixing":11019,"Ġovertook":11020,"Ġribs":11021,"Ġscotland":11022,"Ġpelageya":11023,"Ġstrictly":11024,"Ġdeliberate":11025,"Ġreleased":11026,"Ġreproachfully":11027,"Ġcrackling":11028,"Ġultimate":11029,"Ġreluctant":11030,"Ġsecrets":11031,"Ġloyalty":11032,"Ġpondered":11033,"Ġanalysis":11034,"Ġimpatience":11035,"Ġbriefly":11036,"Ġinfinitely":11037,"Ġtransformation":11038,"Ġprosperous":11039,"Ġwelcome":11040,"Ġcoward":11041,"Ġtrifles":11042,"Ġaccurate":11043,"Ġneutrality":11044,"Ġamazed":11045,"Ġdreams":11046,"Ġexercises":11047,"Ġinauguration":11048,"Ġinaugurated":11049,"Ġmurmur":11050,"Ġdrugs":11051,"adenitis":11052,"www":11053,"Ġstooping":11054,"Ġpupils":11055,"Ġstitches":11056,"Ġunconstitutional":11057,"Ġchannel":11058,"Ġlawyer":11059,"Ġborrowed":11060,"Ġvaccine":11061,"Ġincapable":11062,"Ġpoliticians":11063,"Ġsymmetrical":11064,"Ġawakened":11065,"Ġinheritance":11066,"Ġglobe":11067,"Ġdisconcer":11068,"Ġrobbery":11069,"Ġcustoms":11070,"Ġargued":11071,"Ġestimated":11072,"Ġbewildered":11073,"Ġsemenovsk":11074,"Ġimpulses":11075,"Ġopenshaw":11076,"Ġharvest":11077,"synovitis":11078,"powder":11079,"Ġinsidious":11080,"Ġlandowner":11081,"gangrene":11082,"Ġdisgust":11083,"Ġoutposts":11084,"Ġapparatus":11085,"Ġdiscomfort":11086,"Ġfedorovna":11087,"Ġnutrition":11088,"Ġrhythm":11089,"Ġtilsit":11090,"Ġariz":11091,"Ġkolocha":11092,"Ġammunition":11093,"Ġimpracticable":11094,").=--":11095,"34":11096,"68":11097,"_)":11098,"bs":11099,"bly":11100,"bel":11101,"cus":11102,"dem":11103,"fin":11104,"finger":11105,"gre":11106,"ghed":11107,"great":11108,"hung":11109,"iour":11110,"lis":11111,"lah":11112,"mother":11113,"rat":11114,"somet":11115,"va":11116,"women":11117,"yellow":11118,"Ġ0":11119,"Ġtid":11120,"Ġtie":11121,"Ġtug":11122,"Ġtilled":11123,"Ġtune":11124,"Ġtyler":11125,"Ġawhile":11126,"Ġakin":11127,"Ġov":11128,"Ġoats":11129,"Ġogg":11130,"Ġsaint":11131,"Ġwattle":11132,"erness":11133,"onia":11134,"Ġboscombe":11135,"Ġcul":11136,"Ġhood":11137,"itively":11138,"Ġfow":11139,"Ġfuss":11140,"Ġps":11141,"Ġpect":11142,"Ġpear":11143,"Ġpicking":11144,"Ġmes":11145,"Ġtories":11146,"asper":11147,"Ġthiers":11148,"Ġthunder":11149,"llous":11150,"Ġnit":11151,"Ġheated":11152,"Ġgems":11153,"aline":11154,"adder":11155,"lyukov":11156,"otions":11157,"seem":11158,"cean":11159,"Ġonline":11160,"Ġwasting":11161,"Ġirene":11162,"Ġye":11163,"Ġanc":11164,"Ġrings":11165,"chinson":11166,"Ġnotably":11167,"Ġfraud":11168,"iles":11169,"Ġseal":11170,"Ġsealed":11171,"Ġdearest":11172,"Ġvul":11173,"Ġvile":11174,"Ġvlad":11175,"anda":11176,"andrew":11177,"Ġshan":11178,"Ġshaggy":11179,"acia":11180,"Ġherd":11181,"Ġexempt":11182,"Ġexasper":11183,"Ġsok":11184,"Ġsoaked":11185,"agues":11186,"Ġchis":11187,"Ġchlor":11188,"Ġproc":11189,"Ġproving":11190,"istrib":11191,"igible":11192,"Ġarises":11193,"Ġwholly":11194,"Ġspy":11195,"Ġspind":11196,"Ġmeat":11197,"Ġmeal":11198,"Ġmelyukov":11199,"Ġintegr":11200,"Ġfees":11201,"Ġfeeding":11202,"Ġuniting":11203,"Ġunwill":11204,"Ġunjust":11205,"Ġprinting":11206,"Ġdiscer":11207,"iven":11208,"Ġadored":11209,"Ġknaps":11210,"Ġcock":11211,"Ġoutstanding":11212,"Ġenfranch":11213,"Ġclatter":11214,"Ġclimate":11215,"endent":11216,"Ġtram":11217,"Ġtramp":11218,"Ġunderm":11219,"Ġreserved":11220,"Ġcommences":11221,"Ġblaz":11222,"Ġblowing":11223,"Ġremind":11224,"Ġindisp":11225,"Ġoverse":11226,"Ġbeck":11227,"epithe":11228,"Ġnowadays":11229,"haworth":11230,"Ġperone":11231,"Ġgrains":11232,"phy":11233,"Ġflame":11234,"Ġflushing":11235,"Ġdaylight":11236,"Ġscur":11237,"Ġscant":11238,"Ġstring":11239,"Ġstrangers":11240,"Ġsurm":11241,"okes":11242,"Ġgreatcoat":11243,"athy":11244,"Ġdescent":11245,"Ġdeserved":11246,"Ġ1816":11247,"Ġ1848":11248,"Ġmetallic":11249,"Ġstillness":11250,"rup":11251,"Ġdistended":11252,"ĠĠĠĠĠĠĠĠĠĠĠĠĠĠĠĠĠĠĠĠĠĠĠ":11253,"hess":11254,"Ġretic":11255,"Ġdiffer":11256,"Ġassault":11257,"Ġengross":11258,"Ġpetitions":11259,"Ġpatch":11260,"Ġpowerless":11261,"Ġexpressions":11262,"Ġrests":11263,"Ġlegitimate":11264,"Ġserves":11265,"Ġpharynx":11266,"Ġguilt":11267,"Ġvariations":11268,"Ġinspir":11269,"Ġcontinual":11270,"Ġirrep":11271,"Ġconstituted":11272,"Ġfinances":11273,"Ġredistrib":11274,"Ġconvict":11275,"shaven":11276,"Ġcran":11277,"Ġboards":11278,"Ġboils":11279,"Ġtrodden":11280,"Ġdetachments":11281,"Ġoppress":11282,"Ġtendencies":11283,"Ġtransaction":11284,"Ġpromises":11285,"Ġprevents":11286,"Ġlighting":11287,"Ġpresidents":11288,"Ġpoet":11289,"Ġlanded":11290,"Ġkindness":11291,"Ġcollapse":11292,"Ġfooting":11293,"although":11294,"Ġdifferentiated":11295,"Ġcharacterized":11296,"Ġvaska":11297,"Ġheartily":11298,"Ġheavens":11299,"Ġbux":11300,"Ġbuying":11301,"Ġfibula":11302,"Ġdeepest":11303,"Ġequival":11304,"Ġ64":11305,"Ġ67":11306,"Ġemployer":11307,"Ġplanned":11308,"Ġpleasantly":11309,"Ġrealizing":11310,"Ġsnatched":11311,"Ġhairs":11312,"Ġexceptions":11313,"Ġseparates":11314,"Ġseparately":11315,"Ġdinners":11316,"Ġ162":11317,"Ġjoys":11318,"Ġdebates":11319,"Ġverd":11320,"Ġ92":11321,"Ġstripped":11322,"Ġ101":11323,"Ġ109":11324,"Ġfreedmen":11325,"Ġmistakes":11326,"Ġprobe":11327,"Ġeighth":11328,"Ġceiling":11329,"Ġrubbish":11330,"Ġ86":11331,"Ġmalign":11332,"Ġsolic":11333,"Ġ151":11334,"Ġbrightened":11335,"before":11336,"Ġfatig":11337,"Ġsupporting":11338,"Ġfixedly":11339,"Ġpretending":11340,"Ġcommunicate":11341,"Ġprayers":11342,"Ġabandonment":11343,"Ġmisunder":11344,"Ġmisfortun":11345,"Ġmaiden":11346,"Ġstretch":11347,"black":11348,"Ġ1910":11349,"Ġrestrict":11350,"Ġbirds":11351,"Ġgrandfather":11352,"Ġperforming":11353,"Ġdiagnosed":11354,"Ġstruggled":11355,"Ġsciences":11356,"Ġbondage":11357,"Ġvanqu":11358,"Ġ201":11359,"Ġ1806":11360,"Ġpersonality":11361,"Ġthorax":11362,"Ġcordial":11363,"Ġharmony":11364,"Ġchestnut":11365,"Ġ438":11366,"Ġcouch":11367,"Ġvirtuous":11368,"Ġyielded":11369,"Ġunfav":11370,"Ġ271":11371,"Ġ502":11372,"Ġpurchased":11373,"Ġxxx":11374,"Ġwondering":11375,"Ġshoot":11376,"Ġpitiful":11377,"Ġlatin":11378,"Ġ492":11379,"Ġpersistence":11380,"Ġreveal":11381,"Ġfortunately":11382,"Ġhutchinson":11383,"Ġexchanging":11384,"Ġpredisp":11385,"certainly":11386,"Ġbitterness":11387,"Ġinstituted":11388,"Ġundertaken":11389,"Ġbelongs":11390,"Ġirregularly":11391,"Ġturk":11392,"Ġsloughing":11393,"Ġmaintaining":11394,"Ġhydat":11395,"Ġcicatrix":11396,"Ġadvocate":11397,"Ġtoller":11398,"Ġwilderness":11399,"Ġranges":11400,"Ġcondemning":11401,"Ġstimulated":11402,"Ġinvestig":11403,"Ġlumber":11404,"Ġfacult":11405,"Ġawkwardly":11406,"Ġwoolen":11407,"Ġquantities":11408,"Ġpossessions":11409,"Ġvaguely":11410,"Ġmobility":11411,"ckinridge":11412,"Ġalbany":11413,"Ġvalued":11414,"Ġaltar":11415,"Ġdisplaying":11416,"organisms":11417,"Ġabundance":11418,"Ġuneasy":11419,"Ġmedulla":11420,"fibromatosis":11421,"Ġgleamed":11422,"Ġtwitched":11423,"Ġerrors":11424,"Ġintelligence":11425,"ariat":11426,"Ġscrewed":11427,"Ġdesigns":11428,"varieties":11429,"Ġfiercely":11430,"equal":11431,"whether":11432,"Ġtonight":11433,"Ġwandered":11434,"Ġmontana":11435,"Ġaristocratic":11436,"Ġsparkling":11437,"Ġmitenka":11438,"Ġproximal":11439,"Ġproximity":11440,"Ġadvisable":11441,"Ġgroaned":11442,"Ġstreptococci":11443,"Ġimpatiently":11444,"Ġcigar":11445,"Ġperspiring":11446,"Ġgonorrhoeal":11447,"Ġpustule":11448,"Ġgrievances":11449,"diffuse":11450,"Ġstaphylococcus":11451,"Ġspinning":11452,"Ġmonopoly":11453,"Ġmagnanimity":11454,"Ġmourn":11455,"Ġoriental":11456,"Ġstubborn":11457,"Ġunchanged":11458,"Ġtelegr":11459,"Ġbohemia":11460,"Ġskiagrams":11461,"Ġvenezuela":11462,"Ġfutile":11463,"Ġspirochaete":11464,"Ġadenoma":11465,"Ġcausation":11466,"Ġsatisfy":11467,"Ġsustain":11468,"Ġshelter":11469,"besides":11470,"Ġwondered":11471,"Ġureth":11472,"thalm":11473,"Ġplunged":11474,"Ġlaunched":11475,"Ġdisagreeable":11476,"Ġpaget":11477,"Ġentitled":11478,"Ġreddish":11479,"Ġasylum":11480,"Ġanisya":11481,"Ġarchduke":11482,"Ġguerrilla":11483,"Ġelicited":11484,"bacillus":11485,"Ġireland":11486,"Ġseizure":11487,"Ġdisastrous":11488,"Ġarizona":11489,"lahoma":11490,"Ġvladim":11491,"Ġequivalent":11492,"Ġmisfortunes":11493,"'?\"":11494,"05":11495,"bus":11496,"bag":11497,"both":11498,"ca":11499,"cor":11500,"cour":11501,"drew":11502,"dling":11503,"free":11504,"hil":11505,"jack":11506,"lance":11507,"love":11508,"part":11509,"pglaf":11510,"rust":11511,"sed":11512,"sch":11513,"sclerosis":11514,"uity":11515,"ucci":11516,"wr":11517,"wounds":11518,"Ġtin":11519,"held":11520,"Ġaward":11521,"Ġowed":11522,"Ġsess":11523,"Ġwint":11524,"erating":11525,"erob":11526,"Ġbou":11527,"Ġbite":11528,"isons":11529,"Ġcared":11530,"Ġcush":11531,"Ġcash":11532,"Ġfain":11533,"Ġfant":11534,"Ġfits":11535,"Ġfanci":11536,"Ġfancies":11537,"Ġpatted":11538,"escend":11539,"Ġinch":11540,"Ġinability":11541,"Ġdit":11542,"Ġdine":11543,"Ġdirt":11544,"Ġdashing":11545,"Ġdangers":11546,"Ġtoil":11547,"Ġtoler":11548,"orous":11549,"Ġlid":11550,"Ġlap":11551,"Ġlivid":11552,"Ġlumb":11553,"Ġnucle":11554,"Ġheredit":11555,"icing":11556,"icates":11557,"Ġerected":11558,"Ġejac":11559,"Ġgou":11560,"Ġgaining":11561,"Ġgarr":11562,"alo":11563,"added":11564,"Ġrecess":11565,"Ġreapp":11566,"othed":11567,"cting":11568,"Ġwithdrew":11569,"lding":11570,"ayed":11571,"Ġascertain":11572,"Ġsting":11573,"Ġstore":11574,"Ġstap":11575,"Ġstumbled":11576,"Ġry":11577,"Ġrand":11578,"Ġconcess":11579,"Ġfruits":11580,"olar":11581,"Ġseam":11582,"Ġdevel":11583,"Ġsuic":11584,"riers":11585,"riend":11586,"Ġshake":11587,"Ġshattered":11588,"Ġshifting":11589,"Ġkarp":11590,"Ġexost":11591,"Ġexclude":11592,"Ġbutler":11593,"thor":11594,"Ġcomment":11595,"again":11596,"ifice":11597,"Ġsab":11598,"Ġsax":11599,"Ġsabers":11600,"Ġsaphe":11601,"Ġchains":11602,"uma":11603,"umps":11604,"abby":11605,"Ġardent":11606,"Ġross":11607,"Ġintent":11608,"Ġability":11609,"Ġabomin":11610,"Ġunbut":11611,"Ġunnot":11612,"Ġunique":11613,"Ġdisd":11614,"Ġdisorders":11615,"Ġdisadv":11616,"iva":11617,"ivier":11618,"Ġtheirs":11619,"raz":11620,"unau":11621,"ureus":11622,"Ġknit":11623,"Ġcode":11624,"Ġmayor":11625,"Ġoutbreak":11626,"Ġenabled":11627,"Ġplates":11628,"Ġplunder":11629,"keep":11630,"iber":11631,"Ġevac":11632,"Ġappet":11633,"Ġcontused":11634,"Ġcontented":11635,"Ġcontaminated":11636,"Ġoffers":11637,"Ġpiercing":11638,"assium":11639,"Ġpartners":11640,"Ġtimber":11641,"Ġemac":11642,"Ġcommod":11643,"Ġbland":11644,"Ġremorse":11645,"Ġoverfl":11646,"Ġtwist":11647,"Ġhanding":11648,"Ġhandful":11649,"Ġhandling":11650,"Ġperons":11651,"Ġperceptible":11652,"Ġgrin":11653,"Ġglove":11654,"Ġeveryday":11655,"Ġprey":11656,"Ġprejud":11657,"Ġprecip":11658,"Ġattachment":11659,"Ġexposing":11660,"Ġlongus":11661,"Ġscout":11662,"Ġdowncast":11663,"Ġstrained":11664,"Ġslack":11665,"Ġregain":11666,"Ġsyring":11667,"Ġobedience":11668,"Ġentrench":11669,"Ġmustn":11670,"Ġactively":11671,"Ġsubj":11672,"neur":11673,"Ġsket":11674,"Ġpolk":11675,"ĠĠĠĠĠĠĠĠĠĠĠĠĠĠĠĠĠ":11676,"ĠĠĠĠĠĠĠĠĠĠĠĠĠĠĠĠĠĠĠ":11677,"Ġconfer":11678,"Ġsuppress":11679,"Ġreliance":11680,"Ġretal":11681,"ogue":11682,"Ġdifferences":11683,"Ġendowed":11684,"Ġcondescend":11685,"Ġcharcot":11686,"cera":11687,"Ġcourte":11688,"Ġtalks":11689,"Ġbloody":11690,"Ġpurification":11691,"Ġdemarc":11692,"undered":11693,"Ġsimulate":11694,"Ġminnes":11695,"Ġministry":11696,"Ġguid":11697,"Ġlimp":11698,"Ġconval":11699,"itsa":11700,"Ġcrust":11701,"Ġboiled":11702,"Ġorderlies":11703,"Ġdecade":11704,"Ġoppose":11705,"Ġsentiments":11706,"Ġ193":11707,"Ġ194":11708,"Ġ195":11709,"Ġswung":11710,"arsal":11711,"Ġimmob":11712,"Ġcommonplace":11713,"Ġtransition":11714,"Ġtransmit":11715,"Ġrapture":11716,"Ġviscera":11717,"Ġpersonages":11718,"Ġlocomot":11719,"Ġdivide":11720,"Ġtermed":11721,"althy":11722,"ronted":11723,"Ġsingers":11724,"Ġdevital":11725,"Ġdirector":11726,"cluding":11727,"Ġ65":11728,"Ġcarelessly":11729,"Ġlawn":11730,"Ġsenile":11731,"Ġsoften":11732,"Ġsoftening":11733,"Ġhairy":11734,"Ġimpossibility":11735,"Ġsuccumb":11736,"Ġforceps":11737,"Ġvalid":11738,"Ġelectro":11739,"Ġlocality":11740,"Ġseparating":11741,"Ġulcerated":11742,"Ġerie":11743,"going":11744,"Ġimagining":11745,"Ġzak":11746,"Ġrider":11747,"Ġacquisition":11748,"Ġrespecting":11749,"Ġrespectable":11750,"Ġsuperadded":11751,"autions":11752,"Ġwhisky":11753,"Ġembroid":11754,"Ġquarre":11755,"Ġcyril":11756,"Ġexclusion":11757,"Ġ82":11758,",'\"":11759,"Ġenlight":11760,"Ġ158":11761,"Ġcopying":11762,"Ġwritings":11763,"ĠĠĠĠĠĠĠĠĠĠĠĠĠĠĠĠĠĠĠĠĠĠĠĠĠĠĠĠĠĠĠĠĠĠĠ":11764,"Ġboundaries":11765,"Ġhaemorrhages":11766,"Ġcombat":11767,"Ġlifeless":11768,"Ġ130":11769,"Ġ139":11770,"Ġbeginnings":11771,"Ġ117":11772,"Ġdissensions":11773,"Ġcommunicated":11774,"Ġbandages":11775,"coloured":11776,"Ġirritable":11777,"Ġdetermining":11778,"Ġenlarge":11779,"Ġviolently":11780,"Ġosteo":11781,"Ġeconom":11782,"Ġ147":11783,"Ġimplied":11784,"Ġcitizenship":11785,"proach":11786,"Ġgroans":11787,"Ġpeculiarly":11788,"Ġconvincing":11789,"Ġscient":11790,"Ġphysiological":11791,"Ġsocialists":11792,"Ġparaly":11793,"Ġbraunau":11794,"Ġapartments":11795,"Ġspores":11796,"Ġspokes":11797,"Ġdiminishing":11798,"asket":11799,"Ġstationary":11800,"Ġspecies":11801,"Ġcathed":11802,"Ġvirtues":11803,"Ġ426":11804,"Ġcastle":11805,"Ġ501":11806,"Ġchoked":11807,"Ġsplashing":11808,"Ġ239":11809,"Ġpitied":11810,"Ġlatent":11811,"Ġconclusions":11812,"Ġ491":11813,"Ġjerked":11814,"Ġdoctrines":11815,"Ġresolve":11816,"Ġglandular":11817,"Ġscreen":11818,"Ġpotassium":11819,"Ġgummata":11820,"Ġconservation":11821,"Ġpatriots":11822,"Ġpriests":11823,"Ġbitterly":11824,"Ġmotives":11825,"Ġbrownish":11826,"Ġpillows":11827,"Ġ1789":11828,"Ġdisturbances":11829,"egration":11830,"Ġunpleasantly":11831,"Ġroutes":11832,"Ġsuspended":11833,"Ġruled":11834,"Ġgrasping":11835,"Ġdeduce":11836,"Ġwhites":11837,"Ġfolds":11838,"Ġ382":11839,"Ġembracing":11840,"Ġmonarchs":11841,"Ġshrill":11842,"Ġcarbuncle":11843,"Ġhinder":11844,"Ġflowers":11845,"Ġcardiac":11846,"Ġprussian":11847,"Ġexceeded":11848,"Ġcriminals":11849,"Ġproofs":11850,"Ġkeenly":11851,"Ġsimplest":11852,"Ġunnaturally":11853,"Ġadmiration":11854,"Ġsanction":11855,"Ġsongs":11856,"Ġphrases":11857,"anese":11858,"Ġincidents":11859,"Ġgreyish":11860,"Ġcontroversies":11861,"Ġenvy":11862,"Ġprivilege":11863,"Ġberthier":11864,"Ġchondromas":11865,"Ġinstinctively":11866,"Ġobliteration":11867,"Ġphilippine":11868,"Ġconfederates":11869,"Ġkrems":11870,"Ġcarpent":11871,"Ġrendering":11872,"Ġemphas":11873,"Ġprecision":11874,"Ġprecautions":11875,"Ġhomesteads":11876,"Ġhuntsmen":11877,"Ġalternative":11878,"Ġgoverning":11879,"Ġcommissariat":11880,"Ġcalcification":11881,"Ġneighbouring":11882,"Ġpersuade":11883,"Ġpersuaded":11884,"Ġinvolvement":11885,"lymphang":11886,"Ġfrancisco":11887,"Ġvehicle":11888,"Ġclutching":11889,"Ġfibrosa":11890,"Ġwandering":11891,"Ġsubstitute":11892,"atellar":11893,"Ġchannels":11894,"Ġpaulucci":11895,"Ġwarts":11896,"Ġascended":11897,"Ġragged":11898,"Ġparticipation":11899,"Ġrescue":11900,"Ġdecorations":11901,"commission":11902,"Ġsarcom":11903,"Ġnomination":11904,"Ġsanta":11905,"Ġgrenad":11906,"Ġperfection":11907,"Ġrelaxed":11908,"Ġbogdanich":11909,"Ġdrowned":11910,"Ġglycer":11911,"Ġsurvey":11912,"Ġinterpreter":11913,"Ġteachers":11914,"Ġinsurrection":11915,"Ġextravasated":11916,"Ġseventeenth":11917,"Ġhudson":11918,"Ġanteced":11919,"Ġenumerate":11920,"Ġactinomycosis":11921,"Ġwitty":11922,"Ġensure":11923,"Ġperceive":11924,"Ġordinance":11925,"Ġshrieked":11926,"Ġpiteous":11927,"Ġpuzzled":11928,"Ġpamphlets":11929,"Ġdeemed":11930,"Ġhumiliating":11931,"Ġcharacteristics":11932,"Ġbayonets":11933,"federalists":11934,"pentine":11935,"Ġgospel":11936,"Ġdissemination":11937,"Ġgrabern":11938,"Ġconspiracy":11939,"Ġendothelium":11940,"Ġhawaii":11941,"Ġecho":11942,"Ġgaiety":11943,"stein":11944,"periosteal":11945,"Ġoklahoma":11946,"Ġsuperintendent":11947,"Ġincoherent":11948,"Ġorganizations":11949,"Ġtreachery":11950,"Ġmultipl":11951,"Ġventilator":11952,"green":11953,"Ġancest":11954,"Ġunwilling":11955,"Ġengrossed":11956,"Ġirrepressible":11957,"Ġfancied":11958,"Ġhereditary":11959,"Ġconcessions":11960,"Ġdevelops":11961,"Ġexostoses":11962,"Ġsaphena":11963,"Ġunnoticed":11964,"Ġdisadvant":11965,"Ġperonskaya":11966,"Ġdemarcation":11967,"39":11968,"aver":11969,"apped":11970,"cra":11971,"cking":11972,"dam":11973,"eff":11974,"fol":11975,"gings":11976,"having":11977,"hips":11978,"houses":11979,"half":11980,"mac":11981,"made":11982,"mastoid":11983,"none":11984,"name":11985,"ogel":11986,"pes":11987,"pur":11988,"rance":11989,"rick":11990,"rising":11991,"spr":11992,"sighted":11993,"town":11994,"tail":11995,"uis":11996,"vada":11997,"wen":11998,"wall":11999,"wide":12000,"yet":12001,"zled":12002,"Ġich":12003,"Ġocean":12004,"Ġsession":12005,"Ġbolk":12006,"itinov":12007,"Ġpanting":12008,"Ġpatell":12009,"Ġmb":12010,"Ġmim":12011,"Ġmumm":12012,"Ġdad":12013,"Ġtools":12014,"anat":12015,"assured":12016,"Ġling":12017,"Ġlag":12018,"Ġlint":12019,"Ġlanger":12020,"Ġlacked":12021,"Ġlakes":12022,"Ġecc":12023,"lemen":12024,"Ġgast":12025,"Ġgel":12026,"Ġgait":12027,"Ġgulf":12028,"Ġrecl":12029,"roll":12030,"stoy":12031,"utable":12032,"ider":12033,"Ġuv":12034,"urate":12035,"urbed":12036,"Ġaspir":12037,"Ġstones":12038,"Ġiogel":12039,"Ġyawn":12040,"Ġyakov":12041,"Ġanast":12042,"Ġray":12043,"Ġrip":12044,"Ġront":12045,"Ġrigor":12046,"Ġhaul":12047,"amiliar":12048,"rescent":12049,"usage":12050,"Ġvision":12051,"Ġshrugg":12052,"illes":12053,"think":12054,"Ġsailing":12055,"apesh":12056,"Ġchalk":12057,"estion":12058,"Ġprost":12059,"isturbed":12060,"ige":12061,"Ġwhoever":12062,"Ġjab":12063,"Ġspell":12064,"ustice":12065,"Ġroast":12066,"Ġintol":12067,"Ġintend":12068,"operative":12069,"Ġunits":12070,"Ġunanim":12071,"Ġunworthy":12072,"Ġmanly":12073,"Ġamen":12074,"unculated":12075,"Ġoutset":12076,"Ġoutfl":12077,"Ġoutput":12078,"Ġenr":12079,"Ġplains":12080,"active":12081,"ibilities":12082,"eling":12083,"acking":12084,"Ġclark":12085,"Ġpierce":12086,"Ġtraced":12087,"Ġsmeared":12088,"Ġresort":12089,"Ġresounded":12090,"Ġcounties":12091,"Ġsomehow":12092,"Ġemail":12093,"Ġrepud":12094,"ubey":12095,"Ġblamed":12096,"Ġbladder":12097,"Ġinducing":12098,"rewell":12099,"Ġoverhe":12100,"Ġoverlooked":12101,"Ġwills":12102,"arers":12103,"Ġpea":12104,"Ġperception":12105,"Ġinfring":12106,"Ġglowing":12107,"Ġarmfe":12108,"Ġcompass":12109,"Ġcomprehensible":12110,"Ġcomprehend":12111,"Ġpreob":12112,"Ġprecise":12113,"Ġbeforehand":12114,"Ġpresently":12115,"Ġpresume":12116,"erves":12117,"Ġscor":12118,"Ġslim":12119,"Ġmenacing":12120,"Ġsyll":12121,"nah":12122,"athom":12123,"jected":12124,"nings":12125,"Ġspeeches":12126,"Ġmetivier":12127,"Ġ413":12128,"ĠĠĠĠĠĠĠĠĠĠĠĠĠĠĠĠĠĠ":12129,"Ġconfession":12130,"Ġconfisc":12131,"Ġrelent":12132,"Ġrelatively":12133,"Ġdiffused":12134,"Ġhappier":12135,"Ġassented":12136,"Ġcorrected":12137,"Ġreader":12138,"Ġreadable":12139,"Ġrefined":12140,"Ġreferences":12141,"Ġdefine":12142,"Ġinvented":12143,"Ġnaples":12144,"Ġbrodie":12145,"Ġlastly":12146,"Ġmax":12147,"Ġexpressly":12148,"Ġearn":12149,"Ġhorner":12150,"Ġkeys":12151,"Ġpurified":12152,"Ġminority":12153,"Ġcaul":12154,"Ġcavern":12155,"Ġinsol":12156,"Ġcontinuously":12157,"Ġmoran":12158,"Ġmomentary":12159,"Ġconstituting":12160,"Ġsink":12161,"Ġholiday":12162,"Ġadmired":12163,"Ġcertainty":12164,"Ġcracked":12165,"Ġboone":12166,"hovitinov":12167,"Ġbehav":12168,"Ġimportation":12169,"Ġestimate":12170,"Ġlabored":12171,"Ġswing":12172,"Ġswamp":12173,"Ġswallow":12174,"Ġcentered":12175,"Ġlistless":12176,"Ġcurled":12177,"Ġtransp":12178,"Ġprophe":12179,"uctions":12180,"Ġworldly":12181,"Ġdiscour":12182,"Ġdiscretion":12183,"Ġbreckinridge":12184,"Ġprotrud":12185,"ecided":12186,"Ġtraitors":12187,"Ġdifferential":12188,"Ġinjurious":12189,"Ġinjustice":12190,"Ġdevoid":12191,"Ġdrawer":12192,"Ġdirecting":12193,"Ġdispose":12194,"Ġdisputed":12195,"Ġepis":12196,"Ġlinks":12197,"Ġ62":12198,"Ġcoldness":12199,"Ġappealed":12200,"Ġpleasures":12201,"Ġstrongest":12202,"Ġsystems":12203,"Ġassociate":12204,"Ġbaron":12205,"Ġgreed":12206,"Ġelectron":12207,"Ġstartling":12208,"Ġideals":12209,"Ġ166":12210,"howden":12211,"Ġpayments":12212,"Ġsque":12213,"Ġconversing":12214,"Ġsalary":12215,"Ġsalts":12216,"Ġsalvation":12217,"Ġobservations":12218,"Ġsterno":12219,"Ġsterilis":12220,"Ġfortified":12221,"Ġ96":12222,"Ġ97":12223,"Ġstrips":12224,"Ġaffectation":12225,"Ġ75":12226,"Ġ104":12227,"Ġsensible":12228,"Ġ*[":12229,"Ġgunpowder":12230,"Ġlowell":12231,"Ġloans":12232,"Ġceases":12233,"Ġdoubtless":12234,"Ġmilka":12235,"Ġ87":12236,"Ġundressing":12237,"Ġundisturbed":12238,"Ġundecided":12239,"Ġ1869":12240,"Ġcancerous":12241,"Ġ150":12242,"Ġ152":12243,"beard":12244,"Ġobjected":12245,"Ġlibrary":12246,"Ġpathogenic":12247,"shend":12248,"Ġbounds":12249,"Ġpalmar":12250,"Ġ132":12251,"Ġ134":12252,"Ġurgent":12253,"Ġarresting":12254,"Ġdissip":12255,"Ġrisks":12256,"sett":12257,"Ġintroducing":12258,"does":12259,"hevo":12260,"Ġimproving":12261,"Ġ120":12262,"Ġfloating":12263,"Ġmiserable":12264,"domo":12265,"Ġbursitis":12266,"Ġ1916":12267,"Ġ1919":12268,"Ġrestraint":12269,"Ġrestriction":12270,"Ġdiscussing":12271,"Ġheroism":12272,"Ġwarmth":12273,"engers":12274,"Ġbondmen":12275,"Ġplatov":12276,"Ġ208":12277,"Ġfrock":12278,"Ġscratch":12279,"Ġ307":12280,"Ġgrip":12281,"Ġastounding":12282,"Ġreforms":12283,"ĠĠĠĠĠĠĠĠĠĠĠĠĠĠĠĠĠĠĠĠĠĠĠĠĠĠĠĠ":12284,"ĠĠĠĠĠĠĠĠĠĠĠĠĠĠĠĠĠĠĠĠĠĠĠĠĠĠĠĠĠĠ":12285,"hensk":12286,"Ġsobbed":12287,"Ġconflicts":12288,"Ġcleanliness":12289,"Ġsubstant":12290,"Ġ462":12291,"Ġ1775":12292,"nesday":12293,"Ġpursue":12294,"Ġdeceive":12295,"Ġ1872":12296,"Ġmagnitude":12297,"Ġunfamiliar":12298,"Ġxxi":12299,"Ġworthless":12300,"Ġ405":12301,"Ġcontracts":12302,"papa":12303,"Ġpositively":12304,"Ġshafts":12305,"Ġ393":12306,"Ġsickness":12307,"Ġtoxin":12308,"Ġaccidents":12309,"Ġcheerfully":12310,"Ġgateway":12311,"Ġscreams":12312,"fourths":12313,"Ġambition":12314,"Ġvacancies":12315,"Ġobstruction":12316,"Ġobstinate":12317,"Ġmaturity":12318,"Ġwhistled":12319,"Ġprotecting":12320,"Ġfashionable":12321,"Ġdedicated":12322,"Ġexperiments":12323,"Ġrejoined":12324,"Ġhunters":12325,"Ġstimulating":12326,"ochubey":12327,"Ġwednesday":12328,"Ġsurgeons":12329,"Ġaccumulated":12330,"Ġcrimson":12331,"Ġproposals":12332,"Ġcherished":12333,"Ġhartford":12334,"Ġconsulting":12335,"Ġbreathless":12336,"Ġpuncture":12337,"Ġadmirable":12338,"Ġnursing":12339,"Ġtraveled":12340,"Ġtribun":12341,"Ġsearched":12342,"Ġdeeds":12343,"Ġphenomenon":12344,"Ġpioneer":12345,"Ġcauter":12346,"Ġcautery":12347,"Ġberlin":12348,"Ġcontributions":12349,"Ġingrat":12350,"Ġlacking":12351,"Ġanalog":12352,"Ġmagic":12353,"Ġrhodes":12354,"Ġcarpets":12355,"Ġphilosoph":12356,"Ġcowboy":12357,"Ġmicros":12358,"Ġgratefully":12359,"Ġpoult":12360,"Ġretirement":12361,"Ġwarranties":12362,"Ġbetrayed":12363,"Ġnourishment":12364,"Ġcoffin":12365,"Ġgloomily":12366,"Ġkuzmich":12367,"Ġbundle":12368,"Ġrickety":12369,"Ġcoinage":12370,"Ġcounteract":12371,"Ġhemp":12372,"gentlemen":12373,"Ġclutched":12374,"Ġfibrositis":12375,"Ġincessant":12376,"Ġpilgrim":12377,"Ġaristocracy":12378,"Ġfluctuating":12379,"Ġchampion":12380,"Ġclimbed":12381,"Ġsilly":12382,"Ġamusement":12383,"subcutaneous":12384,"Ġtortuous":12385,"Ġcultivation":12386,"Ġpneumonia":12387,"Ġdeafening":12388,"Ġklapp":12389,"Ġmelted":12390,"Ġlawyers":12391,"Ġdiscontent":12392,"Ġmoaning":12393,"Ġpigmentation":12394,"Ġmetastases":12395,"Ġperspiration":12396,"Ġobscure":12397,"Ġgonorrhoea":12398,"strept":12399,"umberland":12400,"Ġapproximately":12401,"Ġnetwork":12402,"Ġstaircase":12403,"Ġstaggered":12404,"oplasm":12405,"aunted":12406,"Ġindirectly":12407,"Ġflattering":12408,"Ġinsensitive":12409,"Ġfleeing":12410,"Ġtipsy":12411,"Ġcorpuscles":12412,"Ġlonely":12413,"Ġgrieved":12414,"Ġdancer":12415,"ropathies":12416,"Ġexalted":12417,"Ġrepulsed":12418,"Ġintercourse":12419,"Ġtroyka":12420,"Ġdismissed":12421,"Ġfascinating":12422,"Ġjugular":12423,"Ġsyncope":12424,"Ġburdens":12425,"Ġsacrificed":12426,"between":12427,"Ġmixture":12428,"Ġrattled":12429,"Ġpraised":12430,"Ġdiaphysis":12431,"Ġobserver":12432,"injuries":12433,"Ġcaustic":12434,"Ġencapsulated":12435,"Ġinfrequently":12436,"Ġspecimen":12437,"Ġwyoming":12438,"Ġliquefaction":12439,"Ġdisconcerted":12440,"Ġbuxhowden":12441,"Ġfantastic":12442,"Ġdisdain":12443,"razhensk":12444,"Ġguidance":12445,"Ġcathedral":12446,"Ġbolkhovitinov":12447,"Ġlangeron":12448,"Ġgelat":12449,"Ġanastom":12450,"Ġrontgen":12451,"Ġshrugging":12452,"apeshot":12453,"Ġpreobrazhensk":12454,"72":12455,"914":12456,"aur":12457,"bable":12458,"bted":12459,"backs":12460,"canc":12461,"cran":12462,"dise":12463,"fitting":12464,"gly":12465,"grown":12466,"hon":12467,"iat":12468,"lon":12469,"life":12470,"mund":12471,"nected":12472,"power":12473,"rise":12474,"radi":12475,"sur":12476,"spe":12477,"tes":12478,"uent":12479,"western":12480,"yan":12481,"zur":12482,"Ġtu":12483,"Ġtout":12484,"Ġtucked":12485,"healing":12486,"Ġaureus":12487,"incy":12488,"infl":12489,"Ġoph":12490,"Ġorel":12491,"Ġsna":12492,"Ġwaged":12493,"Ġwander":12494,"Ġbour":12495,"Ġbiv":12496,"Ġbish":12497,"Ġbolkons":12498,"Ġbomb":12499,"Ġbiograph":12500,"Ġcrew":12501,"Ġcession":12502,"Ġcateg":12503,"Ġcumberland":12504,"Ġhue":12505,"Ġhook":12506,"Ġhints":12507,"ito":12508,"itious":12509,"Ġfol":12510,"Ġfus":12511,"Ġfost":12512,"Ġpell":12513,"Ġpine":12514,"Ġpenc":12515,"Ġpips":12516,"Ġmorm":12517,"Ġmold":12518,"Ġmask":12519,"Ġinherent":12520,"Ġdred":12521,"Ġdaz":12522,"Ġdwar":12523,"orters":12524,"another":12525,"Ġthud":12526,"Ġthief":12527,"Ġly":12528,"Ġlens":12529,"Ġlump":12530,"Ġlucky":12531,"Ġnort":12532,"Ġniz":12533,"Ġnasty":12534,"Ġheals":12535,"omata":12536,"Ġeth":12537,"lete":12538,"Ġgh":12539,"Ġgib":12540,"Ġbeings":12541,"Ġbeeches":12542,"alach":12543,"entured":12544,"Ġrevers":12545,"Ġrevel":12546,"rost":12547,"stop":12548,"immed":12549,"idal":12550,"otes":12551,"seven":12552,"owered":12553,"urable":12554,"urday":12555,"Ġstab":12556,"vering":12557,"Ġforge":12558,"Ġanton":12559,"Ġrome":12560,"Ġrusse":12561,"Ġrifle":12562,"ereal":12563,"erers":12564,"Ġframed":12565,"olis":12566,"Ġorche":12567,"uled":12568,"ulum":12569,"Ġselection":12570,"Ġdeity":12571,"Ġdepl":12572,"Ġsuited":12573,"Ġvolkonski":12574,"Ġshove":12575,"Ġshcher":12576,"Ġshivering":12577,"Ġshippers":12578,"Ġkochubey":12579,"acre":12580,"acon":12581,"acit":12582,"Ġexter":12583,"Ġsodden":12584,"ersper":12585,"ositis":12586,"illoma":12587,"Ġnevada":12588,"agic":12589,"Ġprone":12590,"Ġprair":12591,"Ġchatter":12592,"Ġallud":12593,"antry":12594,"Ġalice":12595,"igerent":12596,"Ġarab":12597,"Ġju":12598,"Ġjam":12599,"Ġjob":12600,"Ġjokes":12601,"Ġspared":12602,"Ġspots":12603,"Ġspending":12604,"Ġroots":12605,"Ġweigh":12606,"Ġmend":12607,"Ġuprising":12608,"Ġintending":12609,"opath":12610,"Ġleash":12611,"Ġleaf":12612,"Ġabr":12613,"Ġabashed":12614,"Ġfeed":12615,"Ġunrest":12616,"Ġunlim":12617,"Ġuncovered":12618,"Ġunimportant":12619,"resses":12620,"ouring":12621,"Ġdisordered":12622,"ivable":12623,"raved":12624,"raising":12625,"raemia":12626,"Ġadroit":12627,"ortions":12628,"geal":12629,"Ġmytish":12630,"ocity":12631,"Ġoutlet":12632,"Ġoutright":12633,"Ġenh":12634,"Ġenrolled":12635,"Ġenforced":12636,"Ġplot":12637,"Ġplow":12638,"Ġplight":12639,"Ġplumes":12640,"kel":12641,"Ġagg":12642,"!\"--":12643,"Ġquartered":12644,"Ġquincy":12645,"oderm":12646,"Ġclad":12647,"Ġappalach":12648,"Ġconting":12649,"Ġcontusion":12650,"endous":12651,"assy":12652,"urned":12653,"Ġresented":12654,"Ġcancers":12655,"Ġeminent":12656,"Ġrepay":12657,"Ġbrunn":12658,"Ġ(\"":12659,"aret":12660,"Ġpeering":12661,"Ġnatives":12662,"Ġperil":12663,"Ġgrapeshot":12664,"into":12665,"Ġcomposition":12666,"Ġimply":12667,"Ġprecisely":12668,"Ġattraction":12669,"Ġconspic":12670,"Ġflush":12671,"Ġbeggar":12672,"Ġpresum":12673,"Ġscab":12674,"Ġscorn":12675,"Ġfrenchwoman":12676,"Ġoldenburg":12677,"Ġslop":12678,"Ġsurpl":12679,"weather":12680,"Ġ212":12681,"whom":12682,"Ġdesk":12683,"Ġ1813":12684,"Ġpassengers":12685,"sores":12686,"Ġ31":12687,"...?\"":12688,"Ġmetrop":12689,"Ġ41":12690,"Ġ412":12691,"Ġskirm":12692,"Ġdistracted":12693,"Ġconfine":12694,"Ġconfessed":12695,"Ġconferences":12696,"Ġconfronted":12697,"hesis":12698,"Ġasserted":12699,"Ġcharters":12700,"Ġconstrict":12701,"Ġcapit":12702,"Ġstreamed":12703,"ritic":12704,"ontoma":12705,"ceptibly":12706,"Ġyoungest":12707,"Ġinstruction":12708,"Ġ500":12709,"Ġforesee":12710,"Ġsaturday":12711,"Ġdonate":12712,"Ġhorrid":12713,"Ġhorrors":12714,"Ġdepressing":12715,"Ġdrained":12716,"Ġbelova":12717,"Ġeliz":12718,"Ġsmallest":12719,"lihood":12720,"Ġwanting":12721,"Ġsoup":12722,"Ġpaint":12723,"._,":12724,"Ġvaried":12725,"Ġinsertion":12726,"Ġparce":12727,"ilians":12728,"Ġcrum":12729,"Ġcrash":12730,"Ġboat":12731,"Ġcaseous":12732,"Ġdecades":12733,"Ġtrop":12734,"Ġdetained":12735,"Ġesteem":12736,"Ġswear":12737,"Ġcenturies":12738,"Ġpromoting":12739,"Ġhalting":12740,"Ġhumble":12741,"Ġhumiliation":12742,"Ġexploration":12743,"Ġclearness":12744,"Ġhorsemen":12745,"Ġedmund":12746,"Ġdiscord":12747,"Ġsteep":12748,"Ġruins":12749,"Ġcollision":12750,"Ġcollapsed":12751,"Ġdividing":12752,"Ġtermination":12753,"Ġtrails":12754,"Ġmassive":12755,"Ġinjunction":12756,"Ġsingly":12757,"Ġorganic":12758,"Ġdevote":12759,"formed":12760,"forming":12761,"Ġmothers":12762,"Ġhearty":12763,"Ġbeds":12764,"Ġdispers":12765,"Ġdisputing":12766,"Ġdoubled":12767,"Ġlink":12768,"Ġmidday":12769,"Ġplanks":12770,"Ġfuller":12771,"exc":12772,"Ġtownshend":12773,"Ġcivilians":12774,"Ġsystematic":12775,"Ġsnake":12776,"Ġbarrel":12777,"Ġhydra":12778,"Ġposterity":12779,"Ġoccupying":12780,"Ġjewel":12781,"Ġvisiting":12782,"Ġdeveloping":12783,"rically":12784,"Ġrequires":12785,"Ġsacrif":12786,"Ġsacculated":12787,"Ġznaim":12788,"Ġassuming":12789,"Ġvert":12790,"Ġsuperfl":12791,"Ġscarf":12792,"Ġhusbands":12793,"Ġantip":12794,"Ġforeigner":12795,"Ġembar":12796,"Ġprobability":12797,"Ġweakened":12798,"Ġapology":12799,"Ġ85":12800,"Ġfarewell":12801,"Ġcream":12802,"Ġfreshly":12803,"Ġundressed":12804,"Ġharb":12805,"Ġ156":12806,"Ġaccepting":12807,"Ġadminister":12808,"Ġindebted":12809,"Ġobjection":12810,"Ġexpectations":12811,"Ġsecretion":12812,"Ġbitch":12813,"Ġcapitalists":12814,"Ġadministrative":12815,"Ġsweep":12816,"Ġsweating":12817,"Ġoriginally":12818,"Ġfuneral":12819,"sterical":12820,"Ġdemanding":12821,"Ġcryst":12822,"Ġhastening":12823,"Ġremainder":12824,"Ġcounc":12825,"Ġprett":12826,"Ġgenerosity":12827,"color":12828,"Ġblend":12829,"Ġnodding":12830,"Ġirritant":12831,"Ġirritating":12832,"Ġsupra":12833,"Ġimproper":12834,"Ġlodged":12835,"blasts":12836,"Ġroyalty":12837,"Ġpurposely":12838,"Ġlords":12839,"Ġdmitri":12840,"Ġempowered":12841,"Ġ140":12842,"Ġimplicate":12843,"Ġgrandeur":12844,"Ġdetailed":12845,"Ġpeculiarities":12846,"Ġfarthest":12847,"Ġexerted":12848,"Ġwhispers":12849,"Ġcannonade":12850,"Ġcomforting":12851,"Ġcomfortably":12852,"Ġresemblance":12853,"Ġwithdrawing":12854,"Ġconsistent":12855,"Ġcritics":12856,"Ġ434":12857,"Ġdanil":12858,"Ġcoughed":12859,"Ġ361":12860,"Ġgreenback":12861,"Ġdeceased":12862,"Ġiodide":12863,"Ġ428":12864,"Ġsolemnity":12865,"glass":12866,"Ġfills":12867,"arrh":12868,"Ġshooting":12869,"Ġspringing":12870,"Ġenormously":12871,"Ġthrob":12872,"Ġconducting":12873,"Ġmechanism":12874,"Ġmechanically":12875,"Ġsuggesting":12876,"Ġdilig":12877,"Ġglanders":12878,"Ġ1904":12879,"Ġ1907":12880,"Ġattendant":12881,"Ġ294":12882,"maid":12883,"Ġconfirmation":12884,"Ġcornwall":12885,"Ġundergoing":12886,"Ġobstin":12887,"Ġobstacle":12888,"Ġgreetings":12889,"Ġmerryweather":12890,"Ġsamo":12891,"Ġnoncommission":12892,"Ġivory":12893,"Ġeaten":12894,"Ġsprung":12895,"Ġruling":12896,"precisely":12897,"Ġdeduced":12898,"Ġdeduction":12899,"Ġidiot":12900,"Ġworkingmen":12901,"Ġ1830":12902,"Ġ1832":12903,"Ġhayes":12904,"Ġpulsating":12905,"Ġlogic":12906,"Ġrejoicing":12907,"Ġreckless":12908,"Ġnegotiate":12909,"Ġsuperiority":12910,"Ġfacilit":12911,"Ġdespairing":12912,"Ġricher":12913,"Ġsepticaemia":12914,"Ġresection":12915,"Ġapron":12916,"Ġovertake":12917,"Ġperplexed":12918,"Ġemboli":12919,"republic":12920,"Ġspeedily":12921,"Ġweariness":12922,"Ġperforated":12923,"Ġperforating":12924,"Ġchallenged":12925,"Ġidentical":12926,"Ġoxford":12927,"Ġappreciate":12928,"Ġdeposited":12929,"Ġcautiously":12930,"Ġlimitations":12931,"Ġcontributed":12932,"Ġ1763":12933,"Ġprincipally":12934,"Ġbreadth":12935,"Ġpinch":12936,"calc":12937,"Ġunusually":12938,"Ġdisposal":12939,"Ġgleam":12940,"Ġfreemasons":12941,"princess":12942,"Ġcolorado":12943,"Ġrecovering":12944,"Ġtrifling":12945,"Ġschemes":12946,"Ġbetraying":12947,"psho":12948,"Ġneighborhood":12949,"Ġrigidity":12950,"Ġnourished":12951,"Ġrheumatic":12952,"everything":12953,"Ġshyly":12954,"Ġpicket":12955,"nesty":12956,"Ġmartial":12957,"Ġweapons":12958,"Ġdisappointment":12959,"Ġfierce":12960,"Ġpuffing":12961,"Ġrefrained":12962,"criptions":12963,"Ġcoincidence":12964,"Ġtradesmen":12965,"Ġauersper":12966,"Ġburen":12967,"Ġincomes":12968,"Ġpuritan":12969,"Ġhypoderm":12970,"Ġcasual":12971,"Ġpedunculated":12972,"Ġdoran":12973,"Ġdorog":12974,"uclear":12975,"Ġpolitely":12976,"Ġengineer":12977,"Ġproliferation":12978,"Ġpopulists":12979,"Ġarsenic":12980,"Ġdisintegration":12981,"Ġbuffalo":12982,"street":12983,"Ġdissection":12984,"Ġgrimace":12985,"Ġecstatic":12986,"Ġbustle":12987,"Ġimprisoned":12988,"Ġexploit":12989,"Ġstaggering":12990,"Ġrecruits":12991,"Ġpremises":12992,"Ġexpanded":12993,"Ġapologize":12994,"Ġtoleration":12995,"Ġtossed":12996,"Ġcongreg":12997,"Ġdiscoloration":12998,"Ġsarcastic":12999,"Ġeloquent":13000,"Ġsentinel":13001,"Ġpotatoes":13002,"Ġhydrogen":13003,"Ġunhealthy":13004,"Ġforesight":13005,"Ġscrutin":13006,"Ġkaragina":13007,"+--------------+--------------":13008,"build":13009,"Ġdenser":13010,"Ġkerchief":13011,"Ġdisinfected":13012,"Ġbradstreet":13013,"Ġlascar":13014,"Ġcomputer":13015,"Ġdiabetes":13016,"Ġbargain":13017,"Ġsummons":13018,"Ġsubmarine":13019,"Ġresentment":13020,"Ġscenes":13021,"Ġphagocytes":13022,"Ġexhaustion":13023,"Ġrhine":13024,"Ġholland":13025,"Ġmolasses":13026,"Ġindecision":13027,"Ġtechnical":13028,"Ġmagnificent":13029,"Ġtsarevich":13030,"Ġpectoral":13031,"Ġsokol":13032,"Ġchisel":13033,"epitheli":13034,"Ġscurvy":13035,"Ġmalignancy":13036,"Ġturkish":13037,"Ġryder":13038,"Ġunbuttoned":13039,"Ġappetite":13040,"Ġdevitalised":13041,"Ġantecedent":13042,"macdonald":13043,"Ġpatella":13044,"Ġarmfeldt":13045,"radiogram":13046,"Ġophthalm":13047,"Ġbivou":13048,"Ġorchestra":13049,"Ġmytishchi":13050,"Ġconspicuous":13051,"Ġsacrifices":13052,"Ġnoncommissioned":13053,"Ġauersperg":13054,"'.":13055,"87":13056,"90":13057,";--":13058,"aits":13059,"bin":13060,"bacter":13061,"brown":13062,"bott":13063,"cf":13064,"call":13065,"dis":13066,"ele":13067,"fall":13068,"fine":13069,"fire":13070,"facing":13071,"fashion":13072,"gently":13073,"han":13074,"hab":13075,"hard":13076,"ike":13077,"kins":13078,"lat":13079,"lou":13080,"loy":13081,"lower":13082,"lupus":13083,"ms":13084,"mid":13085,"nin":13086,"nosed":13087,"pain":13088,"pated":13089,"rament":13090,"sire":13091,"spir":13092,"sburgh":13093,"tom":13094,"tum":13095,"table":13096,"voc":13097,"Ġtay":13098,"Ġtacit":13099,"heres":13100,"Ġawe":13101,"Ġavert":13102,"internal":13103,"inisc":13104,"Ġole":13105,"Ġoval":13106,"Ġsain":13107,"Ġsine":13108,"rev":13109,"Ġwre":13110,"Ġwens":13111,"Ġwink":13112,"erine":13113,"onious":13114,"Ġbid":13115,"Ġbount":13116,"Ġbible":13117,"Ġbuz":13118,"Ġbored":13119,"Ġbitten":13120,"isn":13121,"isan":13122,"Ġcel":13123,"Ġcents":13124,"Ġhan":13125,"itives":13126,"enn":13127,"Ġfest":13128,"Ġfab":13129,"Ġfete":13130,"Ġpu":13131,"Ġpov":13132,"Ġmast":13133,"Ġmoore":13134,"ingo":13135,"ington":13136,"ingitis":13137,"Ġinward":13138,"Ġdrying":13139,"Ġdagger":13140,"Ġtoken":13141,"arf":13142,"anter":13143,"ania":13144,"anks":13145,"Ġlang":13146,"Ġlorr":13147,"llen":13148,"Ġnic":13149,"Ġnormally":13150,"Ġhears":13151,"omal":13152,"icus":13153,"iony":13154,"Ġegot":13155,"Ġgift":13156,"Ġgasped":13157,"alysis":13158,"Ġrend":13159,"Ġrely":13160,"Ġrelic":13161,"Ġreverse":13162,"rooms":13163,"imary":13164,"Ġugly":13165,"ctic":13166,"Ġwasn":13167,"Ġashes":13168,"Ġstu":13169,"Ġsticking":13170,"Ġyarosl":13171,"irrit":13172,"Ġanec":13173,"Ġanarch":13174,"Ġrural":13175,"Ġconver":13176,"Ġconvert":13177,"Ġfriday":13178,"among":13179,"Ġhadn":13180,"Ġorth":13181,"herland":13182,"ilbl":13183,"ulic":13184,"ulcer":13185,"alling":13186,"Ġsect":13187,"Ġseward":13188,"usually":13189,"Ġdew":13190,"Ġdegr":13191,"Ġvon":13192,"--'":13193,"Ġshore":13194,"Ġshaken":13195,"Ġshaved":13196,"Ġshorter":13197,"Ġkam":13198,"ppers":13199,"Ġhernia":13200,"Ġexile":13201,"Ġexert":13202,"empor":13203,"agne":13204,"ifully":13205,"Ġsavan":13206,"Ġsausage":13207,"Ġchuck":13208,"Ġchaff":13209,"ummy":13210,"Ġproceeding":13211,"Ġalve":13212,"Ġalaska":13213,"Ġjac":13214,"Ġspar":13215,"Ġspons":13216,"Ġuphold":13217,"Ġintrig":13218,"opular":13219,"Ġlev":13220,"Ġ118":13221,"Ġunm":13222,"Ġunav":13223,"Ġuniver":13224,"Ġunloc":13225,"Ġunmar":13226,"ieves":13227,"Ġdoings":13228,"Ġprinces":13229,"Ġdisin":13230,"Ġdishes":13231,"Ġdisob":13232,"Ġdisfranch":13233,"Ġmans":13234,"Ġmanip":13235,"Ġadap":13236,"Ġadequ":13237,"unci":13238,"Ġcoquet":13239,"ocy":13240,"ocular":13241,"Ġoutward":13242,"Ġagency":13243,"ibule":13244,"industri":13245,"ostic":13246,"odion":13247,"Ġclasped":13248,"Ġapple":13249,"Ġcontour":13250,"Ġoffset":13251,"cii":13252,"cile":13253,"avl":13254,"Ġtrache":13255,"Ġpartisan":13256,"Ġresidence":13257,"Ġresume":13258,"Ġafresh":13259,"Ġcounten":13260,"ubo":13261,"Ġblown":13262,"Ġreminisc":13263,"Ġbriony":13264,"Ġindist":13265,"Ġindub":13266,"Ġinduction":13267,"Ġhandled":13268,"Ġpertur":13269,"Ġgrudge":13270,"Ġglute":13271,"Ġglorious":13272,"Ġfoet":13273,"udo":13274,"Ġimpe":13275,"Ġimpost":13276,"Ġthence":13277,"phlebitis":13278,"Ġflared":13279,"Ġflog":13280,"Ġwarn":13281,"iousness":13282,"Ġscatter":13283,"Ġdownhill":13284,"Ġstrang":13285,"Ġstrains":13286,"Ġslipp":13287,"Ġslammed":13288,"Ġ218":13289,"Ġaccomm":13290,"fulness":13291,"Ġregulating":13292,"whose":13293,"Ġthoughtfully":13294,"Ġmustaches":13295,"Ġstatesman":13296,"Ġdeser":13297,"Ġ1820":13298,"amped":13299,"Ġsubur":13300,"Ġsubside":13301,"soas":13302,"Ġmetat":13303,"Ġ420":13304,"Ġ411":13305,"Ġgeneralised":13306,"Ġheaded":13307,"Ġpoles":13308,"Ġsupplying":13309,"Ġdiffers":13310,"Ġassent":13311,"Ġassailed":13312,"Ġbackground":13313,"Ġstreams":13314,"Ġcallous":13315,"Ġreaders":13316,"Ġrefres":13317,"Ġreflex":13318,"Ġpersists":13319,"olding":13320,"Ġsets":13321,"Ġnapkin":13322,"Ġmazur":13323,"Ġpleura":13324,"Ġdrums":13325,"Ġbloodstained":13326,"Ġcaes":13327,"Ġsideways":13328,"Ġmorbid":13329,"Ġparas":13330,"Ġparox":13331,"Ġfinest":13332,"Ġredeem":13333,"Ġmonaster":13334,"Ġmonoton":13335,"renous":13336,"Ġrevoir":13337,"Ġnearness":13338,"Ġadmire":13339,"Ġcrou":13340,"Ġspeaks":13341,"Ġboats":13342,"Ġveiled":13343,"primary":13344,"Ġdecomp":13345,"Ġfrontal":13346,"Ġimports":13347,"Ġoppression":13348,"deev":13349,"Ġcirc":13350,"Ġhighways":13351,"ugal":13352,"Ġharding":13353,"Ġlesson":13354,"erential":13355,"Ġthirteenth":13356,"Ġopera":13357,"bridge":13358,"Ġproportions":13359,"Ġprevention":13360,"Ġlightning":13361,"Ġulm":13362,"Ġnightcap":13363,"Ġexplains":13364,"Ġmerits":13365,"Ġvisits":13366,"Ġadjour":13367,"Ġcollodion":13368,"Ġdivor":13369,"Ġdifferentiate":13370,"Ġportfol":13371,"Ġpope":13372,"ediate":13373,"Ġopenings":13374,"Ġdevils":13375,"Ġbalcon":13376,"Ġpublican":13377,"Ġlymphadenitis":13378,"Ġlinked":13379,"Ġfavors":13380,"Ġfavoured":13381,"Ġholders":13382,"Ġtrend":13383,"Ġ61":13384,"Ġdrives":13385,"aiming":13386,"Ġbelieving":13387,"Ġappeals":13388,"Ġdemocrat":13389,"Ġparticulars":13390,"Ġsniff":13391,"Ġbarred":13392,"Ġpeterson":13393,"coman":13394,"Ġsixteenth":13395,"Ġhysterical":13396,"Ġcrosses":13397,"Ġpaste":13398,"Ġpostp":13399,"Ġaccountant":13400,"Ġannette":13401,"Ġ161":13402,"Ġtrip":13403,"Ġrequiring":13404,"Ġexperiences":13405,"Ġgallant":13406,"Ġgallery":13407,"Ġstudent":13408,"Ġstudying":13409,"Ġgangrenous":13410,"Ġwatery":13411,"Ġcourtes":13412,"Ġvermont":13413,"Ġwhiskers":13414,"Ġkeeps":13415,"Ġ72":13416,"Ġ78":13417,"Ġ107":13418,"Ġsenses":13419,"Ġreporting":13420,"Ġdespise":13421,"Ġcompliment":13422,"Ġcomplication":13423,"Ġradius":13424,"Ġdimensions":13425,"Ġ84":13426,"Ġprime":13427,"Ġcreaking":13428,"Ġcreaked":13429,"Ġundes":13430,"Ġ1863":13431,"Ġfinely":13432,"Ġ159":13433,"ychia":13434,"erties":13435,"Ġliberties":13436,"Ġgranulating":13437,"Ġgladly":13438,"cyst":13439,"figs":13440,"Ġwinchester":13441,"Ġ131":13442,"Ġ133":13443,"Ġ135":13444,"Ġ138":13445,"Ġ115":13446,"Ġmutton":13447,"Ġappointments":13448,"Ġcommunicating":13449,"colonial":13450,"Ġblew":13451,"Ġirritability":13452,"Ġ126":13453,"Ġextensors":13454,"Ġironic":13455,"Ġironical":13456,"Ġbursal":13457,"Ġbelly":13458,"Ġbelligerent":13459,"Ġclassification":13460,"Ġlodges":13461,"Ġlodgings":13462,"Ġ1915":13463,"Ġrestrained":13464,"Ġcaptains":13465,"Ġdmitrich":13466,"Ġ146":13467,"Ġ149":13468,"Ġearthly":13469,"Ġjeffersonian":13470,"Ġmultip":13471,"Ġgroove":13472,"Ġsmoked":13473,"Ġworksh":13474,"Ġapartment":13475,"Ġkarl":13476,"Ġkaray":13477,"Ġ308":13478,"Ġ322":13479,"Ġgriz":13480,"apeut":13481,"ulyu":13482,"Ġcordially":13483,"Ġdreaded":13484,"ominate":13485,"Ġcomparative":13486,"Ġwolves":13487,"ĠĠĠĠĠĠĠĠĠĠĠĠĠĠĠĠĠĠĠĠĠĠĠĠĠĠĠ":13488,"Ġratio":13489,"Ġcomforts":13490,"Ġvenereal":13491,"Ġspleen":13492,"Ġdiminishes":13493,"Ġtopic":13494,"Ġspecie":13495,"Ġ431":13496,"Ġ437":13497,"Ġ460":13498,"Ġ466":13499,"Ġ1778":13500,"Ġ369":13501,"Ġ521":13502,"Ġ524":13503,"Ġ529":13504,"Ġdominated":13505,"Ġcasting":13506,"Ġpacket":13507,"Ġmagnitski":13508,"Ġgardens":13509,"Ġvalleys":13510,"Ġunfair":13511,"Ġ259":13512,"Ġ276":13513,"Ġ508":13514,"Ġenterprises":13515,"Ġnarrowing":13516,"Ġ265":13517,"Ġsympathies":13518,"Ġ406":13519,"Ġsplendidly":13520,"Ġqualification":13521,"Ġgaunt":13522,"Ġfools":13523,"Ġsuggestive":13524,"Ġdelicacy":13525,"Ġsafely":13526,"Ġjumping":13527,"Ġ1901":13528,"Ġtibial":13529,"Ġfalsehood":13530,"Ġaccessible":13531,"Ġ1783":13532,"Ġexplanations":13533,"Ġstupidity":13534,"Ġmatrix":13535,"Ġmelanotic":13536,"Ġsmoothly":13537,"Ġsubsided":13538,"Ġ344":13539,"marked":13540,"zinger":13541,"Ġ389":13542,"Ġstamped":13543,"Ġshriveled":13544,"Ġcolleges":13545,"Ġsutured":13546,"Ġsutherland":13547,"Ġcrafts":13548,"Ġstarvation":13549,"Ġnobleman":13550,"Ġflourish":13551,"Ġnegotiation":13552,"Ġhindrance":13553,"Ġluminous":13554,"Ġaffording":13555,"Ġgravely":13556,"Ġresected":13557,"Ġresearch":13558,"Ġcorrectly":13559,"Ġproofread":13560,"Ġconsultation":13561,"Ġzealous":13562,"niki":13563,"Ġdesperation":13564,"Ġdesperately":13565,"Ġswords":13566,"Ġembarrassing":13567,"Ġfasciae":13568,"Ġsleighs":13569,"Ġidentity":13570,"Ġenvoy":13571,"Ġmingling":13572,"Ġconciliation":13573,"Ġconquered":13574,"load":13575,"Ġanaly":13576,"Ġ2001":13577,"Ġ2002":13578,"Ġmissionaries":13579,"Ġmagist":13580,"Ġuneasiness":13581,"Ġjudiciary":13582,"Ġemphasis":13583,"Ġpenetrate":13584,"Ġtrifle":13585,"Ġradicals":13586,"Ġpouches":13587,"Ġunsatis":13588,"Ġdelirious":13589,"Ġinsignificance":13590,"Ġamazement":13591,"Ġharnessed":13592,"Ġgarments":13593,"Ġkidneys":13594,"Ġgraceful":13595,"Ġantiseptics":13596,"Ġsuspicious":13597,"Ġsupplement":13598,"Ġromance":13599,"Ġromantic":13600,"Ġstrategy":13601,"Ġendeavoured":13602,"Ġcapsular":13603,
[...]
